{"version":"1.0","truncation":null,"padding":null,"added_tokens":[{"id":0,"special":true,"content":"<s>","single_word":false,"lstrip":false,"rstrip":false,"normalized":false},{"id":1,"special":true,"content":"<pad>","single_word":false,"lstrip":false,"rstrip":false,"normalized":false},{"id":2,"special":true,"content":"</s>","single_word":false,"lstrip":false,"rstrip":false,"normalized":false},{"id":3,"special":true,"content":"<unk>","single_word":false,"lstrip":false,"rstrip":false,"normalized":false},{"id":4,"special":true,"content":"<mask>","single_word":false,"lstrip":false,"rstrip":false,"normalized":false}],"normalizer":null,"pre_tokenizer":{"type":"ByteLevel","add_prefix_space":false,"trim_offsets":true},"post_processor":{"type":"ByteLevel","add_prefix_space":true,"trim_offsets":false},"decoder":{"type":"ByteLevel","add_prefix_space":true,"trim_offsets":true},"model":{"type":"BPE","dropout":null,"unk_token":null,"continuing_subword_prefix":null,"end_of_word_suffix":null,"fuse_unk":false,"vocab":{"<s>":0,"<pad>":1,"</s>":2,"<unk>":3,"<mask>":4,"!":5,"\"":6,"#":7,"$":8,"%":9,"&":10,"'":11,"(":12,")":13,"*":14,"+":15,",":16,"-":17,".":18,"/":19,"0":20,"1":21,"2":22,"3":23,"4":24,"5":25,"6":26,"7":27,"8":28,"9":29,":":30,";":31,"<":32,"=":33,">":34,"?":35,"@":36,"A":37,"B":38,"C":39,"D":40,"E":41,"F":42,"G":43,"H":44,"I":45,"J":46,"K":47,"L":48,"M":49,"N":50,"O":51,"P":52,"Q":53,"R":54,"S":55,"T":56,"U":57,"V":58,"W":59,"X":60,"Y":61,"Z":62,"[":63,"\\":64,"]":65,"^":66,"_":67,"`":68,"a":69,"b":70,"c":71,"d":72,"e":73,"f":74,"g":75,"h":76,"i":77,"j":78,"k":79,"l":80,"m":81,"n":82,"o":83,"p":84,"q":85,"r":86,"s":87,"t":88,"u":89,"v":90,"w":91,"x":92,"y":93,"z":94,"{":95,"|":96,"}":97,"~":98,"¡":99,"¢":100,"£":101,"¤":102,"¥":103,"¦":104,"§":105,"¨":106,"©":107,"ª":108,"«":109,"¬":110,"®":111,"¯":112,"°":113,"±":114,"²":115,"³":116,"´":117,"µ":118,"¶":119,"·":120,"¸":121,"¹":122,"º":123,"»":124,"¼":125,"½":126,"¾":127,"¿":128,"À":129,"Á":130,"Â":131,"Ã":132,"Ä":133,"Å":134,"Æ":135,"Ç":136,"È":137,"É":138,"Ê":139,"Ë":140,"Ì":141,"Í":142,"Î":143,"Ï":144,"Ð":145,"Ñ":146,"Ò":147,"Ó":148,"Ô":149,"Õ":150,"Ö":151,"×":152,"Ø":153,"Ù":154,"Ú":155,"Û":156,"Ü":157,"Ý":158,"Þ":159,"ß":160,"à":161,"á":162,"â":163,"ã":164,"ä":165,"å":166,"æ":167,"ç":168,"è":169,"é":170,"ê":171,"ë":172,"ì":173,"í":174,"î":175,"ï":176,"ð":177,"ñ":178,"ò":179,"ó":180,"ô":181,"õ":182,"ö":183,"÷":184,"ø":185,"ù":186,"ú":187,"û":188,"ü":189,"ý":190,"þ":191,"ÿ":192,"Ā":193,"ā":194,"Ă":195,"ă":196,"Ą":197,"ą":198,"Ć":199,"ć":200,"Ĉ":201,"ĉ":202,"Ċ":203,"ċ":204,"Č":205,"č":206,"Ď":207,"ď":208,"Đ":209,"đ":210,"Ē":211,"ē":212,"Ĕ":213,"ĕ":214,"Ė":215,"ė":216,"Ę":217,"ę":218,"Ě":219,"ě":220,"Ĝ":221,"ĝ":222,"Ğ":223,"ğ":224,"Ġ":225,"ġ":226,"Ģ":227,"ģ":228,"Ĥ":229,"ĥ":230,"Ħ":231,"ħ":232,"Ĩ":233,"ĩ":234,"Ī":235,"ī":236,"Ĭ":237,"ĭ":238,"Į":239,"į":240,"İ":241,"ı":242,"Ĳ":243,"ĳ":244,"Ĵ":245,"ĵ":246,"Ķ":247,"ķ":248,"ĸ":249,"Ĺ":250,"ĺ":251,"Ļ":252,"ļ":253,"Ľ":254,"ľ":255,"Ŀ":256,"ŀ":257,"Ł":258,"ł":259,"Ń":260,"de":261,"Ġe":262,"Ġde":263,"Ġl":264,"os":265,"Ġp":266,"Ġc":267,"ar":268,"en":269,"er":270,"Ġa":271,"es":272,"as":273,"Ġs":274,"on":275,"ci":276,"or":277,"ue":278,"an":279,"Ġm":280,"ad":281,"al":282,"Ġla":283,"que":284,"Ġen":285,"un":286,"Ã³":287,"in":288,"Ġt":289,"re":290,"Ġy":291,"st":292,"Ġque":293,"ent":294,"Ġel":295,"ÃŃ":296,"ic":297,"Ġcon":298,"Ã³n":299,"Ã¡":300,"Ġn":301,"Ġun":302,"Ġh":303,"om":304,"ra":305,"do":306,"ro":307,"di":308,"ti":309,"Ġse":310,"Ġf":311,"ciÃ³n":312,"Ġv":313,"am":314,"Ġes":315,"Ġlos":316,"Ġpar":317,"te":318,"Ġest":319,"Ġo":320,"le":321,"ta":322,"ri":323,"Ġin":324,"Ġre":325,"Ã©":326,"to":327,"Ġsu":328,"Ġdel":329,"ado":330,"ol":331,"id":332,"Ġcom":333,"ĠC":334,"res":335,"ab":336,"ĠE":337,"Ġal":338,"Ġpor":339,"ec":340,"Ġb":341,"Ġd":342,"Ġlas":343,"Ġpara":344,"Ġg":345,"ente":346,"mp":347,"Ã±":348,"ĠA":349,"is":350,"aciÃ³n":351,"ĠP":352,"Ġuna":353,"ĠS":354,"il":355,"cion":356,"ÃŃa":357,"Ġdi":358,"Ġno":359,"ul":360,"âĢ":361,"qu":362,"ĠM":363,"Ġpro":364,"tu":365,"ac":366,"Ġsi":367,"Ã¡s":368,"Ġper":369,"Ġcu":370,"ĠL":371,"ter":372,"ien":373,"tr":374,"lo":375,"la":376,"ada":377,"Ġme":378,"io":379,"da":380,"Ġlo":381,"ma":382,"uc":383,"ist":384,"ir":385,"Ãº":386,"Ġdes":387,"ica":388,"ia":389,"el":390,"cia":391,"gu":392,"ĠD":393,"Ġac":394,"tos":395,"us":396,"go":397,"iz":398,"ier":399,"ient":400,"ran":401,"tiv":402,"it":403,"Ġ1":404,"Ġcomo":405,"Ġ(":406,"ales":407,"ando":408,"Ġto":409,"Ġex":410,"Ġi":411,"idad":412,"Ġ2":413,"..":414,"ues":415,"ciones":416,"ĠT":417,"Ġha":418,"ĠmÃ¡s":419,"mo":420,"ici":421,"mos":422,"aj":423,"se":424,"bre":425,"ados":426,"tor":427,"ico":428,"ĠR":429,"cu":430,"pa":431,"ie":432,"Ã¡n":433,"Ġser":434,"dad":435,"ĠB":436,"Ġj":437,"Ġpo":438,"den":439,"iv":440,"Ġso":441,"Ġan":442,"tra":443,"ĠG":444,"tes":445,"des":446,"ĠN":447,"ĠI":448,"bi":449,"ten":450,"era":451,"tro":452,"ĠF":453,"tar":454,"Ġtra":455,"Ġres":456,"ĠâĢ":457,"ida":458,"Ġap":459,"iÃ³n":460,"ras":461,"ig":462,"co":463,"ib":464,"ero":465,"Ġle":466,"im":467,"ch":468,"Ġte":469,"orm":470,"ca":471,"ador":472,"dos":473,"Ġpue":474,"iento":475,"Ġcomp":476,"um":477,"Ġqu":478,"Ġmu":479,"Ġpre":480,"Ġsus":481,"per":482,"ios":483,"ce":484,"ante":485,"Ġma":486,"Ġten":487,"po":488,"00":489,"ru":490,"tas":491,"der":492,"Ã©n":493,"âĢĿ":494,"ez":495,"Ġas":496,"ĠH":497,"Ġpr":498,"amos":499,"ĠV":500,"amente":501,"Ġpa":502,"pe":503,"tre":504,"Ġar":505,"Ġeste":506,"uch":507,"ĠJ":508,"bl":509,"ĠaÃ±":510,"Ġhac":511,"Ġhab":512,"ĠU":513,"mente":514,"Ġca":515,"ara":516,"uer":517,"Ġman":518,"Ġimp":519,"con":520,"gun":521,"encia":522,"ĠâĢľ":523,"gar":524,"ion":525,"ĠEl":526,"Ġpres":527,"son":528,"ido":529,"rim":530,"ur":531,"Ġpero":532,"Ġsin":533,"aliz":534,"ĠLa":535,"na":536,"ga":537,"ambi":538,"adas":539,"Ġcas":540,"tros":541,"duc":542,"Ġesta":543,"Ġtien":544,"ust":545,"Ã©s":546,"ento":547,"El":548,"uev":549,"les":550,"ina":551,"Ġson":552,"ver":553,"za":554,"fer":555,"Ġver":556,"ĠO":557,"los":558,"Ġpas":559,"Ġr":560,"das":561,"je":562,"Ġmo":563,"ores":564,"Ġinter":565,"Ġdis":566,"ana":567,"ens":568,"Ãºn":569,"01":570,"ĠEn":571,"...":572,"ora":573,"Ġperson":574,"Ġsobre":575,"ces":576,"las":577,"cul":578,"Ġcar":579,"cl":580,"Ġco":581,"ario":582,"ĠÂ":583,"Ġentre":584,"no":585,"icos":586,"entes":587,"lan":588,"ĠEst":589,"Ġlle":590,"tal":591,"Ġor":592,"Ġmis":593,"Ġcons":594,"Ġob":595,"Ġsol":596,"por":597,"Ġemp":598,"icas":599,"Ġnues":600,"baj":601,"Ġam":602,"Ġtu":603,"pon":604,"Ġnos":605,"Ġinf":606,"Ġmuch":607,"ĠIn":608,"ĠEs":609,"Ġya":610,"ech":611,"emos":612,"cias":613,"Ġmuy":614,"paÃ±":615,"cial":616,"enta":617,"em":618,"Ġsal":619,"Ġcre":620,"ambiÃ©n":621,"Ġtodo":622,"Ġmedi":623,"oy":624,"Ġ3":625,"La":626,"jo":627,"eces":628,"Ġcor":629,"Ġpos":630,"Ġ\"":631,"dr":632,"if":633,"par":634,"Ġab":635,"Ġ201":636,"Ġesc":637,"able":638,"Ġprim":639,"Ġnuev":640,"ĠCon":641,"Ġmi":642,"Ġmej":643,"Ġdeb":644,"tivo":645,"Ġfin":646,"ano":647,"Ġtan":648,"rec":649,"gra":650,"cional":651,"oc":652,"ÃŃas":653,"endo":654,"min":655,"aba":656,"ÃŃn":657,"Ġmar":658,"orma":659,"ve":660,"Ġcam":661,"cio":662,"Ã±o":663,"til":664,"ita":665,"me":666,"Ġtrabaj":667,"udi":668,"tura":669,"ÃŃs":670,"ĠestÃ¡":671,"ias":672,"pos":673,"uen":674,"ble":675,"fici":676,"ba":677,"ĠY":678,"ĠaÃ±os":679,"ren":680,"eb":681,"Ġpe":682,"esti":683,"Ġgran":684,"En":685,"ĠtambiÃ©n":686,"Ġcal":687,"lar":688,"Ġdu":689,"asta":690,"ista":691,"Ġfue":692,"mas":693,"ven":694,"antes":695,"Ġdesde":696,"Ġpuede":697,"idades":698,"Ġhay":699,"Ġus":700,"amiento":701,"Ġni":702,"gan":703,"ros":704,"Ġna":705,"arios":706,"cip":707,"Ġparti":708,"ut":709,"jer":710,"ĠRe":711,"Ġcol":712,"Ġdos":713,"Ġcuando":714,"Ġ-":715,"Ġhacer":716,"oci":717,"Ġcual":718,"ĠSe":719,"ino":720,"fec":721,"car":722,"ort":723,"Ġu":724,"Ġtiene":725,"Ġtodos":726,"Ġdon":727,"ud":728,"ĠUn":729,"qui":730,"iemp":731,").":732,"ÃŃt":733,"Ġsegu":734,"Ġreg":735,"Ġmen":736,"Ġmun":737,"lic":738,"aron":739,"Ġhasta":740,"gen":741,"mb":742,"Ġneces":743,"Ġter":744,"Ġprop":745,"pec":746,"Ġcos":747,"ĠÃ©":748,"Ġlu":749,"Ġhan":750,"Ġmejor":751,"Ġmay":752,"Ġ4":753,"ĠAl":754,"ener":755,"ing":756,"vi":757,"quier":758,"tiva":759,"ones":760,"og":761,"entos":762,"Ġbien":763,"arÃ¡":764,"Ġtiemp":765,"Ġdeci":766,"Ġdonde":767,"Ġcan":768,"tras":769,"mi":770,"Ġparte":771,"),":772,"Ġalgun":773,"Ġproduc":774,"so":775,"ay":776,"almente":777,"teri":778,"itu":779,"Ġad":780,"Ġexp":781,"Ġfun":782,"Ġch":783,"gr":784,"iones":785,"Ġgra":786,"mÃ¡s":787,"adores":788,"ob":789,"tur":790,"Ġ5":791,"Ġvez":792,"ĠDe":793,"Ġinform":794,"man":795,"uel":796,"can":797,"Ġmil":798,"Ġpol":799,"rib":800,"Ġcada":801,"Ġda":802,"zo":803,"Ġbuen":804,"ĠasÃŃ":805,"Ġrealiz":806,"idos":807,"Ġporque":808,"Ġforma":809,"ja":810,"et":811,"Ġll":812,"arse":813,"tado":814,"ste":815,"iu":816,"rante":817,"Ġpu":818,"Ġserv":819,"Ġtiempo":820,"Ġdo":821,"ĠCom":822,"ide":823,"ÃŃcul":824,"erv":825,"Ġve":826,"rol":827,"cil":828,"ona":829,"Ġsab":830,"Ġti":831,"ĠMar":832,"ĠNo":833,"emp":834,"âĢ¦":835,"eros":836,"pu":837,"Ġtran":838,"Ġespe":839,"cur":840,"ĠdÃŃa":841,"Ġ19":842,"ular":843,"unto":844,"com":845,"nos":846,"gos":847,"av":848,"ĠaÃ±o":849,"Ġne":850,"ĠÂ¿":851,"Ġuno":852,"ed":853,"ÃŃan":854,"miento":855,"Ġcer":856,"Ã©r":857,"Ġcontra":858,"Ġcl":859,"Ġade":860,"Ġinst":861,"Ġcont":862,"Ġconf":863,"Ġvida":864,"itar":865,"Ã±os":866,"Ãºl":867,"iden":868,"Ġah":869,"icaciÃ³n":870,"Ġempres":871,"ito":872,"Ġinv":873,"Ġdic":874,"ĠW":875,"vo":876,"ible":877,"Ġau":878,"ĠSan":879,"alidad":880,"Ġincl":881,"ilidad":882,"Ġop":883,"ĠAn":884,"Ġfu":885,"ea":886,"tivos":887,"Ġfuer":888,"Ġllev":889,"omb":890,"iudad":891,"arrol":892,"Ġpersonas":893,"aciones":894,"tir":895,"Ãºbl":896,"Ãºlti":897,"Ġprof":898,"lec":899,"ub":900,"Ġhace":901,"Ġlib":902,"Ġmismo":903,"Ġro":904,"Ġay":905,"Ġra":906,"Ġev":907,"ers":908,"Ġgener":909,"Ġlugar":910,"Ġof":911,"ĠCh":912,"at":913,"cios":914,"gÃºn":915,"Ġcomun":916,"Ġservici":917,"Ġmayor":918,"du":919,"ĠpaÃŃs":920,"cas":921,"ĠLos":922,"Ġotros":923,"Ġbas":924,"cor":925,"âĢĿ,":926,"Ġreci":927,"uego":928,"iciÃ³n":929,"Ġju":930,"ena":931,"Ġconst":932,"Ġdirec":933,"Ã¡t":934,"Ġtrans":935,"yec":936,"anos":937,"pues":938,"Ġpla":939,"ientos":940,"Ġsec":941,"Ġpodr":942,"Ġera":943,"Ġmin":944,"Ġ6":945,"Ġmom":946,"dic":947,"Ã±a":948,"incip":949,"Ġactu":950,"mpl":951,"Ġmas":952,"Ġplan":953,"Ġimport":954,"Ġmundo":955,"jos":956,"echo":957,"Ġden":958,"iendo":959,"Ġdist":960,"uy":961,"Ġrep":962,"ĠPor":963,"Ġval":964,"vers":965,"raciÃ³n":966,"Ġsig":967,"Ġdifer":968,"Ġform":969,"Ã©c":970,"ĠÃºlti":971,"Ġmes":972,"cuent":973,"Ġtanto":974,"ĠestÃ¡n":975,"Ġvis":976,"Ã³lo":977,"Ġdesarrol":978,"ĠK":979,"Ġmucho":980,"Ġviv":981,"Ġprincip":982,"ine":983,"ĠAr":984,"ton":985,"Ġencon":986,"âĢĿ.":987,"aje":988,"Ġdurante":989,"Ġw":990,"Ġutil":991,"Ġli":992,"Ġsent":993,"ombre":994,"Ġsolo":995,"Ġsiemp":996,"Ġsiempre":997,"tic":998,"Ġtrabajo":999,"endi":1000,"unque":1001,"vis":1002,"Ġequi":1003,"puÃ©s":1004,"amil":1005,"ismo":1006,"Ġtener":1007,"Ġpues":1008,"Ġcent":1009,"Ġhist":1010,"Ġpon":1011,"Ġher":1012,"Ġcuenta":1013,"Ġquien":1014,"rar":1015,"Ġdest":1016,"Ġcab":1017,"ĠLe":1018,"Ġles":1019,"oria":1020,"Ġbaj":1021,"Ġeso":1022,"Ġpes":1023,"trar":1024,"Ġdej":1025,"Ġestudi":1026,"cer":1027,"ruc":1028,"istas":1029,"ceso":1030,"Ġcaso":1031,"Ġcualquier":1032,"Ġciudad":1033,"segu":1034,"tel":1035,"ĠÃ¡":1036,"ĠPro":1037,"Ġquier":1038,"taciÃ³n":1039,"Ġalgo":1040,"tores":1041,"Ġtras":1042,"iente":1043,"fic":1044,"Ġese":1045,"Ġtar":1046,"rech":1047,"entar":1048,"Ġotro":1049,"sta":1050,"Ġvol":1051,"argo":1052,"Ġmenos":1053,"dades":1054,"dar":1055,"Ġresul":1056,"imo":1057,"Ġref":1058,"Ġcomple":1059,"Ġri":1060,"Ġllam":1061,"Ġencuent":1062,"Ġbus":1063,"Ġmujer":1064,"ĠcÃ³":1065,"ĠMe":1066,"zar":1067,"Ġhor":1068,"ĀĀ":1069,"Ġsido":1070,"Ġexper":1071,"Ġpoco":1072,"Ġtom":1073,"Ġnuestro":1074,"ene":1075,"Ġutiliz":1076,"ĠSi":1077,"uciÃ³n":1078,"eo":1079,"ho":1080,"cal":1081,"Ġven":1082,"teg":1083,"Ġpl":1084,"Ġtoda":1085,"Ãºs":1086,"Ġmomento":1087,"gua":1088,"ancia":1089,"ital":1090,"ierno":1091,"Ġsuper":1092,"ĠCar":1093,"Ġrela":1094,"Ġmon":1095,"Ġfal":1096,"Ġ7":1097,"Ġapar":1098,"Ġestos":1099,"Ġ200":1100,"ece":1101,"paÃ±a":1102,"Ġpueden":1103,"ĠinformaciÃ³n":1104,"Ġsea":1105,"Ġdef":1106,"ala":1107,"Ġhi":1108,"Ã³m":1109,"Ġtodas":1110,"omo":1111,"Ġgust":1112,"ĠAs":1113,"ola":1114,"Ġfamil":1115,"Ġproyec":1116,"cel":1117,"Ġ8":1118,"ivers":1119,"ciales":1120,"Ġmer":1121,"Ġprofes":1122,"ris":1123,"ĠDE":1124,"Ġnuestra":1125,"Ġnuevo":1126,"tan":1127,"Ġorgan":1128,"Ġpoder":1129,"Ġyo":1130,"Los":1131,"Ġproble":1132,"ĠQ":1133,"Ġtipo":1134,"tÃ³":1135,"ÃŃst":1136,"ĠpolÃŃt":1137,"Ġactiv":1138,"ĠpÃºbl":1139,"Ġtr":1140,"cre":1141,"CI":1142,"Ġtrav":1143,"Ġcap":1144,"Ġcul":1145,"Ġderech":1146,"ĠhabÃŃa":1147,"Ġz":1148,"uso":1149,"Ġemb":1150,"Ġva":1151,"ĠdÃŃas":1152,"Ġestar":1153,"uro":1154,"Ġantes":1155,"vil":1156,"Ġfi":1157,"tis":1158,"ÃŃo":1159,"Ġmanera":1160,"Ġobje":1161,"Ġhum":1162,"gres":1163,"ge":1164,"quel":1165,"Ġelec":1166,"Ġ10":1167,"Ġpubl":1168,"Ġprimer":1169,"olog":1170,"Ġhe":1171,"Ġtal":1172,"Ġtres":1173,"Ġprimera":1174,"ES":1175,"imiento":1176,"Ġesp":1177,"ima":1178,"eron":1179,"ĠdespuÃ©s":1180,"Ġahora":1181,"Ġide":1182,"ĠtravÃ©s":1183,"Ġ9":1184,"Ġotra":1185,"Ã¡c":1186,"Ġgru":1187,"omin":1188,"Ġtienen":1189,"Ġsigu":1190,"cep":1191,"ĠDes":1192,"Ġdar":1193,"Ġhecho":1194,"ĠsÃ³lo":1195,"tec":1196,"Ġesto":1197,"Ġvar":1198,"tamente":1199,"che":1200,"Ġaf":1201,"ĠquÃ©":1202,"Ġsegun":1203,"obierno":1204,"ĠNa":1205,"cos":1206,"aban":1207,"quÃŃ":1208,"ĠLas":1209,"tados":1210,"ivel":1211,"ual":1212,"ĠSu":1213,"siÃ³n":1214,"tica":1215,"Ġdecir":1216,"ER":1217,"Ġir":1218,"erg":1219,"Ġesa":1220,"Ã³g":1221,"ome":1222,"Ġfo":1223,"va":1224,"Ġotras":1225,"Ġba":1226,"ĠÃ":1227,"tivas":1228,"Ġgu":1229,"erÃŃa":1230,"Ġhoy":1231,"ap":1232,"Ġunos":1233,"Ġconoci":1234,"Ġcasa":1235,"Ġellos":1236,"ientes":1237,"Ġins":1238,"Ġgan":1239,"ientras":1240,"Ġfr":1241,"Ġprogra":1242,"Ġsitu":1243,"leg":1244,"van":1245,"Ġefec":1246,"Ġmal":1247,"Ġpel":1248,"Ġsub":1249,"idas":1250,"cidad":1251,"Ġpens":1252,"tural":1253,"Ġpeque":1254,"Ġaunque":1255,"Ġexist":1256,"Ġentr":1257,"Ã³r":1258,"iar":1259,"Ġespecial":1260,"dido":1261,"Ġnada":1262,"zas":1263,"Ġaquel":1264,"iÃ³":1265,"!!":1266,"Ġ,":1267,"dia":1268,"\",":1269,"ama":1270,"Ġrespon":1271,"Ġpermi":1272,"Ġcontin":1273,"Ġnivel":1274,"Ġante":1275,"ridad":1276,"ior":1277,"iencia":1278,"Ġrel":1279,"ĠCu":1280,"Ġecon":1281,"cado":1282,"eno":1283,"Ġestado":1284,"Ġorganiz":1285,"duci":1286,"Ġk":1287,"inas":1288,"sa":1289,"gas":1290,"Ġ.":1291,"Ġapro":1292,"ĠcÃ³mo":1293,"Ġpresent":1294,"ĠseÃ±":1295,"âĢľ":1296,"rado":1297,"ĠÃ©l":1298,"Ã¡g":1299,"AR":1300,"Ġbo":1301,"Ġmill":1302,"ril":1303,"inar":1304,"rist":1305,"OS":1306,"ern":1307,"Ġedi":1308,"Ġcier":1309,"ĠPar":1310,"Ã¡l":1311,"Ġpri":1312,"Ġeje":1313,"minist":1314,"000":1315,"Ġestas":1316,"Ġsino":1317,"EN":1318,"oso":1319,"Ġart":1320,"stema":1321,"Ġpal":1322,"Ġsistema":1323,"Ġtemp":1324,"ĠademÃ¡s":1325,"Ġautor":1326,"Ġdatos":1327,"Se":1328,"Ġdebe":1329,"Ġpi":1330,"eci":1331,"ĠMa":1332,"Ġbar":1333,"ord":1334,"ĠÃºn":1335,"lica":1336,"Ġsem":1337,"Ġdise":1338,"Ġmedio":1339,"Ãºm":1340,"ĠserÃ¡":1341,"ele":1342,"tener":1343,"Ġcomer":1344,"ĠCo":1345,"Ġpasado":1346,"ial":1347,"Con":1348,"Por":1349,"ĠX":1350,"Ġag":1351,"Ġmuchos":1352,"eza":1353,"ĠZ":1354,"Ġcambi":1355,"mar":1356,"imos":1357,"ĠPara":1358,"Ġcosas":1359,"Ġcapa":1360,"lor":1361,"Ġequipo":1362,"ific":1363,"Ġsan":1364,"terior":1365,"Ã©cn":1366,"idente":1367,"quil":1368,"adora":1369,"ĠPero":1370,"ON":1371,"Ġweb":1372,"sos":1373,"Ġos":1374,"Ġho":1375,"No":1376,"icia":1377,"ĠsÃŃ":1378,"Ġinteres":1379,"Ġejemp":1380,"cionales":1381,"Es":1382,"ĠTo":1383,"tam":1384,"Ġban":1385,"Ġalgunos":1386,"Ġimportante":1387,"untos":1388,"ÃŃculo":1389,"\".":1390,"cha":1391,"ĠEspaÃ±a":1392,"he":1393,"fica":1394,"Ġlleg":1395,"AS":1396,"Ġhistoria":1397,"ocer":1398,"tenciÃ³n":1399,"ulo":1400,"Ġempresa":1401,"ya":1402,"Ġtotal":1403,"Ġmillones":1404,"Ġ15":1405,"rig":1406,"Ġestable":1407,"tido":1408,"embre":1409,"Ġ20":1410,"Ġnuestros":1411,"Ġrepres":1412,"Ġella":1413,"Ġcalidad":1414,"ha":1415,"aran":1416,"ables":1417,"inos":1418,"Ġnueva":1419,"ĠÂ¡":1420,"anza":1421,"itos":1422,"Ġcompar":1423,"cri":1424,"ĠâĢĵ":1425,"Ġhoras":1426,"Ġesper":1427,"tad":1428,"bo":1429,"ep":1430,"Ġmientras":1431,"Ġservicios":1432,"ex":1433,"Ġfinal":1434,"ment":1435,"dan":1436,"adre":1437,"Ġele":1438,"ura":1439,"orn":1440,"AN":1441,"ieron":1442,"ip":1443,"Ġrecon":1444,"Ġvia":1445,"Ġaplic":1446,"Ġuso":1447,"Ġcontro":1448,"ologÃŃa":1449,"rir":1450,"Ġinici":1451,"ĠInter":1452,"Ġhacia":1453,"Ġinvesti":1454,"demos":1455,"bio":1456,"port":1457,"Ġrecu":1458,"Ġprofesion":1459,"Ġdiferentes":1460,"Ġcr":1461,"Â»":1462,"log":1463,"Ġveces":1464,"Ġservicio":1465,"Ġgente":1466,"orte":1467,"Ġdentro":1468,"gual":1469,"Ġespa":1470,"AL":1471,"Ġestaba":1472,"tidad":1473,"Ġdijo":1474,"Ġusu":1475,"ĠLo":1476,"ĠnÃºm":1477,"avor":1478,"abor":1479,"cimiento":1480,"ecn":1481,"Ġagua":1482,"Ġ12":1483,"tac":1484,"ilo":1485,"Ã³x":1486,"Ġacuer":1487,"ono":1488,"ĠCas":1489,"cie":1490,"Ġofre":1491,"Ġind":1492,"ĠsegÃºn":1493,"uela":1494,"Ġdispon":1495,"Si":1496,"Ġrev":1497,"Ġmuchas":1498,"ok":1499,"dio":1500,"ĠespaÃ±":1501,"all":1502,"Ġaut":1503,"ĠcompaÃ±":1504,"encias":1505,"ĠBar":1506,"Ġsocial":1507,"rid":1508,"Ġfuncion":1509,"Ġ18":1510,"Ġmisma":1511,"Ġello":1512,"ard":1513,"Ġpersona":1514,"and":1515,"Ġproductos":1516,"ĠSal":1517,"Ġrecor":1518,"Ġanti":1519,"Ġpan":1520,"Ġru":1521,"esta":1522,"Ġ...":1523,"ula":1524,"Ġima":1525,"Ġembargo":1526,"mple":1527,"Ġofici":1528,"Ġdistin":1529,"Ġtus":1530,"Ġgrupo":1531,"demÃ¡s":1532,"Ġcontinu":1533,"Ġllegar":1534,"Ġposible":1535,"ĠaquÃŃ":1536,"ral":1537,"âĢĻ":1538,"atro":1539,"gn":1540,"Ġdisf":1541,"cin":1542,"OR":1543,"uda":1544,"Ġescri":1545,"pi":1546,"ĠmÃ¡":1547,"ĠJu":1548,"illa":1549,"Ġley":1550,"rÃ¡":1551,"aria":1552,"ria":1553,"Ġproceso":1554,"Ġorig":1555,"Ġsue":1556,"Ġamb":1557,"Ġsex":1558,"Ġhaber":1559,"Ġconv":1560,"Ġclas":1561,"Ġfavor":1562,"Ġprov":1563,"olÃ³g":1564,"oma":1565,"icip":1566,"Ġvi":1567,"Ġmujeres":1568,"ĠtÃ©cn":1569,"ill":1570,"ĠMad":1571,"eta":1572,"bol":1573,"Ġvo":1574,"ĠmÃ©":1575,"stitu":1576,"Las":1577,"Ġgeneral":1578,"Ġpie":1579,"tio":1580,"tante":1581,"Ġjug":1582,"ĠPer":1583,"torio":1584,"Ġcuer":1585,"Ġejemplo":1586,"dida":1587,"Ġpregun":1588,"Ġcur":1589,"Ġespec":1590,"zÃ³n":1591,"Ġdesarrollo":1592,"graf":1593,"form":1594,"ber":1595,"dor":1596,"bido":1597,"turas":1598,"Ġencontrar":1599,"Ġayud":1600,"iso":1601,"ĠDi":1602,"unca":1603,"itas":1604,"Ġgrandes":1605,"Ġnoso":1606,"tamiento":1607,"ĠGu":1608,"Ġfueron":1609,"ach":1610,"Ġmode":1611,"Ġrecib":1612,"Ġproyecto":1613,"Â¿":1614,"Ġcondi":1615,"estiÃ³n":1616,"jas":1617,"ĠPa":1618,"Ġbajo":1619,"Ġluego":1620,"tera":1621,"ĠprÃ³x":1622,"ĠEx":1623,"Ġleg":1624,"pen":1625,"Ġpunto":1626,"ciendo":1627,"ĠfÃ¡":1628,"ĠNacional":1629,"ace":1630,"Ã¡m":1631,"gaciÃ³n":1632,"Ġparticip":1633,"ĠMÃ©":1634,"Ġpod":1635,"Ġ0":1636,"Ġquer":1637,"Ġint":1638,"Ġindi":1639,"Ġcin":1640,"Ġpersonal":1641,"Ġtri":1642,"Ġcompr":1643,"Ġeduc":1644,"pecto":1645,"Ġenf":1646,"Ġposib":1647,"Ġgas":1648,"ric":1649,"Ġcasi":1650,"Ġsemana":1651,"Ġdin":1652,"ecu":1653,"Est":1654,"tico":1655,"ĠÂ«":1656,"porte":1657,"Ġconten":1658,"ĠUnivers":1659,"unci":1660,"eleb":1661,"ĠniÃ±os":1662,"Ġnov":1663,"ĠRo":1664,"Ġsac":1665,"Ġconocer":1666,"Ġnosotros":1667,"Ġfor":1668,"ÂŃ":1669,"ĠeconÃ³m":1670,"Ġtrad":1671,"Ġampl":1672,"AD":1673,"Ġacuerdo":1674,"Ġdisfru":1675,"Ġcolor":1676,"Ġnombre":1677,"eras":1678,"Ġclar":1679,"Ġvalor":1680,"Ġminu":1681,"Ġmuer":1682,"Ġapoy":1683,"ajes":1684,"rea":1685,"ĠPo":1686,"Ġempresas":1687,"tonces":1688,"xico":1689,"Ġexperiencia":1690,"Ġvuel":1691,"Ġbuena":1692,"Ġinterna":1693,"IC":1694,"diÃ³":1695,"Ġorden":1696,"Ġdescu":1697,"Ġzona":1698,"ĠCol":1699,"Ġrespons":1700,"ĀĀĀĀ":1701,"Ġmie":1702,"ĠMan":1703,"pre":1704,"ĠAm":1705,"Ġinstal":1706,"Ġmejores":1707,"Ġgracias":1708,"Ġseguridad":1709,"Ġigual":1710,"ensa":1711,"Ġnego":1712,"Ġsalud":1713,"Ġceleb":1714,"ĠnÃºmero":1715,"uestra":1716,"ĠpÃ¡g":1717,"ite":1718,"acter":1719,"ĠSin":1720,"Ġextra":1721,"isiÃ³n":1722,"tÃ¡":1723,"Ġet":1724,"cina":1725,"osa":1726,"iene":1727,"dencia":1728,"ĠCa":1729,"Ġtendr":1730,"Ġtecn":1731,"abilidad":1732,"echa":1733,"ĠEste":1734,"ctu":1735,"fico":1736,"Ġcaus":1737,"Ġrecom":1738,"Ġpalab":1739,"Ãĥ":1740,"Ã¡p":1741,"ĠVal":1742,"ĠSo":1743,"Ġconsi":1744,"Ġrealizar":1745,"vid":1746,"Ġcuan":1747,"Ġlab":1748,"ne":1749,"Ġaum":1750,"izaciÃ³n":1751,"Ġmeses":1752,"posiciÃ³n":1753,"Ġlado":1754,"Ġall":1755,"201":1756,"Ġtermin":1757,"Ġasegu":1758,"Ġexpres":1759,"ram":1760,"Ġqued":1761,"Ġ/":1762,"Des":1763,"irm":1764,"Ġsa":1765,"Ã±as":1766,"Ġfamilia":1767,"toria":1768,"Ġdif":1769,"ĠMo":1770,"Al":1771,"Ġapren":1772,"Ġon":1773,"Ġtrata":1774,"Ġ|":1775,"ĠlÃŃ":1776,"Ġprev":1777,"Ġhombre":1778,"Ġcentro":1779,"ombres":1780,"Ġnatural":1781,"Ġfa":1782,"ban":1783,"ĠUna":1784,"Ġinte":1785,"ivo":1786,"Ġ11":1787,"lam":1788,"Ġ#":1789,"Ġcir":1790,"Ġlibro":1791,"Ġcumpl":1792,"Para":1793,"De":1794,"ire":1795,"ĠlÃŃn":1796,"ĠFran":1797,"Ġvent":1798,"Ġfuera":1799,"oles":1800,"dera":1801,"cis":1802,"puesto":1803,"Ġrecur":1804,"pti":1805,"gent":1806,"izo":1807,"Ġpuedes":1808,"anci":1809,"Ġnunca":1810,"Ġincluso":1811,"Ġmercado":1812,"dose":1813,"ĠEsta":1814,"Ġ30":1815,"Ġjuego":1816,"ĠprÃ¡c":1817,"ĠMadrid":1818,"Ġtenemos":1819,"Ġhemos":1820,"Ġjue":1821,"Ġamig":1822,"Ġdeber":1823,"Ġ2018":1824,"Ġpresidente":1825,"ĠEstado":1826,"ĠMun":1827,"ies":1828,"portun":1829,"Ġmateri":1830,"Ġemple":1831,"Ġ[":1832,"isto":1833,"Ġamor":1834,"Ġunas":1835,"ares":1836,"ecer":1837,"Ġperfec":1838,"icamente":1839,"Ġalim":1840,"Ġacer":1841,"Ġparece":1842,"bar":1843,"Ġproblemas":1844,"Ġdestac":1845,"Ġcambio":1846,"Ġalcan":1847,"Ġregist":1848,"Ġincluy":1849,"Ġsen":1850,"oluciÃ³n":1851,"Ġtengo":1852,"net":1853,"Ġale":1854,"Ġjust":1855,"Ãĵ":1856,"Ġcomen":1857,"dente":1858,"ĠaÃºn":1859,"Ġhora":1860,"Ġust":1861,"ĠCent":1862,"uros":1863,"Ġseguir":1864,"Ġrefer":1865,"und":1866,"titu":1867,"Ġjunto":1868,"Ġprograma":1869,"Ġsaber":1870,"tific":1871,"Ġalguna":1872,"ĠrelaciÃ³n":1873,"icado":1874,"bles":1875,"end":1876,"ile":1877,"af":1878,"termin":1879,"rio":1880,"Ġcontac":1881,"lu":1882,"ĠEuro":1883,"reg":1884,"tando":1885,"Ġoportun":1886,"Ġafec":1887,"Ġmos":1888,"Ġsolici":1889,"Ġponer":1890,"alizaciÃ³n":1891,"respon":1892,"ĠMÃ©xico":1893,"ĠCor":1894,"yo":1895,"Ġdefin":1896,"Ġsign":1897,"Ġalgunas":1898,"ĠLu":1899,"Ġetc":1900,"Ġdomin":1901,"Ġcuatro":1902,"ĠMon":1903,"Ġfac":1904,"Ġfoto":1905,"Qu":1906,"Ġred":1907,"Ġtema":1908,"IN":1909,"ĠDios":1910,"tada":1911,"Ġcuerpo":1912,"Ġprecio":1913,"usiÃ³n":1914,"cido":1915,"eric":1916,"iera":1917,"ĠsituaciÃ³n":1918,"Ġpartir":1919,"inaciÃ³n":1920,"Ġanim":1921,"Â¡":1922,"Ġpuer":1923,"Ġnorm":1924,"Ġnacional":1925,"ĠJos":1926,"Ġdocu":1927,"Ġcoment":1928,"Ġgobierno":1929,"ï¿":1930,"Ġem":1931,"Ġfrente":1932,"Ġgen":1933,"ï¿½":1934,"Ġejer":1935,"Ġdivers":1936,"Ġcompe":1937,"Ġproblema":1938,"Ġdirig":1939,"Ġol":1940,"icio":1941,"Ġ14":1942,"iedad":1943,"ifica":1944,"Ġcaracter":1945,"Ġselec":1946,"Ġbene":1947,"ĠmÃºs":1948,"ĠOr":1949,"zos":1950,"Ġlogr":1951,"Ġencuentra":1952,"Ġsocie":1953,"Ġdesp":1954,"Ġcontrol":1955,"tin":1956,"ĠpÃºblico":1957,"aja":1958,"blig":1959,"Ġocas":1960,"ĠQu":1961,"Ġverdad":1962,"Ġvarios":1963,"19":1964,"dir":1965,"Ġdice":1966,"blo":1967,"ister":1968,"Ġfil":1969,"Ġofrece":1970,"jar":1971,"Ġminutos":1972,".-":1973,"Ġlargo":1974,"Ġpodemos":1975,"Ġconsegu":1976,"ĠÃºltimo":1977,"dial":1978,"Ġej":1979,"Ġestu":1980,"Ġloc":1981,"iste":1982,"ĠCan":1983,"Ġenfer":1984,"ger":1985,"pel":1986,"Âº":1987,"Ġadminist":1988,"gado":1989,"Ġpaso":1990,"ĠrÃ¡p":1991,"mento":1992,"Ġmov":1993,"Ġsiendo":1994,"ĠCam":1995,"Ġliber":1996,"iva":1997,"mbre":1998,"ierra":1999,"Ġ16":2000,"Ã©is":2001,"arÃŃa":2002,"anas":2003,"ĠGobierno":2004,"ques":2005,"ves":2006,"Ġmano":2007,"Ġmor":2008,"Ġobjetivo":2009,"ĠpelÃŃcul":2010,"rÃ³":2011,"ef":2012,"Ġrealidad":2013,"ĠfÃ¡cil":2014,"Ġprepar":2015,"Ġ13":2016,"Ġpin":2017,"Ġactividades":2018,"ĠEstados":2019,"ĠvÃŃ":2020,"Ġdetal":2021,"Ġsector":2022,"Ġpuntos":2023,"reo":2024,"Ġconside":2025,"Ġoblig":2026,"Ġentonces":2027,"Ġpartido":2028,"Ġtele":2029,"ron":2030,"Ġfund":2031,"Ġiden":2032,"nas":2033,"Ġcorrespon":2034,"Ġatra":2035,"arlo":2036,"omÃŃa":2037,"ĠpolÃŃtica":2038,"ribu":2039,"ducir":2040,"serv":2041,"Ġnoche":2042,"Ġ25":2043,"Ġub":2044,"Ġserie":2045,"Ġdecl":2046,"ĠMin":2047,"Ġbenefici":2048,"Ġsur":2049,"Ġbase":2050,"Ġobra":2051,"Ġderecho":2052,"Ġenerg":2053,"Ġeleg":2054,"Ġsociales":2055,"Ġgaran":2056,"Ã¡tica":2057,"pciÃ³n":2058,"Ġvide":2059,"gon":2060,"ĠartÃŃculo":2061,"Ġmunicip":2062,"In":2063,"are":2064,"Ġat":2065,"ĠpaÃŃses":2066,"zado":2067,"Ġjun":2068,"mientos":2069,"pas":2070,"omos":2071,"ĠatenciÃ³n":2072,"mit":2073,"Cu":2074,"Ġfalta":2075,"Ġespacio":2076,"Ġtempor":2077,"ĠtenÃŃa":2078,"trÃ³n":2079,"ental":2080,"gre":2081,"Ġsitio":2082,"Ġrepresent":2083,"Un":2084,"ĠÃģ":2085,"Ġprecios":2086,"ĠAdemÃ¡s":2087,"Ġmens":2088,"Ġprue":2089,"val":2090,"Ġreal":2091,"ĠâĢĺ":2092,"iado":2093,"rac":2094,"var":2095,"Ġdinero":2096,"Ġvan":2097,"ich":2098,"Ġdetermin":2099,"Ġmediante":2100,"rera":2101,"eas":2102,"ĠPol":2103,"Ġpermite":2104,"olu":2105,"ell":2106,"ĠpodrÃŃa":2107,"Ġindic":2108,"nes":2109,"Ġtor":2110,"Ġ'":2111,"ÃĵN":2112,"Ġinstitu":2113,"gles":2114,"cho":2115,"enas":2116,"Ġinde":2117,"Ġalta":2118,"gel":2119,"rucciÃ³n":2120,"ĠAd":2121,"arÃ¡n":2122,"lex":2123,"Ġfinanci":2124,"cent":2125,"Ġempez":2126,"bado":2127,"mon":2128,"Ġexplic":2129,"Ġproce":2130,"Ġhizo":2131,"ĠPre":2132,"Ġblan":2133,"Ġmus":2134,"gro":2135,"Ġ17":2136,"riÃ³":2137,"Ġ:":2138,"ĠUniversidad":2139,"Ġocur":2140,"Ġencan":2141,"Ġtex":2142,"gue":2143,"visiÃ³n":2144,"posi":2145,"Ġsegundo":2146,"ĠUnidos":2147,"Ġcondiciones":2148,"Este":2149,"Ġsiguiente":2150,"tario":2151,"Ġnuevos":2152,"Ġauto":2153,"ĠseÃ±al":2154,"stas":2155,"Ġreun":2156,"ĠmayorÃŃa":2157,"cionar":2158,"Ġconsul":2159,"Ġsentido":2160,"ĠGener":2161,"Ġpare":2162,"ĠalgÃºn":2163,"una":2164,"Ġbol":2165,"Ġ2017":2166,"Ġespeci":2167,"ate":2168,"ĠdiseÃ±o":2169,"alizar":2170,"dal":2171,"Ġmir":2172,"Ġsuf":2173,"Ġil":2174,"ulio":2175,"Ġofrec":2176,"tran":2177,"Ġperio":2178,"Ġmodo":2179,"Ġnuevas":2180,"Ġsociedad":2181,"IS":2182,"Ġderechos":2183,"Ġactividad":2184,"Ġacom":2185,"Ġcasos":2186,"ts":2187,"orÃŃa":2188,"TA":2189,"Ġalum":2190,"uesta":2191,"Ġconfi":2192,"ĠmÃ¡x":2193,"Ġconj":2194,"Ġayuda":2195,"tion":2196,"Ġimagen":2197,"Ġcerca":2198,"Ġproducto":2199,"Ġsos":2200,"Ġquienes":2201,"ibles":2202,"Ġproces":2203,"ĠJuan":2204,"pendi":2205,"bajo":2206,"Ġlabor":2207,"Ġ100":2208,"Ġavan":2209,"inal":2210,"Ġencontr":2211,"Ġcub":2212,"Ġresultados":2213,"Ġ24":2214,"cup":2215,"Ġsens":2216,"Ã±ana":2217,"Ġreco":2218,"si":2219,"Ġpromo":2220,"Ġasist":2221,"Ġelem":2222,"Ã¡tico":2223,"Ġfon":2224,"Ġrelacion":2225,"Ġcolec":2226,"Ġnecesario":2227,"Ġtarde":2228,"Ġacceso":2229,"Ġviol":2230,"Ġconven":2231,"ÃŃtulo":2232,"ik":2233,"Ġconver":2234,"ĠBo":2235,"Ġjo":2236,"vÃŃa":2237,"Ġestamos":2238,"Ġsegunda":2239,"II":2240,"Ġindust":2241,"Ġeuros":2242,"tien":2243,"ĠPres":2244,"amb":2245,"Ġusted":2246,"Ġdig":2247,"ĠTambiÃ©n":2248,"ingun":2249,"Ġsor":2250,"uales":2251,"line":2252,"ĠlÃŃnea":2253,"pular":2254,"puesta":2255,"Ġidea":2256,"Ġesos":2257,"Ġrespecto":2258,"tÃ³n":2259,"Ġdejar":2260,"Ġprincipal":2261,"vent":2262,"Ġrad":2263,"Ġposi":2264,"....":2265,"Ã¡ndo":2266,"Ġpresente":2267,"Una":2268,"ÃŃculos":2269,"Ġacep":2270,"th":2271,"ĠPe":2272,"ĠNe":2273,"pres":2274,"10":2275,"Ġacab":2276,"echos":2277,"Ġmul":2278,"tiene":2279,"Ġpasar":2280,"Ġcreo":2281,"Ġsimple":2282,"dico":2283,"Ġestra":2284,"unta":2285,"ĠJosÃ©":2286,"ÃŃsticas":2287,"emas":2288,"Ġestudio":2289,"Ġluch":2290,"Ã¡r":2291,"zÃ³":2292,"urante":2293,"ticular":2294,"Ġcuanto":2295,"Ġpueblo":2296,"rero":2297,"igo":2298,"gl":2299,"Ġnuestras":2300,"Ġincre":2301,"Ġur":2302,"30":2303,"Ġries":2304,"Ġimpres":2305,"ĠRes":2306,"itaciÃ³n":2307,"turo":2308,"tecciÃ³n":2309,"rido":2310,"ĠGran":2311,"Ġlec":2312,"Ġcomb":2313,"Ġclientes":2314,"iembre":2315,"ctubre":2316,"ĠpÃ¡gina":2317,"Ġhaya":2318,"Ġvac":2319,"lado":2320,"Ġenten":2321,"Ġlan":2322,"Ġhombres":2323,"ĠLey":2324,"dica":2325,"Ġmiemb":2326,"Ġdicho":2327,"ĠAc":2328,"Ġtienes":2329,"Ġenvi":2330,"ĠYo":2331,"ler":2332,"Ġhacen":2333,"Ġenc":2334,"ingÃºn":2335,"Ġlibre":2336,"Ġllevar":2337,"Ġbastante":2338,"Ġpuesto":2339,"olo":2340,"ĠespaÃ±ol":2341,"Ġamigos":2342,"genes":2343,"Ġinclu":2344,"ĠCal":2345,"Ġases":2346,"peraciÃ³n":2347,"Ã©rica":2348,"adie":2349,"Ġescuch":2350,"tiÃ³":2351,"Ġcapital":2352,"ÃŃamos":2353,"guien":2354,"ĠAp":2355,"Ġpapel":2356,"Ġcinco":2357,"Ġestoy":2358,"Ġusuarios":2359,"Ġinvers":2360,"ĠÃºnico":2361,"Ġsim":2362,"ĠTra":2363,"Ã³s":2364,"Ġdese":2365,"ID":2366,"Ġ199":2367,"rados":2368,"Ġfacil":2369,"one":2370,"ramient":2371,"Ġdescub":2372,"Ġmodelo":2373,"ice":2374,"Ġanterior":2375,"illo":2376,"ĠacompaÃ±":2377,"ciÃ³":2378,"Ġpriv":2379,"Ġreconoci":2380,"ug":2381,"Ġpropio":2382,"20":2383,"Ã³vil":2384,"Ġclaro":2385,"tero":2386,"ducciÃ³n":2387,"Ġvarias":2388,"Ġconte":2389,"Ġningun":2390,"TE":2391,"entemente":2392,"ĠmaÃ±ana":2393,"Ġ2016":2394,"Ġfab":2395,"fo":2396,"Ġlimp":2397,"Ġer":2398,"ira":2399,"Ġmarca":2400,"Ġpaci":2401,"Ġgol":2402,"Ġado":2403,"adamente":2404,"ror":2405,"Ġinm":2406,"greso":2407,"ptiembre":2408,"ĠningÃºn":2409,"Ġdeben":2410,"ĠPla":2411,"Ġcapacidad":2412,"Ġmedios":2413,"ĠfÃŃs":2414,"ilar":2415,"Ġmanten":2416,"Ġcantidad":2417,"Ġpartici":2418,"iza":2419,"ĠproducciÃ³n":2420,"Ġprimero":2421,"ĠReg":2422,"tri":2423,"Ġvista":2424,"ian":2425,"Ġescrib":2426,"ĠÃºltimos":2427,"Ġfel":2428,"iÃ©n":2429,"Ġtel":2430,"ilidades":2431,"Ġencar":2432,"Ġdoc":2433,"Ġpueda":2434,"ĠComo":2435,"Ġluz":2436,"Ġfran":2437,"Ġpropor":2438,"Ġcamino":2439,"Ġdescar":2440,"Ġellas":2441,"tiz":2442,"Ġcierto":2443,"Ġresta":2444,"Ġgusta":2445,"RO":2446,"hora":2447,"Ġmater":2448,"Ġconsider":2449,"Ġ50":2450,"tamento":2451,"rin":2452,"Ġpobl":2453,"Ġpublic":2454,"Ġacciones":2455,"Ġhablar":2456,"Ġhub":2457,"Ġquiere":2458,"gentina":2459,"ĠVer":2460,"dez":2461,"Ġcabo":2462,"ĠGeneral":2463,"Ġcrear":2464,"quis":2465,"ww":2466,"ivil":2467,"Ġlocal":2468,"izar":2469,"Ġcuar":2470,"Ġobserv":2471,"ĠinvestigaciÃ³n":2472,"Ġpalabras":2473,"seÃ±":2474,"CIÃĵN":2475,"Ġparticular":2476,"ificaciÃ³n":2477,"ĠmÃºsica":2478,"ĠelectrÃ³n":2479,"Ġpiel":2480,"ack":2481,"RA":2482,"Ġmanif":2483,"Ġdisfrutar":2484,"Ġvir":2485,"onos":2486,"Ġtomar":2487,"Ġhaciendo":2488,"ĠCl":2489,"Ġunivers":2490,"ĠIs":2491,"adres":2492,"Ġconstitu":2493,"Ġx":2494,"Ġagu":2495,"isterio":2496,"isis":2497,"Ġdici":2498,"biÃ³":2499,"Ġdesa":2500,"ĠDirec":2501,"ĠDis":2502,"Ġprovin":2503,"ĠdemÃ¡s":2504,"Ġpoten":2505,"ulos":2506,"Ġejerci":2507,"mentos":2508,"Ġfecha":2509,"ecre":2510,"oce":2511,"tividad":2512,"Ġabier":2513,"Ġblog":2514,"ticas":2515,"ple":2516,"lante":2517,"Ġlim":2518,"acer":2519,"Ġperman":2520,"Ġalto":2521,"Esta":2522,"dap":2523,"ĠAsÃŃ":2524,"Ġdirector":2525,"be":2526,"Ġdedic":2527,"Ġherramient":2528,"tÃ¡n":2529,"ase":2530,"Ġbeb":2531,"Ġcri":2532,"Ġadecu":2533,"Ġcla":2534,"Ġrom":2535,"ĠaplicaciÃ³n":2536,"Ġpropia":2537,"venes":2538,"Ġrecuer":2539,"Me":2540,"Ġactual":2541,"Ġrecursos":2542,"alo":2543,"Ġnoti":2544,"Ġcosa":2545,"Ġofer":2546,"Ġsencil":2547,"Ġfundam":2548,"Ġcuales":2549,"Ġtratamiento":2550,"omas":2551,"50":2552,"Ġpesar":2553,"tual":2554,"Ġmantener":2555,"Ġim":2556,"amientos":2557,"ĠFe":2558,"uerra":2559,"Ġinten":2560,"ign":2561,"Ġbueno":2562,"ft":2563,"ienda":2564,"talla":2565,"Ġcalle":2566,"Ġesf":2567,"Ġvig":2568,"Ġresto":2569,"culo":2570,"Ġresultado":2571,"mac":2572,"Ġalguien":2573,"Ġevitar":2574,"Ġalter":2575,"Ġconstru":2576,"turales":2577,"Ġprofesionales":2578,"Ġdebido":2579,"arias":2580,"Ġoctubre":2581,"Ã¼":2582,"Ġgratis":2583,"dedor":2584,"Ġexcl":2585,"ĠdifÃŃ":2586,"Ġfamiliar":2587,"rez":2588,"Ġedad":2589,"Ġfuturo":2590,"cÃŃa":2591,"Ġprofesional":2592,"Ġestilo":2593,"Ġabs":2594,"ĠÃºltima":2595,"Ġconseguir":2596,"RE":2597,"onas":2598,"Ġnoviembre":2599,"Ġenferme":2600,"Ġdiciembre":2601,"Ġemo":2602,"Ã©f":2603,"Ġcolabor":2604,"Ġbal":2605,"just":2606,"ivos":2607,"ĠSegu":2608,"Ġentrada":2609,"Ġdepor":2610,"Ġvolver":2611,"ĠtÃ©r":2612,"ecen":2613,"Ġduda":2614,"Ġconcep":2615,"Ġcontar":2616,"Ġtit":2617,"ĠmÃŃ":2618,"Ġgrande":2619,"Ġmoder":2620,"grafÃŃa":2621,"Ġseguro":2622,"siones":2623,"dero":2624,"Ġconci":2625,"ĠÃ©x":2626,"Ġsignifica":2627,"enci":2628,"ĠCuando":2629,"ĠserÃŃa":2630,"Ġ21":2631,"ĠformaciÃ³n":2632,"itor":2633,"Ġ2015":2634,"Ġprob":2635,"Ġpron":2636,"Ġayudar":2637,"Ġbusc":2638,"acciÃ³n":2639,"biente":2640,"Ġenv":2641,"Ġveh":2642,"Ġis":2643,"Ġmedida":2644,"Ġtuvo":2645,"celona":2646,"ĠNuev":2647,"jes":2648,"ĠâĢĶ":2649,"Ã³venes":2650,"Ġnadie":2651,"Ġadap":2652,"ĠTe":2653,"para":2654,"Ġjoven":2655,"Ġagr":2656,"Ġventa":2657,"Ġaz":2658,"iano":2659,"Ġarti":2660,"Ġproyectos":2661,"Ġta":2662,"ĠGra":2663,"Ġaire":2664,"Ġsigue":2665,"ficaciÃ³n":2666,"ĠcomunicaciÃ³n":2667,"Ġinterior":2668,"âĢĶ":2669,"TI":2670,"Ġopera":2671,"Ġsoy":2672,"Ġfre":2673,"ĠprÃ³ximo":2674,"tivamente":2675,"ĠgestiÃ³n":2676,"Ġseptiembre":2677,"Ġestruc":2678,"Ġinternacional":2679,"todo":2680,"Ġmol":2681,"Ġdado":2682,"Ġenfr":2683,"Ã¡lisis":2684,"Ġcomien":2685,"tÃŃn":2686,"ĠGo":2687,"Ġtur":2688,"Ġmuerte":2689,"Ġsecre":2690,"adoras":2691,"Ġprofun":2692,"trÃ¡s":2693,"Ġterri":2694,"tina":2695,"Ġhijos":2696,"Ġfe":2697,"Ġaquellos":2698,"Ġapoyo":2699,"ulaciÃ³n":2700,"ĠAb":2701,"Lo":2702,"Ãºblica":2703,"icios":2704,"Ã³p":2705,"Ġcomunidad":2706,"Ġfotos":2707,"Ġprincipales":2708,"esa":2709,"Ġoportunidad":2710,"ĠahÃŃ":2711,"Ġtrabajar":2712,"Ġopin":2713,"ĠestÃ©":2714,"ĠdirecciÃ³n":2715,"forma":2716,"Ġterc":2717,"rel":2718,"Ġexcel":2719,"lares":2720,"Ġvisto":2721,"ĠJo":2722,"Ġrespe":2723,"uls":2724,"Ġsean":2725,"ĠGar":2726,"taciones":2727,"tt":2728,"Ġmanos":2729,"ĠHa":2730,"ĠQue":2731,"ticos":2732,"illas":2733,"Ġeran":2734,"Ġmejorar":2735,"Ġfan":2736,"ĠPue":2737,"Ġmadre":2738,"ĠacciÃ³n":2739,"Ġata":2740,"ĠinterÃ©s":2741,"Ġindivid":2742,"ancias":2743,"To":2744,"Ġplata":2745,"ps":2746,"Ġdisposi":2747,"Ġlleva":2748,"Ġcomprar":2749,"ÃŃstica":2750,"Ġcuad":2751,"Ġpudi":2752,"Ġmodi":2753,"Ġcorrec":2754,"Ġesas":2755,"Ġvideo":2756,"au":2757,"ĠpelÃŃcula":2758,"Ġfir":2759,"Ġintegr":2760,"ĠLA":2761,"Como":2762,"Ġdemas":2763,"ĠMor":2764,"acto":2765,"Ġbuscar":2766,"umo":2767,"rada":2768,"bas":2769,"ĠpodrÃ¡":2770,"osp":2771,"iencias":2772,"Ġcampo":2773,"Ã³mo":2774,"Ã©l":2775,"Ġpopular":2776,"ĠComun":2777,"Ġ22":2778,"As":2779,"Ġpreo":2780,"men":2781,"pro":2782,"Ġcontr":2783,"Ġusar":2784,"Ġmuestra":2785,"Ġjulio":2786,"ÃŃf":2787,"rÃŃa":2788,"Ġobras":2789,"Ġcabeza":2790,"ibilidad":2791,"ĠjÃ³venes":2792,"Ġsiglo":2793,"Ġvamos":2794,"venciÃ³n":2795,"ampo":2796,"torno":2797,"Ġhabl":2798,"Ġcora":2799,"Ġpasa":2800,"Ġleer":2801,"Ġlig":2802,"tÃ©":2803,"Ġimportantes":2804,"ĠOb":2805,"ĠCentro":2806,"Ġcuid":2807,"Ġtemporada":2808,"Ġjunio":2809,"Ġnove":2810,"Ġelim":2811,"tagon":2812,"Ġredes":2813,"ĠenergÃŃa":2814,"TO":2815,"Ġincor":2816,"sejo":2817,"Ġusuario":2818,"ĠServ":2819,"ila":2820,"rantes":2821,"Ġdio":2822,"ĠcompaÃ±ÃŃa":2823,"ĠAy":2824,"Ã¡genes":2825,"Ġlar":2826,"Ġobtener":2827,"stico":2828,"rimon":2829,"Ġcateg":2830,"ĠRec":2831,"200":2832,"Ġdeclar":2833,"Ġutilizar":2834,"ĠdiseÃ±":2835,"Ġexig":2836,"Ġcontacto":2837,"Ġsist":2838,"ruz":2839,"alu":2840,"ĠallÃŃ":2841,"Ġtenido":2842,"Ġfuerte":2843,"ficiente":2844,"Ġcara":2845,"QuÃ©":2846,"Ġgob":2847,"Ġconduc":2848,"ĀĀĀĀĀĀĀĀ":2849,"lio":2850,"entas":2851,"Ġmayo":2852,"ĠpoblaciÃ³n":2853,"Ġnecesidad":2854,"Ġviaje":2855,"Ġdescon":2856,"icidad":2857,"cionado":2858,"Ġprimeros":2859,"Ã¡ndose":2860,"Ġaudi":2861,"Ġcurso":2862,"Ġder":2863,"Ġrealmente":2864,"ĠInterna":2865,"ĠenseÃ±":2866,"bu":2867,"Ġcarrera":2868,"Ġtradi":2869,"Ġpuedo":2870,"taron":2871,"Ġequipos":2872,"Ġfuerza":2873,"Ġreserv":2874,"Ġanunci":2875,"ĠEsc":2876,"Ġlen":2877,"ĠJes":2878,"Ġqueda":2879,"ĠtÃ©rmin":2880,"Ġviene":2881,"OM":2882,"Ġonline":2883,"Ġbel":2884,"Ġrespuesta":2885,"Ġmismos":2886,"Ġ2014":2887,"Ġpost":2888,"ĠpequeÃ±o":2889,"cular":2890,"gosto":2891,"ĠeducaciÃ³n":2892,"Ġposibilidad":2893,"remos":2894,"pone":2895,"Ġtemas":2896,"Ġvas":2897,"rad":2898,"pren":2899,"Ġcontenido":2900,"Ġexten":2901,"ĠbÃ¡s":2902,"ĠBuen":2903,"ĠEsto":2904,"bal":2905,"Ġtierra":2906,"orme":2907,"esiÃ³n":2908,"xic":2909,"Ġentren":2910,"itan":2911,"ĠBarcelona":2912,"Ġplante":2913,"ĠorganizaciÃ³n":2914,"ĠconstrucciÃ³n":2915,"udo":2916,"Ġpresencia":2917,"Ġalre":2918,"Ġfis":2919,"Ġojos":2920,"ĠInstitu":2921,"ĠÃ¡rea":2922,"Ġconjunto":2923,"dra":2924,"irse":2925,"ĠIN":2926,"americ":2927,"ĠFac":2928,"ional":2929,"AM":2930,"11":2931,"ĠtecnologÃŃa":2932,"An":2933,"Pero":2934,"Ġvic":2935,"Ġmucha":2936,"ĠBan":2937,"Ġdeman":2938,"Ġmedia":2939,"li":2940,"Ġriesgo":2941,"irÃ¡":2942,"ale":2943,"xim":2944,"ĠÃ©xito":2945,"Ġhotel":2946,"Ġdia":2947,"glesia":2948,"tim":2949,"ĠserÃ¡n":2950,"Ġconcre":2951,"est":2952,"oro":2953,"ĠEduc":2954,"ĠdifÃŃcil":2955,"Ġnecesita":2956,"ociaciÃ³n":2957,"Ġseman":2958,"imientos":2959,"ĠsÃ©":2960,"ĠEuropa":2961,"Ġinme":2962,"ĠMarÃŃa":2963,"Ġverda":2964,"Ġgrupos":2965,"--":2966,"ari":2967,"Ġfigu":2968,"Ġingres":2969,"ĠHo":2970,"ĠdÃ³":2971,"cen":2972,"metros":2973,"curso":2974,"teriores":2975,"Ġespecialmente":2976,"Ġprem":2977,"licaciones":2978,"ĠArgentina":2979,"ĠmÃŃn":2980,"ĠMi":2981,"Ġconsum":2982,"ampoco":2983,"ĠhistÃ³r":2984,"vech":2985,"Ġprincipio":2986,"Ġhijo":2987,"Ġpadre":2988,"ĠediciÃ³n":2989,"Ġplazo":2990,"Ġmaterial":2991,"icÃŃa":2992,"Ġelementos":2993,"Ġ40":2994,"Ġmedidas":2995,"ĠaÃ±ad":2996,"Ġencuentro":2997,"Ġsir":2998,"ĠCrist":2999,"ĠimÃ¡genes":3000,"ĠLuis":3001,"Ġsuperior":3002,"Ġenero":3003,"Ġsalir":3004,"ĠAle":3005,"EL":3006,"Ã©m":3007,"Ġmarzo":3008,"iernes":3009,"ĠtelÃ©f":3010,"Ġnecesidades":3011,"Ġenci":3012,"ĠfunciÃ³n":3013,"Ġmad":3014,"tadas":3015,"ĠtodavÃŃa":3016,"ĠopciÃ³n":3017,"Ġambos":3018,"uerto":3019,"Ġ$":3020,"ĠSanta":3021,"tiendo":3022,"ete":3023,"entan":3024,"dÃŃa":3025,"Ġprotagon":3026,"Ġcargo":3027,"Ġninguna":3028,"hi":3029,"Ġinicia":3030,"fa":3031,"EC":3032,"Ġrepar":3033,"Ġlibros":3034,"ĠCarlos":3035,"her":3036,"ĠversiÃ³n":3037,"Ġarte":3038,"glÃ©s":3039,"Ġmetros":3040,"Ġesfuer":3041,"alizado":3042,"reas":3043,"Ġbon":3044,"OL":3045,"Ãį":3046,"itado":3047,"uesto":3048,"ebrero":3049,"Ġsiguientes":3050,"ke":3051,"Ġtama":3052,"bil":3053,"ĠÃ©po":3054,"ĠparticipaciÃ³n":3055,"Ġdemos":3056,"ulas":3057,"Ġ23":3058,"Ġpuedan":3059,"Ġexiste":3060,"Ġlista":3061,"ĠMu":3062,"Ġclase":3063,"Ġpadres":3064,"deo":3065,"Ġcliente":3066,"Ġbusca":3067,"ĠmÃ³vil":3068,"12":3069,"ĠCiudad":3070,"Ġacon":3071,"Ġpartes":3072,"Ġagra":3073,"Ġconocimiento":3074,"Ġsuce":3075,"Ġparticipar":3076,"Ġhacerlo":3077,"ines":3078,"Ġabril":3079,"Ġestudios":3080,"istro":3081,"Ġfru":3082,"Ġfra":3083,"Ġofrecer":3084,".,":3085,"Ġsolu":3086,"Ġcambios":3087,"ĠrazÃ³n":3088,"pir":3089,"Ġpresenta":3090,"via":3091,"Ġeuro":3092,"fil":3093,"del":3094,"unes":3095,"Ġcine":3096,"diendo":3097,"entaciÃ³n":3098,"Ġquiero":3099,"Ġoficial":3100,"Ġjuegos":3101,"Ġpier":3102,"tia":3103,"Ġsabe":3104,"Ġefecto":3105,"Ġcocina":3106,"ĠSon":3107,"Ġelabor":3108,"fi":3109,"Ġmiembros":3110,"nov":3111,"cripciÃ³n":3112,"Ġconsidera":3113,"ĠÃºnica":3114,"Ġambiente":3115,"ĠSa":3116,"Re":3117,"pl":3118,"ÃŃdo":3119,"ese":3120,"inado":3121,"Ġâ":3122,"Ġarch":3123,"Ġconec":3124,"ĠHay":3125,"Ġrec":3126,"ĠTer":3127,"ĠsÃ¡":3128,"aca":3129,"ĠPr":3130,"rum":3131,"Ã©di":3132,"moc":3133,"IA":3134,"ferencia":3135,"Ġjugar":3136,"Ġcambiar":3137,"tora":3138,"ware":3139,"ED":3140,"ĠcomÃºn":3141,"Ġcrea":3142,"Ã©ctr":3143,"Ġnave":3144,"Ĥ¬":3145,"dentes":3146,"ĠtendrÃ¡":3147,"Ġgratu":3148,"Ġhici":3149,"Ġcompra":3150,"Ġmenor":3151,"Ġvivir":3152,"Ġimag":3153,"Ġjorn":3154,"Ġnum":3155,"idores":3156,"fe":3157,"ical":3158,"Ġguar":3159,"ĠVen":3160,"tino":3161,"Ġcrecimiento":3162,"ĠCons":3163,"rica":3164,"ket":3165,"ches":3166,"ieza":3167,"Ġestrateg":3168,"tarse":3169,"Ġconcl":3170,"Ġproteg":3171,"Ġpareja":3172,"Ġps":3173,"ĠcorazÃ³n":3174,"Ġbor":3175,"Ġ2013":3176,"Ġpen":3177,"Ġcoloc":3178,"Ġsexo":3179,"ĠTen":3180,"Ġnegocio":3181,"aces":3182,"ĠSer":3183,"Ġconserv":3184,"Ġdom":3185,"15":3186,"enda":3187,"ĠpÃºblica":3188,"Ġvin":3189,"Ġciento":3190,"itaciones":3191,"Ġseis":3192,"rando":3193,"Ġmez":3194,"Ġpreten":3195,"partamento":3196,"tisf":3197,"Ġhas":3198,"Ġprueba":3199,"oo":3200,"Ġpago":3201,"ÃŃtica":3202,"Ġadi":3203,"ombia":3204,"Ġdepen":3205,"Ġacce":3206,"Ġlin":3207,"Ġimportancia":3208,"ĠSol":3209,"Ġefectos":3210,"Ã¡mara":3211,"uelo":3212,"su":3213,"Ġcultura":3214,"este":3215,"itario":3216,"Ġagosto":3217,"titud":3218,"ĠPlan":3219,"Ġcrist":3220,"diz":3221,"Ġmayores":3222,"Hola":3223,"Ġperten":3224,"ÃŃos":3225,"Ġcorreo":3226,"ĠprotecciÃ³n":3227,"Ġcompleto":3228,"Ġrequier":3229,"Ġpros":3230,"Ġeduca":3231,"Ġrecibir":3232,"ner":3233,"itantes":3234,"ĠMer":3235,"Ġlugares":3236,"Ġapor":3237,"âĢĵ":3238,"Ġtrabajadores":3239,"Ġcient":3240,"ĠES":3241,"Ġvoy":3242,"Ġdesc":3243,"Ġaprovech":3244,"Ġgal":3245,"Ġviernes":3246,"terÃŃa":3247,"Ġcandida":3248,"Cuando":3249,"Ġtem":3250,"tamos":3251,"vieron":3252,"Ġevento":3253,"Ġtotalmente":3254,"Ã³l":3255,"Ġsistemas":3256,"olver":3257,"ardo":3258,"ck":3259,"Ġformas":3260,"ĠBol":3261,"ĠMinisterio":3262,"Ġkil":3263,"risis":3264,"digo":3265,"Ġpensar":3266,"Ġdan":3267,"Ġfrecu":3268,"rismo":3269,"Ġgri":3270,"gada":3271,"edor":3272,"Ġ28":3273,"Ġtenga":3274,"iere":3275,"Ġvelo":3276,"Ġacerca":3277,"ĠanÃ¡lisis":3278,"Ġsust":3279,"Ġestudiantes":3280,"op":3281,"Ġalrededor":3282,"ĠregiÃ³n":3283,"ebo":3284,"Ġencontra":3285,"Ġ2012":3286,"Ġinterpre":3287,"ĠFern":3288,"ritu":3289,"ĠDesde":3290,"Ġgo":3291,"Ã¡cter":3292,"ĠcaracterÃŃsticas":3293,"table":3294,"ĠInternet":3295,"Ġpeso":3296,"Ġmane":3297,"Ġq":3298,"trimon":3299,"ĠhabÃŃan":3300,"Ġregres":3301,"Ġedifici":3302,"ĠcarÃ¡cter":3303,"mite":3304,"Ãºa":3305,"ork":3306,"Ġmateria":3307,"icaciones":3308,"Ġdesarrollar":3309,"tud":3310,"Ġcel":3311,"telig":3312,"AC":3313,"uestas":3314,"Ġcolores":3315,"vin":3316,"Ġrecomend":3317,"Ġexclus":3318,"Ġprome":3319,"Ġdorm":3320,"Ġdiferencia":3321,"Ġpelig":3322,"Ġcomprom":3323,"ĠdecisiÃ³n":3324,"Ġcausa":3325,"Ġbaja":3326,"ĠYa":3327,"18":3328,"Ġmovimiento":3329,"Ġ26":3330,"ormente":3331,"Ġresist":3332,"Ġvesti":3333,"Ġ27":3334,"Ġmomentos":3335,"Ġnaturaleza":3336,"ĠPas":3337,"Ġhon":3338,"ĠtÃŃtulo":3339,"ciona":3340,"ĠÃ©poca":3341,"Ġguerra":3342,"Ġhumanos":3343,"taba":3344,"Ġopciones":3345,"Ã¡ticos":3346,"tida":3347,"Ġpermitir":3348,"ry":3349,"Ġfebrero":3350,"Ġpresu":3351,"Ġobst":3352,"Ġnorte":3353,"Ġdolor":3354,"tales":3355,"Ġpis":3356,"Ġencuentran":3357,"eria":3358,"estr":3359,"Â³":3360,"Ġajust":3361,"iga":3362,"ĠDer":3363,"umen":3364,"Ġextre":3365,"Ġevalu":3366,"ĠniÃ±o":3367,"ĠpequeÃ±a":3368,"Ġideas":3369,"Ġdemasiado":3370,"Ġentrega":3371,"zan":3372,"Ġpien":3373,"ws":3374,"ĠTor":3375,"Ġsatisf":3376,"Ġnar":3377,"ogle":3378,"Ġpagar":3379,"ĠEN":3380,"ĠallÃ¡":3381,"Ġrecl":3382,"ĠHer":3383,"tilla":3384,"ÃŃm":3385,"ĠBa":3386,"Ġaten":3387,"Ġvisita":3388,"ĠâĢ¦":3389,"ÃŃfico":3390,"ĠdÃ³lares":3391,"rios":3392,"Ġrelaciones":3393,"Ġcrisis":3394,"Ġintro":3395,"Ġmundial":3396,"Ġfabric":3397,"ear":3398,"Ġmara":3399,"Ġlibertad":3400,"ĠtamaÃ±o":3401,"Ġmec":3402,"tidades":3403,"Ġjur":3404,"Ġvari":3405,"ĠEmp":3406,"aya":3407,"Ġoriginal":3408,"Ġsorpren":3409,"Ġfondo":3410,"Ġcompartir":3411,"ĠmÃ¡ximo":3412,"Ġsomos":3413,"Ġconsecu":3414,"Ġperder":3415,"Ġcompeten":3416,"ĠAdminist":3417,"Desde":3418,"ultura":3419,"Ġautom":3420,"Ġraz":3421,"Ġ+":3422,"Ġorigen":3423,"eso":3424,"Ġvolun":3425,"ĠinglÃ©s":3426,"Ġiz":3427,"ĠcampaÃ±a":3428,"Ġorient":3429,"Ġsum":3430,"Ġpers":3431,"Ġayer":3432,"Ġmem":3433,"diente":3434,"Ġmateriales":3435,"mbi":3436,"quina":3437,"ĠprÃ¡ctica":3438,"ĠInternacional":3439,"Ġmostr":3440,"cti":3441,"Ġespera":3442,"ulta":3443,"Ġverano":3444,"Ġtampoco":3445,"Ġtexto":3446,"Ġand":3447,"Ġdistintos":3448,"Ġimpor":3449,"ĠTu":3450,"Ġllega":3451,"ĠpequeÃ±os":3452,"Ġdomingo":3453,"Ġsupuesto":3454,"Ġautoridades":3455,"Ġincorpor":3456,"Ġsil":3457,"Ġexperim":3458,"ĠcreaciÃ³n":3459,"ĠNav":3460,"etas":3461,"Ġcomida":3462,"Ġantigu":3463,"ee":3464,"taria":3465,"cepciÃ³n":3466,"Ġequ":3467,"Ġeta":3468,"Ġdesarroll":3469,"Ġzonas":3470,"Ġpropie":3471,"ong":3472,"Ġprogramas":3473,"//":3474,"Ġbienes":3475,"Ġmonta":3476,"Ġentender":3477,"ĠChile":3478,"Ġ198":3479,"iana":3480,"formaciÃ³n":3481,"ĠdÃ©":3482,"Ġevi":3483,"Ġsalida":3484,"Ġsepar":3485,"ĠReal":3486,"Ġarri":3487,"Ġincluye":3488,"Ġsuel":3489,"ĠColombia":3490,"alizada":3491,"Ġpantalla":3492,"ĠSuper":3493,"Ãºsque":3494,"Ġdirectamente":3495,"Ġsemanas":3496,"Ġpermit":3497,"ĠposiciÃ³n":3498,"culos":3499,"Ġhogar":3500,"hu":3501,"Ġrelig":3502,"tiles":3503,"Ġizquier":3504,"Ġblo":3505,"Ġconce":3506,"ĠtelÃ©fono":3507,"estion":3508,"Ġprocesos":3509,"Ġprovincia":3510,"Ġtab":3511,"Ġdesapar":3512,"Ġconsumo":3513,"olÃ³gico":3514,"rÃ¡n":3515,"ĠThe":3516,"reno":3517,"Ġvie":3518,"abil":3519,"Ġejercicio":3520,"uestro":3521,"ĠEducaciÃ³n":3522,"ĠUS":3523,"Ġquieres":3524,"Ġ60":3525,"Ġencima":3526,"Ġalumnos":3527,"rer":3528,"Ġcivil":3529,"tbol":3530,"ĠJesÃºs":3531,"Ġtro":3532,"ĠpodÃŃa":3533,"ĠAnton":3534,"ospital":3535,"idor":3536,"edad":3537,"Ġidentific":3538,"Ġdeja":3539,"Ġestaban":3540,"ĠelÃ©ctr":3541,"Com":3542,"Ġllamado":3543,"Ġherm":3544,"RI":3545,"voca":3546,"teriormente":3547,"Ġvalores":3548,"ĠRep":3549,"Ġcoche":3550,"Ġcompren":3551,"tios":3552,"ĠÃ¡mbi":3553,"Ġtrabajos":3554,"Ġglo":3555,"ĠConsejo":3556,"untamiento":3557,"Ġdev":3558,"Ġbrin":3559,"ĠcontinuaciÃ³n":3560,"Ġhumano":3561,"Ã©st":3562,"Ġconvertir":3563,"Ġpul":3564,"ĠsÃ¡bado":3565,"Ġace":3566,"asa":3567,"Ġpalabra":3568,"Ġpun":3569,"ĠllegÃ³":3570,"Ġiba":3571,"pero":3572,"iel":3573,"Ġlevan":3574,"ablemente":3575,"put":3576,"Ġmarco":3577,"ĠPal":3578,"cito":3579,"iber":3580,"Ġinforma":3581,"AdemÃ¡s":3582,"tidos":3583,"Ã©tica":3584,"Ġdefini":3585,"Ġlograr":3586,"dis":3587,"ĠPu":3588,"aco":3589,"Ġcontrario":3590,"Ġgaranti":3591,"dores":3592,"dientes":3593,"tÃŃa":3594,"rito":3595,"Ġprovoc":3596,"uye":3597,"dimiento":3598,"don":3599,"Ġblanco":3600,"tarÃŃa":3601,"Ġplanta":3602,"Ġexisten":3603,"ĠpolÃŃticas":3604,"ĠsoluciÃ³n":3605,"torial":3606,"Ġdistintas":3607,"Ġimpos":3608,"ĠDel":3609,"cidos":3610,"Ġeurope":3611,"ĠPrim":3612,"Ġideal":3613,"Ġpartidos":3614,"ribun":3615,"ĠpodrÃ¡n":3616,"ĠSocial":3617,"genier":3618,"Ġvoz":3619,"enos":3620,"Ġindustri":3621,"Ġniveles":3622,"Ġmic":3623,"Ġcic":3624,"lev":3625,"UN":3626,"ebook":3627,"Ġmilitar":3628,"Ġdisco":3629,"ĠAmÃ©rica":3630,"Ġreferencia":3631,"MA":3632,"Ġsuje":3633,"Ġresponsabilidad":3634,"Ã¡ticas":3635,"Ġadelante":3636,"Ġaband":3637,"Ġtiempos":3638,"erto":3639,"Ġrendi":3640,"Ġnegro":3641,"Ġmensaje":3642,"Ġcompeti":3643,"ĠvÃŃcti":3644,"erte":3645,"Ġclub":3646,"quitec":3647,"ph":3648,"Ãºtbol":3649,"ĠMartÃŃn":3650,"ĠFrancis":3651,"ĠCON":3652,"Ġdoble":3653,"fes":3654,"Ġtir":3655,"Ġganar":3656,"Ġpocos":3657,"ueves":3658,"Ġfamos":3659,"Ġanun":3660,"Ġrecuper":3661,"eÃ±o":3662,"Ġlucha":3663,"ablo":3664,"Ġ2011":3665,"Ġhu":3666,"ĠbÃºsque":3667,"Ġobten":3668,"ĠRa":3669,"Ġhom":3670,"Ġtarje":3671,"ĠAu":3672,"Ġcorri":3673,"Ġfamilias":3674,"arla":3675,"Ġapre":3676,"Ġsimplemente":3677,"Ġjugadores":3678,"dicos":3679,"Ġllama":3680,"Ġmexic":3681,"cados":3682,"arte":3683,"quÃ©":3684,"Ġaprender":3685,"Ġinnov":3686,"Ġdetalles":3687,"ĠeconÃ³mica":3688,"cle":3689,"Ġdiferente":3690,"ka":3691,"uri":3692,"dena":3693,"Ġlunes":3694,"Ġoper":3695,"ĠclÃ¡s":3696,"ĠMay":3697,"ĠÃī":3698,"Ġentorno":3699,"Ġquiz":3700,"Ġalterna":3701,"ĠtÃº":3702,"ye":3703,"Ġestrel":3704,"ĠInstituto":3705,"Ġnorma":3706,"tarÃ¡":3707,"Ġren":3708,"://":3709,"Ġresponsable":3710,"ĠeconomÃŃa":3711,"imas":3712,"Ar":3713,"pan":3714,"ĠMundial":3715,"mer":3716,"ĠelectrÃ³nico":3717,"Ġsuelo":3718,"Ġcomercial":3719,"ĠbaÃ±o":3720,"isl":3721,"Ġlocales":3722,"logÃŃa":3723,"Ġescen":3724,"Ġacto":3725,"Ġtipos":3726,"Ġmaravil":3727,"Ġintelig":3728,"apa":3729,"ĠEL":3730,"Sin":3731,"Ġenl":3732,"ÃŃstico":3733,"ĠFin":3734,"mentaciÃ³n":3735,"Ġmotivo":3736,"ĠpolÃŃtico":3737,"Ġestad":3738,"raciones":3739,"entado":3740,"Ġentrev":3741,"Ġtempera":3742,"cla":3743,"Ġaproxim":3744,"âĢ¦]":3745,"Ġhistor":3746,"Ġrealizado":3747,"Ġsuperfici":3748,"ensiÃ³n":3749,"ĠCos":3750,"Ġconocido":3751,"Ġhermos":3752,"ĠHab":3753,"ff":3754,"Ġejecu":3755,"Ġpersonales":3756,"ĠinversiÃ³n":3757,"ĠpresentaciÃ³n":3758,"ĠocasiÃ³n":3759,"ismos":3760,"laz":3761,"idamente":3762,"ÃŃp":3763,"ĠSoci":3764,"pectos":3765,"ĠDa":3766,"Ġmarcha":3767,"Ġpersonajes":3768,"Ã³nica":3769,"didas":3770,"Ġviolencia":3771,"Ġdiver":3772,"Ġdec":3773,"iro":3774,"itaria":3775,"ĠMig":3776,"ĠCap":3777,"grÃ¡":3778,"__":3779,"ĠdisposiciÃ³n":3780,"Ġacces":3781,"ĠgÃ©n":3782,"ĠRepÃºblica":3783,"Â».":3784,"tique":3785,"ĠAhora":3786,"Ġpuerta":3787,"Ġpropiedad":3788,"Ġadqui":3789,"Ġpregunta":3790,"16":3791,"Ġdibu":3792,"vado":3793,"ĠrÃ©":3794,"Ġinicio":3795,"Ġros":3796,"!!!":3797,"Ġpresiden":3798,"Ġpareci":3799,"ĠMas":3800,"Ġentrar":3801,"Ġindependi":3802,"Ġ2010":3803,"wit":3804,"ajas":3805,"sas":3806,"Ġhechos":3807,"Ġinteresante":3808,"Ġ29":3809,"Ġahor":3810,"Ġhabitu":3811,"Ġtransporte":3812,"Ex":3813,"Ġocasiones":3814,"Ġherramientas":3815,"Ġobjeto":3816,"dios":3817,"encial":3818,"Ġveci":3819,"Ġamigo":3820,"Ġenfermedad":3821,"ĠselecciÃ³n":3822,"ĠpodrÃ¡s":3823,"estiv":3824,"ĠÃŃn":3825,"Ġcome":3826,"CION":3827,"ju":3828,"Ġpresentar":3829,"Ġagrade":3830,"ribuciÃ³n":3831,"ĠartÃŃculos":3832,"Ġdem":3833,"Ġ%":3834,"ĠeconÃ³mico":3835,"Ġmit":3836,"Ġinver":3837,"Ġens":3838,"Ġconoce":3839,"Ġalimentos":3840,"Ġarm":3841,"Ġbuenas":3842,"Ġdemoc":3843,"Ġjef":3844,"Ġatrac":3845,"14":3846,"Ġtienda":3847,"ĠSecre":3848,"Ġexcelente":3849,"jero":3850,"ielo":3851,"Ġextran":3852,"ame":3853,"Ġconvers":3854,"ĠpÃ©r":3855,"Ġinci":3856,"Ġpropuesta":3857,"Ġjornada":3858,"Ġrepresenta":3859,"Ġvuelta":3860,"ĠTodo":3861,"Ġamena":3862,"Ġespacios":3863,"ĠGal":3864,"Ġconcent":3865,"Ġdesemp":3866,"iver":3867,"Ġpelo":3868,"ĠÃ©ste":3869,"Ġasi":3870,"Ġalmac":3871,"logo":3872,"legio":3873,"tarios":3874,"Ġdisponible":3875,"ĠComisiÃ³n":3876,"Yo":3877,"ĠJa":3878,"Ġsob":3879,"imen":3880,"25":3881,"ĠcategorÃŃa":3882,"ĠMunicip":3883,"ezuela":3884,"Ġacus":3885,"aro":3886,"Ġcompromiso":3887,"ello":3888,"ĠAntonio":3889,"ĠNueva":3890,"lores":3891,"rag":3892,"edro":3893,"ĠSalud":3894,"ĠEntre":3895,"oz":3896,"olÃ³gica":3897,"ultad":3898,"entales":3899,"ĠRos":3900,"ĠdÃ©c":3901,"ĠMus":3902,"ĠJust":3903,"Ġindustria":3904,"Ġconform":3905,"Ġza":3906,"oj":3907,"Ġvelocidad":3908,"Ġgobern":3909,"uniden":3910,"ires":3911,"Ġmaes":3912,"ciente":3913,"Ġpronto":3914,"Ġtratar":3915,"ĠFrancisco":3916,"Ġfunciones":3917,"Ġtaller":3918,"onia":3919,"Ġfras":3920,"iudades":3921,"Ġinternet":3922,"ĠImp":3923,"Ġrece":3924,"Ġclave":3925,"ĠopiniÃ³n":3926,"imismo":3927,"ix":3928,"Ġesca":3929,"Ġprensa":3930,"Ġobjetivos":3931,"orÃŃas":3932,"drÃ¡":3933,"Ġprecis":3934,"Ġcentros":3935,"ices":3936,"izado":3937,"Ġcru":3938,"ĠHum":3939,"Ġescuela":3940,"inaria":3941,"Ġmulti":3942,"itales":3943,"Ġbanda":3944,"ĠÃ³r":3945,"amp":3946,"Ġcapaz":3947,"teras":3948,"coles":3949,"quer":3950,"Ġpone":3951,"Ġ&":3952,"ĠMÃ¡s":3953,"ĠEurope":3954,"Ġrepro":3955,"Ġcontenidos":3956,"Ġinstalaciones":3957,"Ġelegir":3958,"Ġrespec":3959,"enso":3960,"Ġtitular":3961,"Ġoscu":3962,"Ġaspectos":3963,"zada":3964,"Ġbeneficios":3965,"TU":3966,"Ġmesa":3967,"Ġpacientes":3968,"uras":3969,"bia":3970,"Ġaumento":3971,"13":3972,"Ã³nde":3973,"ĠcrÃ©di":3974,"ĠrÃ¡pido":3975,"17":3976,"Ġinteg":3977,"ificar":3978,"Ġcomentarios":3979,"ĠtÃ©cnica":3980,"Ġfron":3981,"Ġdiario":3982,"Ġoferta":3983,"Ġpreci":3984,"Ġcob":3985,"rans":3986,"Ġcapaci":3987,"ÃŃr":3988,"Ġfem":3989,"Ġdisc":3990,"Ġnormal":3991,"Ġsuerte":3992,"ĠAnd":3993,"Ġanimales":3994,"ĠvÃŃa":3995,"antil":3996,"Ġhid":3997,"Ġperm":3998,"Ġmodelos":3999,"Ġcompleta":4000,"Ġacci":4001,"Ġcumplir":4002,"Ġ197":4003,"Ġpreocup":4004,"Ġcompon":4005,"Ġrefle":4006,"pal":4007,"aliza":4008,"irmÃ³":4009,"Ġpena":4010,"ĠSeÃ±":4011,"Ġsentir":4012,"Ġqueremos":4013,"ĠespaÃ±ola":4014,"Ġja":4015,"ĠbÃºsqueda":4016,"ĠÃº":4017,"??":4018,"Ġocup":4019,"ĠAunque":4020,"Ġadul":4021,"ÃŃritu":4022,"Ġinforme":4023,"ĠPan":4024,"Ġjueves":4025,"Ġmitad":4026,"ĠGoogle":4027,"Ġtoma":4028,"Ġdiez":4029,"Ġcentral":4030,"ĠUN":4031,"Ġabrir":4032,"viv":4033,"orge":4034,"ĠOl":4035,"Pro":4036,"ĠtÃ©cnicas":4037,"Ġmagn":4038,"ĠDÃŃa":4039,"trimonio":4040,"Ġestim":4041,"Su":4042,"Ġaprob":4043,"Ãģ":4044,"Ġcoord":4045,"Ġaun":4046,"Ġdecor":4047,"Ġconflic":4048,"onz":4049,"Ġeres":4050,"ĠdeberÃ¡":4051,"mentar":4052,"Ġdific":4053,"rique":4054,"Ġpruebas":4055,"Ġresulta":4056,"Ġestructura":4057,"SegÃºn":4058,"Ġolvid":4059,"Ġsuficiente":4060,"Ġcuidado":4061,"Ġotor":4062,"Ġlaboral":4063,"Ġaplicaciones":4064,"ificado":4065,"ĠkilÃ³":4066,"uno":4067,"Ġconstante":4068,"pia":4069,"Ġoc":4070,"Ã¡ndez":4071,"rump":4072,"lad":4073,"Ã³sito":4074,"ĠquiÃ©n":4075,"60":4076,"Ġprincipios":4077,"Ġciudades":4078,"Â°":4079,"ĠpolÃŃticos":4080,"jeros":4081,"viÃ³":4082,"IL":4083,"Ġ[âĢ¦]":4084,"dil":4085,"Ġmanifes":4086,"Ġcuyo":4087,"ĠestÃ¡s":4088,"Ã©rcoles":4089,"Ġexterior":4090,"como":4091,"Ġinfl":4092,"Ġdestino":4093,"ftware":4094,"ĠSh":4095,"Ġquin":4096,"Ġescribir":4097,"Ġubic":4098,"Ġsegura":4099,"uestos":4100,"tiago":4101,"Ġbril":4102,"col":4103,"ramos":4104,"ienen":4105,"Ġsangre":4106,"eos":4107,"Ġlic":4108,"Ġ80":4109,"Ġinstrum":4110,"ierto":4111,"Ġasoci":4112,"Ġtre":4113,"Ġdicha":4114,"Ġacceder":4115,"ĠSus":4116,"Ġdiversos":4117,"Ġamplia":4118,"ĠAyuntamiento":4119,"Ġperfecto":4120,"torios":4121,"Ġprove":4122,"ĠestarÃ¡":4123,"bamos":4124,"Ġalcal":4125,"ÃŃsimo":4126,"Ġbuscando":4127,"lesc":4128,"Ġcompro":4129,"Ġincon":4130,"Ġorg":4131,"ÃŃfica":4132,"Ġherman":4133,"deral":4134,"jado":4135,"toral":4136,"Ġestuvo":4137,"Ġciudadanos":4138,"yas":4139,"ĠMic":4140,"Ġmiedo":4141,"ĠMiguel":4142,"ĠadministraciÃ³n":4143,"Ġprac":4144,"tuvo":4145,"ĠpÃ¡ginas":4146,"Ġdigital":4147,"Ġestadouniden":4148,"ĠDo":4149,"Ġreno":4150,"ĠCongreso":4151,"osotros":4152,"ag":4153,"ĠDan":4154,"pes":4155,"Que":4156,"ĠVic":4157,"UE":4158,"ĠAsociaciÃ³n":4159,"Ġbra":4160,"Ġconfigu":4161,"Ġdistancia":4162,"lez":4163,"Ġclic":4164,"abe":4165,"Ġconfianza":4166,"Ġinstituciones":4167,"SO":4168,"Ġrealiza":4169,"Ġconse":4170,"Ġconcepto":4171,"Ġdefensa":4172,"mail":4173,"Ġbuenos":4174,"Ġconvier":4175,"dado":4176,"teles":4177,"rupo":4178,"ĠÃ¡reas":4179,"Ġempleo":4180,"ĠVenezuela":4181,"Ġclases":4182,"Ġmente":4183,"ĠManuel":4184,"Ġmues":4185,"ĠEj":4186,"quiera":4187,"Ġmiles":4188,"Ġpaz":4189,"Ãī":4190,"Ġesfuerzo":4191,"ĠtÃ©cnico":4192,"Ġderi":4193,"ĠlÃŃder":4194,"Ġoro":4195,"Ġhabla":4196,"Ġazul":4197,"EM":4198,"Ġthe":4199,"guay":4200,"Ġcirc":4201,"ĠmÃ©dico":4202,"Ġep":4203,"aremos":4204,"ĠPedro":4205,"IO":4206,"uegos":4207,"echas":4208,"cionados":4209,"Le":4210,"40":4211,"ki":4212,"Ġcif":4213,"ĠatrÃ¡s":4214,"grama":4215,"ĠCasa":4216,"dieron":4217,"ĠGarcÃŃa":4218,"Ġinternacionales":4219,"elas":4220,"cÃ³":4221,"ĠcuestiÃ³n":4222,"Ã¡st":4223,"igue":4224,"Ġplaya":4225,"Ġpesos":4226,"Ġropa":4227,"tificaciÃ³n":4228,"Ġdiv":4229,"ĠreuniÃ³n":4230,"ĠGracias":4231,"Ġconex":4232,"Ġ31":4233,"TambiÃ©n":4234,"tantes":4235,"Ġgolpe":4236,"ĠseÃ±or":4237,"Ġactualmente":4238,"didos":4239,"Ġcampe":4240,"Ġfol":4241,"Ġnaturales":4242,"utri":4243,"Ġmoda":4244,"ĠMal":4245,"Ġamar":4246,"Ġinmedia":4247,"Ġquedar":4248,"teca":4249,"Ġlanz":4250,"Ġfiesta":4251,"Ġmadera":4252,"ĠDesarrol":4253,"ĠÃ¡mbito":4254,"ĠÃ³":4255,"ime":4256,"Ġquieren":4257,"Ġmag":4258,"ĠSeguridad":4259,"Ġdebemos":4260,"Ġconsigu":4261,"Ġpais":4262,"Ġaltura":4263,"ĠRey":4264,"Ġorigin":4265,"rasil":4266,"tron":4267,"Ġreflex":4268,"Ġpropios":4269,"Ġcomba":4270,"tador":4271,"Ã©tico":4272,"Ġnota":4273,"uelas":4274,"ĠLi":4275,"Ġmunicipio":4276,"ĠcolaboraciÃ³n":4277,"ioso":4278,"Ġdenomin":4279,"ĠCer":4280,"Ġdismin":4281,"itud":4282,"ĠpÃºblicos":4283,"Ġhtt":4284,"Ġtranquil":4285,"Ġfres":4286,"Ġdiversas":4287,"anÃŃa":4288,"âĢĭ":4289,"gÃ³":4290,"Ġespos":4291,"Ġav":4292,"ull":4293,"ÃŃficos":4294,"Ġ*":4295,"Ġvisitar":4296,"bilidad":4297,"amo":4298,"ĠsÃŃn":4299,"ðŁ":4300,"Ġnumeros":4301,"crip":4302,"xto":4303,"Ġfuente":4304,"Ġapenas":4305,"Ġnega":4306,"Ġempezar":4307,"Ġimple":4308,"Ġnegocios":4309,"ĠII":4310,"Ġempren":4311,"Ġfuncionamiento":4312,"Ġafir":4313,"Ġul":4314,"ĠÃ¡r":4315,"Ġsacar":4316,"ĠtÃ©rminos":4317,"Ġescrito":4318,"Ġlog":4319,"Ġcarre":4320,"ĠGonz":4321,"dem":4322,"Ġperiodi":4323,"Ġmemoria":4324,"Ġprogram":4325,"Ġsiete":4326,"Ġgusto":4327,"Ġentidad":4328,"ĠFo":4329,"Ġetapa":4330,"Ġllamada":4331,"Ġfortal":4332,"Ġcontrato":4333,"ĠIglesia":4334,"adÃ©m":4335,"dencias":4336,"puestos":4337,"Ġunidad":4338,"CÃ³mo":4339,"Ġdura":4340,"Ġtradicional":4341,"Ġtorn":4342,"ĠdeberÃŃa":4343,"Ġesco":4344,"Ġperfil":4345,"Ġescol":4346,"ĠConstitu":4347,"roso":4348,"Ġejec":4349,"ĠOs":4350,"ĠPos":4351,"Ġhubiera":4352,"Ġutiliza":4353,"ĠvisiÃ³n":4354,"ĠÂ·":4355,"ĠtrÃ¡":4356,"Ġasum":4357,"Ġhabitaciones":4358,"Ġplataforma":4359,"ICA":4360,"ĠcomenzÃ³":4361,"ĠtelevisiÃ³n":4362,"Ġperiodo":4363,"keting":4364,"ĠmiÃ©rcoles":4365,"Ġhaga":4366,"Ġinvestig":4367,"lamento":4368,"Ġsala":4369,"Ġjard":4370,"ites":4371,"estival":4372,"Ġcompletamente":4373,"Ġradio":4374,"ity":4375,"pol":4376,"ĠgÃ©nero":4377,"Ġmotor":4378,"ĠWeb":4379,"Ġterritorio":4380,"ĠHe":4381,"ĠhabrÃ¡":4382,"istema":4383,"witter":4384,"Ġvino":4385,"ĠEcon":4386,"Ġton":4387,"Ġmartes":4388,"Ġimpacto":4389,"Ġsosten":4390,"Ġdescan":4391,"Ġcultural":4392,"24":4393,"Ġcuya":4394,"Ġpudo":4395,"Ġresiden":4396,"ĠfÃºtbol":4397,"Ġeventos":4398,"LA":4399,"Ġprefer":4400,"iales":4401,"Ġech":4402,"inci":4403,"Ġarriba":4404,"Ġtercer":4405,"Ġproduci":4406,"ĠpublicaciÃ³n":4407,"ĠkilÃ³metros":4408,"Ġderecha":4409,"Ġtesti":4410,"ĠBen":4411,"gust":4412,"gÃ¼":4413,"ĠBel":4414,"Ġ90":4415,"Ġdisponibles":4416,"triz":4417,"Ġcuarto":4418,"trol":4419,"Ġactualidad":4420,"Ġrecha":4421,"CA":4422,"Ġdarle":4423,"quilib":4424,"pera":4425,"Ġfigura":4426,"ĠpresiÃ³n":4427,"Ġflu":4428,"ĠVe":4429,"ĠCatal":4430,"Ġequiv":4431,"IT":4432,"Ġcalles":4433,"ick":4434,"Ġcualquiera":4435,"capa":4436,"Ġmarcas":4437,"Ġdando":4438,"Ġsitios":4439,"Te":4440,"Ġdemanda":4441,"Ġinfer":4442,"ĠXX":4443,"ĠEspaÃ±":4444,"ense":4445,"Ġavent":4446,"Ġcomunic":4447,"ĠTodos":4448,"isa":4449,"deres":4450,"didad":4451,"MÃ¡s":4452,"Ġizquierda":4453,"ĠpelÃŃculas":4454,"teros":4455,"Ġfuego":4456,"ombi":4457,"Ġanteriores":4458,"Ġiniciativa":4459,"Ġlengu":4460,"leo":4461,"âĤ¬":4462,"Ġorganizaciones":4463,"mitir":4464,"guez":4465,"Ġarquitec":4466,"ĠSur":4467,"ĠhabitaciÃ³n":4468,"ance":4469,"Ġganas":4470,"Ġpreguntas":4471,"Ġcontemp":4472,"ĠSantiago":4473,"Ġalmacen":4474,"ĠTrans":4475,"Ġrevis":4476,"ĠMuch":4477,"arca":4478,"ĠEdi":4479,"Ġelecciones":4480,"ecÃŃa":4481,"Ġdocumento":4482,"Ġfundamental":4483,"Ã³pez":4484,"Ġcm":4485,"Ġintent":4486,"Ġmostrar":4487,"Ġequip":4488,"Ġmismas":4489,"Ġ2009":4490,"Ġcorre":4491,"ĠFund":4492,"ribunal":4493,"Ġllegado":4494,"Ġintereses":4495,"ĠAt":4496,"AsÃŃ":4497,"Hay":4498,"Ġzapa":4499,"Ġaspecto":4500,"iblio":4501,"Ġcircun":4502,"tienen":4503,"Ġcarga":4504,"Ġarro":4505,"Ġporno":4506,"riendo":4507,"ĠâĢ¢":4508,"pora":4509,"Ġalcanzar":4510,"Ġteniendo":4511,"Ġgrave":4512,"ĠEE":4513,"Ġnie":4514,"estruc":4515,"iados":4516,"Ġaceite":4517,"Ġocu":4518,"Â»,":4519,"jan":4520,"ĠÃ¡n":4521,"yos":4522,"US":4523,"22":4524,"Ġce":4525,"leza":4526,"Ġgenera":4527,"ĠjurÃŃ":4528,"anto":4529,"rup":4530,"itados":4531,"Ġdeten":4532,"Ġpedir":4533,"ĠgeneraciÃ³n":4534,"Ġacog":4535,"Ġlejos":4536,"Ġestrategia":4537,"ĠDon":4538,"Ġpsic":4539,"ĠperÃŃo":4540,"dÃ³":4541,"ins":4542,"Ġaparece":4543,"Ġprimeras":4544,"Ġgrado":4545,"ĠPat":4546,"Ġtales":4547,"Ġconocimientos":4548,"Ġsoluciones":4549,"Ġras":4550,"Ġabandon":4551,"Ġadolesc":4552,"gimen":4553,"Ġdicen":4554,"Ġprofesor":4555,"Ġvacaciones":4556,"ĠgrÃ¡":4557,"Ġrepe":4558,"Ġconvir":4559,"Ġbur":4560,"ĠSE":4561,"Ġderro":4562,"Ġambient":4563,"Ġadop":4564,"Ġedificio":4565,"Ġdetec":4566,"ĠBuenos":4567,"Ġbloque":4568,"ĠAut":4569,"Ġrode":4570,"usa":4571,"Ġpersonaje":4572,"ht":4573,"Ġplantas":4574,"poner":4575,"ly":4576,"Ġjusticia":4577,"Ġargu":4578,"Ġsituaciones":4579,"ĠAires":4580,"ulado":4581,"ĠmÃŃnimo":4582,"Ġesperar":4583,"ĠPablo":4584,"vas":4585,"ĠFrancia":4586,"Ġ70":4587,"Ġprostitu":4588,"ĠMedi":4589,"Ġimper":4590,"ĠÃ©sta":4591,"Ġtrabajando":4592,"ologÃŃas":4593,"Ġkm":4594,"Ġmantenimiento":4595,"Ġjusto":4596,"mÃ¡n":4597,"Ġchica":4598,"ĠCab":4599,"Ġfamiliares":4600,"ĠCuba":4601,"Ġchicas":4602,"dizaje":4603,"Ġrequis":4604,"ĠvÃŃdeo":4605,"Ġhija":4606,"Ġfer":4607,"Ġtercera":4608,"Ġreducir":4609,"Ġalguno":4610,"Ġpiezas":4611,"Ġpag":4612,"Ġrequiere":4613,"PA":4614,"inario":4615,"ĠLÃ³pez":4616,"blos":4617,"Ġmodific":4618,"ciar":4619,"ĠMujer":4620,"villa":4621,"ĠdiÃ¡":4622,"rÃ³n":4623,"Ġenorme":4624,"edores":4625,"acho":4626,"ender":4627,"ĠÂ»":4628,"ĠChina":4629,"Ġsola":4630,"Ġfinales":4631,"ĠOfici":4632,"Ya":4633,"gal":4634,"Ġnormas":4635,"Ġanal":4636,"ĠDespuÃ©s":4637,"ĠRob":4638,"dÃŃ":4639,"Ġfirm":4640,"ĠvehÃŃculos":4641,"Ġ35":4642,"ĠDesarrollo":4643,"ĠquerÃŃa":4644,"ĠInv":4645,"Ġadministra":4646,"Ġespeciales":4647,"Ġvariedad":4648,"ĠHoy":4649,"udicial":4650,"rador":4651,"cipl":4652,"ĠComer":4653,"amor":4654,"ĠÃºltimas":4655,"ĠinstalaciÃ³n":4656,"tillas":4657,"Ġvecinos":4658,"ĠFacebook":4659,"Ġtengan":4660,"ÃŃtulos":4661,"Ġsel":4662,"san":4663,"Ġpeor":4664,"iamente":4665,"Ġherramienta":4666,"Ġimpuls":4667,"tillo":4668,"Ġbara":4669,"uta":4670,"Ġlarga":4671,"Ġcomenz":4672,"Ġnoticias":4673,"Ġinc":4674,"Ġcompetencia":4675,"ĠRam":4676,"ĠTh":4677,"Ġaquella":4678,"Ten":4679,"Ġdudas":4680,"Ġsolamente":4681,"Ġsabemos":4682,"Ġcomprome":4683,"Ġindividu":4684,"ave":4685,"Ġmejora":4686,"Ġventas":4687,"Ġcarta":4688,"ond":4689,"ĠdejÃ³":4690,"Ġmone":4691,"ĠFu":4692,"ĠdÃ³nde":4693,"ĠGrupo":4694,"Ġpasos":4695,"Buen":4696,"UU":4697,"Ġluc":4698,"Ġalquil":4699,"Ġposibilidades":4700,"ĠEstudi":4701,"Ġvivienda":4702,"Ġterror":4703,"use":4704,"yÃ³":4705,"Ġabog":4706,"Ġdue":4707,"Ġcomport":4708,"ĠHist":4709,"Ġacum":4710,"ivas":4711,"Ġdecisiones":4712,"cimientos":4713,"UR":4714,"Ġ2008":4715,"iores":4716,"illos":4717,"ĠsesiÃ³n":4718,"ĀĀĀĀĀĀĀĀĀĀĀĀĀĀĀĀ":4719,"trÃ³":4720,"Ġsexual":4721,"ĠsueÃ±o":4722,"Ġboca":4723,"Ġpresupuesto":4724,"Ġregal":4725,"Ġtriun":4726,"iles":4727,"Ġdespe":4728,"ĠClub":4729,"Ġhuman":4730,"Ġbre":4731,"Ġpuertas":4732,"Ġfuerzas":4733,"Ġconsecuencia":4734,"ses":4735,"Ġexplica":4736,"Ġcomplic":4737,"Ġexistencia":4738,"ĠBrasil":4739,"Ġdirecto":4740,"ĠBlan":4741,"mina":4742,"ĠUniÃ³n":4743,"Ġlectura":4744,"Res":4745,"ĠlÃŃneas":4746,"Ġocho":4747,"Ġsustitu":4748,"ĠNos":4749,"Ġhicieron":4750,"Ġcuentas":4751,"Ġocul":4752,"ticamente":4753,"Ġcasas":4754,"Ġpublicado":4755,"ÃŃda":4756,"Ġrit":4757,"ĠBer":4758,"Ġrecordar":4759,"Ã¡is":4760,"Ġexplo":4761,"Ġaloj":4762,"Ġdescargar":4763,"Ġfas":4764,"ĠPresidente":4765,"Ġjugador":4766,"ĠvehÃŃculo":4767,"Ġavis":4768,"ĠcrÃŃt":4769,"vel":4770,"23":4771,"Ġtamb":4772,"Ġfines":4773,"Ìģ":4774,"alizados":4775,"arnos":4776,"Ġefica":4777,"cam":4778,"Ġvincul":4779,"ang":4780,"Ġobstante":4781,"Ġmala":4782,"tus":4783,"Ġcatal":4784,"iempre":4785,"Ġentra":4786,"LO":4787,"Ġabor":4788,"Ġsalv":4789,"itamos":4790,"ĠcompaÃ±eros":4791,"Ġvivo":4792,"VA":4793,"Ġpiedra":4794,"Ġposibles":4795,"Ġencanta":4796,"Ġpris":4797,"Ġbarrio":4798,"hn":4799,"Ġsoftware":4800,"Ġfuentes":4801,"Ġrespeto":4802,"ĠDirecciÃ³n":4803,"Ġsectores":4804,"Ġfirma":4805,"Ġllu":4806,"ĠfÃŃsica":4807,"ĠÃģn":4808,"fre":4809,"Ġjefe":4810,"chas":4811,"Po":4812,"Ġaquellas":4813,"Ġregistro":4814,"80":4815,"Ġescal":4816,"Hoy":4817,"Ġdich":4818,"Ġestablecer":4819,"mania":4820,"ĠValencia":4821,"Ġrevel":4822,"Ġsede":4823,"Ġlech":4824,"ĠquedÃ³":4825,"Ġmicro":4826,"ples":4827,"Ġfiscal":4828,"Ġentidades":4829,"Ġmenores":4830,"Ġconoc":4831,"ĠexposiciÃ³n":4832,"Ġfinalmente":4833,"ĠBl":4834,"Ġpobre":4835,"Ġidi":4836,"ĠCre":4837,"Ġmam":4838,"Ġrelev":4839,"tig":4840,"Ġido":4841,"ty":4842,"Ġministro":4843,"Ġexter":4844,"Ġnovela":4845,"ĠpodrÃŃan":4846,"fon":4847,"Ġescenario":4848,"Ġsome":4849,"ker":4850,"Ġrendimiento":4851,"ĠPerÃº":4852,"rupciÃ³n":4853,"ĠEso":4854,"ĠEmpres":4855,"ĠCruz":4856,"icciÃ³n":4857,"Ġsuperficie":4858,"Ġunidades":4859,"Ġrequer":4860,"Ġran":4861,"Ġpropias":4862,"Durante":4863,"Ġoperaciones":4864,"chez":4865,"Ġtes":4866,"Ġmeta":4867,"Ġcumple":4868,"Ġverde":4869,"Ġcama":4870,"ĠmÃ¡xima":4871,"ĠJav":4872,"Ġano":4873,"Ġrestau":4874,"ĠAdministraciÃ³n":4875,"Ġprom":4876,"@@":4877,"Ġllegada":4878,"Ġdocumentos":4879,"Ġestan":4880,"ĠacadÃ©m":4881,"cida":4882,"iego":4883,"cÃ©s":4884,"iosa":4885,"Ġgenerar":4886,"Ġexac":4887,"bla":4888,"Ġapun":4889,"dÃ³n":4890,"Ġgras":4891,"Ġ>":4892,"Ġretir":4893,"Ġment":4894,"ĠFer":4895,"uncia":4896,"Ġdomici":4897,"Ġenfrent":4898,"ĠpequeÃ±as":4899,"Ġresolver":4900,"ficaciones":4901,"eles":4902,"ĠhacÃŃa":4903,"indo":4904,"Ġpec":4905,"ĠresoluciÃ³n":4906,"ĠsecciÃ³n":4907,"uebles":4908,"Ġexcep":4909,"ĠprÃ¡cticas":4910,"ĠDav":4911,"Ġcita":4912,"):":4913,"Ġdep":4914,"iero":4915,"anzas":4916,"Ġargent":4917,"venida":4918,"amble":4919,"ĠoperaciÃ³n":4920,"ĠTa":4921,"ĠincreÃŃ":4922,"fin":4923,"ko":4924,"ĠcÃ¡n":4925,"ĠDEL":4926,"Ġespecie":4927,"ĠElec":4928,");":4929,"Ġcerc":4930,"gaciones":4931,"plic":4932,"Ġges":4933,"AT":4934,"Ġembara":4935,"org":4936,"ĠEm":4937,"Ġtemperatura":4938,"fÃŃa":4939,"CO":4940,"ĠhabrÃŃa":4941,"ĠRev":4942,"ĠharÃ¡":4943,"Ġartes":4944,"Ġplaza":4945,"Ġagreg":4946,"Ġreac":4947,"anda":4948,"Ġga":4949,"onda":4950,"ĠPolicÃŃa":4951,"ĠFue":4952,"Ġcriter":4953,"Ġsencillo":4954,"ĠNorte":4955,"dust":4956,"fÃ©":4957,"erop":4958,"ĠAg":4959,"ĠYork":4960,"Ġdigo":4961,"ive":4962,"ĠOrgan":4963,"deraciÃ³n":4964,"Ġfen":4965,"tumb":4966,"portes":4967,"Ġsupone":4968,"Ġpedido":4969,"Ġabajo":4970,"Ġvideos":4971,"usia":4972,"Ġregular":4973,"ĠcÃ¡mara":4974,"Ġast":4975,"ĠpÃ©rdida":4976,"ĠFis":4977,"Ġenfermedades":4978,"ĠEstos":4979,"ĠBe":4980,"Ġlegal":4981,"Ġcomerciales":4982,"Ġmaravillos":4983,"Ġintentar":4984,"ĠBus":4985,"ĠmÃºlti":4986,"deros":4987,"Ġsomb":4988,"racia":4989,"Ġprincipalmente":4990,"ĠDu":4991,"Ġbelleza":4992,"Ġabierto":4993,"Ġproduce":4994,"Ġpermiten":4995,"Ġsuele":4996,"ĠcolecciÃ³n":4997,"onato":4998,"Ġingresos":4999,"ky":5000,"eran":5001,"ĠpasÃ³":5002,"ĠrealizÃ³":5003,"Ġhumana":5004,"Ġtiendas":5005,"ieran":5006,"itÃ©":5007,"tismo":5008,"torias":5009,"ĠpolicÃŃa":5010,"99":5011,"uencias":5012,"ĠseÃ±alÃ³":5013,"ĠEspe":5014,"Ġpodido":5015,"okies":5016,"jor":5017,"Ġcalor":5018,"ĠMac":5019,"ĠDomin":5020,"Ġsimilar":5021,"Ġmecan":5022,"Ġdiput":5023,"ĠCada":5024,"ĠhÃ¡":5025,"Ġagre":5026,"Ġexperiencias":5027,"Ġescuchar":5028,"ĠRom":5029,"puestas":5030,"Ġagrad":5031,"Ġisla":5032,"ĠHu":5033,"ĠSeÃ±or":5034,"**":5035,"Ġfeliz":5036,"Ġcorte":5037,"Ġcorrespondiente":5038,"ĠVir":5039,"ĠProfes":5040,"ĠFundaciÃ³n":5041,"itada":5042,"Ġciencia":5043,"Ġtransform":5044,"Ġpremio":5045,"edes":5046,"Ġvictoria":5047,"Ġnacionales":5048,"Ġambas":5049,"Ġcircunst":5050,"Ġtraslad":5051,"Ġincluyendo":5052,"ĠJusticia":5053,"Ġjam":5054,"tem":5055,"Ġconsol":5056,"Ġsale":5057,"ĠÃ¡rbol":5058,"Ġtej":5059,"âĢ¢":5060,"Ġveo":5061,"Ġdeporte":5062,"isiones":5063,"Ġerror":5064,"Ġruta":5065,"Ġgastos":5066,"ĠCivil":5067,"IM":5068,"Ġtraduc":5069,"Ġabsolu":5070,"Ġdesaf":5071,"ĠelecciÃ³n":5072,"Ġlocalidad":5073,"Ġsiguen":5074,"Ġcoinci":5075,"rales":5076,"Ġfactores":5077,"ilares":5078,"reras":5079,"itarios":5080,"len":5081,"Ġaprendizaje":5082,"udas":5083,"ĠPrem":5084,"Ġrey":5085,"Ġtritur":5086,"ĠNi":5087,"Ġimposible":5088,"ĠperÃŃodo":5089,"Ġcereb":5090,"Ġ=":5091,"Ġhar":5092,"Ġcomunidades":5093,"ĠPÃºbl":5094,"inados":5095,"ET":5096,"Ġdeseo":5097,"ÃŃguez":5098,"ĠTri":5099,"eÃ±":5100,"ĠpÃºblicas":5101,"Ġcumplimiento":5102,"Ġdebes":5103,"Ġofrecen":5104,"idar":5105,"Ġparticipantes":5106,"Ġfalle":5107,"iaciÃ³n":5108,"Ġconsulta":5109,"Ġcomenzar":5110,"Ġcomercio":5111,"Ġrecorrido":5112,"Ġge":5113,"Ġpiso":5114,"ĠĠ":5115,"quilla":5116,"Ġdivi":5117,"Tras":5118,"Ġfunciona":5119,"Ġmanda":5120,"Ġpueblos":5121,"ĠdetrÃ¡s":5122,"ĠTele":5123,"ierta":5124,"bra":5125,"Ġexpertos":5126,"ĠBal":5127,"ĠServicio":5128,"Ġnomb":5129,"drÃŃguez":5130,"Ã¡nica":5131,"Ġcomerci":5132,"viamente":5133,"Ġaper":5134,"Ġprivado":5135,"Ġurb":5136,"vera":5137,"arle":5138,"Ġrazones":5139,"Ġrecog":5140,"igu":5141,"Ġprobar":5142,"ĠPerson":5143,"ĠcÃ³digo":5144,"Ġrue":5145,"Ġaumentar":5146,"Ġfase":5147,"ĠinformÃ³":5148,"Ġhubo":5149,"ĠrÃŃo":5150,"Ġequilib":5151,"ks":5152,"Âª":5153,"metro":5154,"Ã¡nd":5155,"uf":5156,"Ġvuelve":5157,"misiÃ³n":5158,"ĠCur":5159,"Ġverdadera":5160,"ivamente":5161,"hib":5162,"amento":5163,".âĢĿ":5164,"ĠllevÃ³":5165,"arial":5166,"ĠrÃ©gimen":5167,"Ġdispositivos":5168,"adio":5169,"gados":5170,"Ġfar":5171,"ĠSec":5172,"int":5173,"Ġital":5174,"Ġtarjeta":5175,"Ġsorpres":5176,"Ġhayan":5177,"Ġgarantizar":5178,"ĠtenÃŃan":5179,"Ġcorto":5180,"ĠsensaciÃ³n":5181,"Ġformato":5182,"uÃ±a":5183,"Ã¡nchez":5184,"ds":5185,"Ġses":5186,"ĠcondiciÃ³n":5187,"Ġpropuestas":5188,"oque":5189,"ĠPP":5190,"Ġsiquiera":5191,"ĠdistribuciÃ³n":5192,"Ġcrim":5193,"ianos":5194,"raz":5195,"ĠestÃ©n":5196,"ĠSegÃºn":5197,"lÃŃ":5198,"Ġreconocimiento":5199,"ĠUr":5200,"Ġsonido":5201,"talia":5202,"idez":5203,"Ch":5204,"Ġcomienza":5205,"olÃ³gicos":5206,"Ġrevista":5207,"Ġdul":5208,"Ġdebate":5209,"Ġdesper":5210,"Ġconstruir":5211,"Ġaus":5212,"inta":5213,"ĠProvin":5214,"Ġataque":5215,"grafÃŃas":5216,"Ġespero":5217,"ĠTras":5218,"ĠEscuela":5219,"arme":5220,"Ġpresentes":5221,"iendas":5222,"Ġofertas":5223,"estre":5224,"Ġdenunci":5225,"Ġcompos":5226,"Ġcursos":5227,"Ġidentidad":5228,"Ġdispar":5229,"isla":5230,"Ġintens":5231,"ĠNO":5232,"Ġnoticia":5233,"Ġmantiene":5234,"Ġfondos":5235,"ĠcrÃ©dito":5236,"crib":5237,"raestruc":5238,"pr":5239,"Ġec":5240,"Ġenlace":5241,"Ġplanes":5242,"king":5243,"cionamiento":5244,"stru":5245,"Ġacre":5246,"Ã©ndose":5247,"ĠÃģngel":5248,"ezol":5249,"ore":5250,"Ġdeclara":5251,"amentos":5252,"tigo":5253,"augu":5254,"Ġparque":5255,"Ġrelacionados":5256,"ĠvÃŃctimas":5257,"Ġenem":5258,"Ġaproximadamente":5259,"ĠPl":5260,"Ġmunicipal":5261,"ĠFel":5262,"Ġremo":5263,"ĠRodrÃŃguez":5264,"Ġparecer":5265,"venir":5266,"Ġmarc":5267,"ĠrÃ¡pida":5268,"ribuy":5269,"ĠPRO":5270,"wn":5271,"ĠInf":5272,"gamos":5273,"Ġhal":5274,"ĠexplicÃ³":5275,"ĠexpresiÃ³n":5276,"ficiencia":5277,"ĠJorge":5278,"Ġformul":5279,"ĠPuerto":5280,"up":5281,"ĠServicios":5282,"Ġindica":5283,"AP":5284,"gencias":5285,"ĠespÃŃritu":5286,"VI":5287,"Ġvive":5288,"Ġinaugu":5289,"Ġdescubrir":5290,"Ġelev":5291,"ude":5292,"Ġartistas":5293,"Ġglobal":5294,"45":5295,"Ġcanciones":5296,"enes":5297,"Ġdelante":5298,"ĠRed":5299,"]âĢĭ":5300,"Ġcomentario":5301,"Ġdispositivo":5302,"Ġjuntos":5303,"Ã¡lez":5304,"Ġprior":5305,"Entre":5306,"ĠmÃ©todo":5307,"Ġcontras":5308,"rael":5309,"Ahora":5310,"Ġbio":5311,"Ġadultos":5312,"ÃŃgen":5313,"eÃ±a":5314,"ucÃŃa":5315,"Ã¡mica":5316,"acas":5317,"Ġhermano":5318,"ENT":5319,"Ġtarea":5320,"ĠJun":5321,"Ġconvertido":5322,"Â«":5323,"Ġdejado":5324,"ĠgustarÃŃa":5325,"ĠtÃ©rmino":5326,"ĠconexiÃ³n":5327,"Ġtren":5328,"Ġconsec":5329,"todos":5330,"tima":5331,"Ã©ndo":5332,"Ġ500":5333,"Ġcielo":5334,"Ġcosto":5335,"pati":5336,"Ġoportunidades":5337,"Ġcaja":5338,"Ġilum":5339,"Ġhabitantes":5340,"Ġentrevista":5341,"Ġforo":5342,"Ġdistribu":5343,"Ġencontramos":5344,"tista":5345,"Ġbomb":5346,"Ġritmo":5347,"Ġnutri":5348,"Ġfemen":5349,"ĠSÃ¡nchez":5350,"ĠespaÃ±oles":5351,"Ġestadounidense":5352,"eca":5353,"Ġ2007":5354,"ĠOn":5355,"ĠNic":5356,"Gra":5357,"yecto":5358,"ĠintenciÃ³n":5359,"Ġobliga":5360,"Ġcontexto":5361,"Ġterminar":5362,"Ġempleados":5363,"LE":5364,"Ġactos":5365,"ĠPorque":5366,"Ġpies":5367,"orios":5368,"ĠTV":5369,"Ġcircul":5370,"ĠMil":5371,"Ġrecibido":5372,"Ġpaciente":5373,"Ġcarne":5374,"Ġjuicio":5375,"Ġmiembro":5376,"Ġinflu":5377,"ciaciones":5378,"Ġsirve":5379,"Ġarmas":5380,"ĠperiÃ³":5381,"Ġduro":5382,"Aunque":5383,"ĠLeÃ³n":5384,"Ġalma":5385,"arlos":5386,"iri":5387,"ĠComunidad":5388,"Ġamplio":5389,"Ġrenov":5390,"Ġpotencial":5391,"Ġpublicidad":5392,"arra":5393,"Ġ45":5394,"Ġdetalle":5395,"cÃ³n":5396,"olucion":5397,"Ġsilen":5398,"Ġacos":5399,"tÃŃculo":5400,"Ġcreado":5401,"Ġcontiene":5402,"Ġdebajo":5403,"ĠIncl":5404,"Ġvolumen":5405,"deras":5406,"Ġterreno":5407,"Ġproteger":5408,"Ġrum":5409,"Ġgama":5410,"Ġobjetos":5411,"oluc":5412,"ĠinstituciÃ³n":5413,"ĠAlgun":5414,"Ġigu":5415,"ĠAlemania":5416,"BA":5417,"teratura":5418,"Ġpasando":5419,"Ġartista":5420,"ĠcÃ¡l":5421,"Ġdirecta":5422,"Ġmirada":5423,"Ġhistorias":5424,"ĠprÃ³xima":5425,"Ġleyes":5426,"Ġocurre":5427,"ĠSil":5428,"Ġleyendo":5429,"Ġsurg":5430,"ĠhistÃ³rico":5431,"Ġadelan":5432,"ĠJunta":5433,"Ġ196":5434,"ticias":5435,"ash":5436,"Ġrecuerdo":5437,"Ġconden":5438,"ĠFernando":5439,"ARA":5440,"ipe":5441,"trado":5442,"Ġespecta":5443,"Ġmig":5444,"ĠSevilla":5445,"Ġeliminar":5446,"ĠAndal":5447,"pens":5448,"Ġseres":5449,"ĠGonzÃ¡lez":5450,"Ġpreocu":5451,"ultades":5452,"Ġmedic":5453,"ucha":5454,"Ġconfirm":5455,"Ġcadena":5456,"21":5457,"ĠBanco":5458,"Ġlegisl":5459,"Ġcertific":5460,"Ġpuso":5461,"Ġenter":5462,"ĠAz":5463,"Ġliter":5464,"Ġreclam":5465,"Ġpasada":5466,"Ġperspec":5467,"ĠintervenciÃ³n":5468,"2018":5469,"Ġcolombi":5470,"radas":5471,"Ġlimpieza":5472,"Ġoficina":5473,"Ġnecesaria":5474,"Ġconvoca":5475,"leta":5476,"ĠLib":5477,"timos":5478,"Ġcierre":5479,"ĠtÃŃp":5480,"deos":5481,"Ġustedes":5482,"Ġpromedio":5483,"Ġilust":5484,"ĠasegurÃ³":5485,"ĠTecn":5486,"Pre":5487,"ĠDavid":5488,"Ġprocedimiento":5489,"berto":5490,"Ġpractic":5491,"Ġmensajes":5492,"Ġvoc":5493,"Ġvoluntad":5494,"RES":5495,"usiones":5496,"Ġmezcla":5497,"ĠOri":5498,"Ġprima":5499,"rores":5500,"lano":5501,"Ġdepartamento":5502,"Ġ@":5503,"timo":5504,"Ġagres":5505,"ĠVilla":5506,"utbol":5507,"ĠclÃŃn":5508,"ĠpropÃ³sito":5509,"26":5510,"Ġrequisitos":5511,"CE":5512,"ĠPen":5513,"ĠCristo":5514,"ĠcanciÃ³n":5515,"27":5516,"estas":5517,"Ġtendencia":5518,"Ġresistencia":5519,"Ġquedan":5520,"ulares":5521,"Ġestren":5522,"indows":5523,"udos":5524,"tidas":5525,"Ġpic":5526,"IF":5527,"rano":5528,"Ġcanal":5529,"tamientos":5530,"gram":5531,"Ġsolicitud":5532,"Ġdim":5533,"ĠTal":5534,"ĠubicaciÃ³n":5535,"ade":5536,"Ġase":5537,"Ġleche":5538,"ienes":5539,"Ġrepor":5540,"Ġpendi":5541,"ĠdaÃ±o":5542,"ella":5543,"Ġpase":5544,"ĠSem":5545,"Ġimpresion":5546,"Ġtareas":5547,"Ġpat":5548,"Ġdro":5549,"Ġvender":5550,"Ġintegra":5551,"dedores":5552,"Ġacudi":5553,"ĠmÃºltiples":5554,"Ġemerg":5555,"Ġciclo":5556,"Ġhospital":5557,"Ġviajes":5558,"ĠPon":5559,"ÃŃz":5560,"Ġcoti":5561,"Ġnecesarios":5562,"Ġclima":5563,"Ġvisit":5564,"ciÃĥ":5565,"Ġescena":5566,"eropuerto":5567,"ĠCultura":5568,"erdo":5569,"www":5570,"Ġrol":5571,"tadores":5572,"Ġreciente":5573,"ley":5574,"Ġarchivos":5575,"Ġproducir":5576,"Ġinfec":5577,"dice":5578,"Ġtorno":5579,"Ġhabitual":5580,"Ġexpe":5581,"ĠSistema":5582,"Ġreforma":5583,"Ġsuma":5584,"Ġrojo":5585,"Ġwww":5586,"Ġbeneficio":5587,"ĠPartido":5588,"Ġorganismo":5589,"rarse":5590,"Ġvistas":5591,"Ġbi":5592,"Ġsabor":5593,"Ġmusical":5594,"grÃŃa":5595,"estiones":5596,"Ġhermanos":5597,"ĠcÃ¡ncer":5598,"ĠduraciÃ³n":5599,"35":5600,"Ġllevan":5601,"ĠInvesti":5602,"Ġpermanente":5603,"Ã©rez":5604,"ĠGer":5605,"Ġpref":5606,"Ã³logo":5607,"DespuÃ©s":5608,"ĠpromociÃ³n":5609,"ĠLuego":5610,"Ġbreve":5611,"%.":5612,"Ġbos":5613,"uelos":5614,"lecciÃ³n":5615,"Ġconciencia":5616,"Ġtera":5617,"Ġsupon":5618,"ĠtendrÃ¡n":5619,"Ġperfecta":5620,"Ġsuminist":5621,"Ġarran":5622,"Ġmovimientos":5623,"ĠguÃŃa":5624,"PS":5625,"Ġexam":5626,"tiende":5627,"osos":5628,"Ġrefiere":5629,"Ġpocas":5630,"ĠSam":5631,"Ġpotencia":5632,"tÃ©g":5633,"ĠevoluciÃ³n":5634,"Ġreduci":5635,"Ġvul":5636,"Ġasistencia":5637,"ĠAD":5638,"inada":5639,"gadas":5640,"Ġlenguaje":5641,"Ġcontrolar":5642,"Ġhier":5643,"Ġpuestos":5644,".)":5645,"ĠAquÃŃ":5646,"Ġreserva":5647,"izada":5648,"Ã©rcito":5649,"amblea":5650,"Ġtambien":5651,"Ġencontrado":5652,"Ġbici":5653,"Ġcree":5654,"Ġhonor":5655,"Ġiglesia":5656,"jeron":5657,"quinas":5658,"Ġplaneta":5659,"Ġdescrib":5660,"ĠIndust":5661,"Ġubicado":5662,"Ġprecisamente":5663,"ĠDurante":5664,"jal":5665,"Ġrestaurante":5666,"Ġinferior":5667,"Ġaguas":5668,"ĠÃºtil":5669,"28":5670,"Ġpose":5671,"Ġconocida":5672,"Ġconcurso":5673,"âĢĻ,":5674,"Ġmencion":5675,"ĠVI":5676,"ÃŃc":5677,"Ġperdido":5678,"ĠEuropea":5679,"ĠlÃ³g":5680,"ĠDerecho":5681,"Ġdependi":5682,"uestros":5683,"ĠRE":5684,"ĠtecnologÃŃas":5685,"Ġsuelen":5686,"ĠfÃŃsico":5687,"duce":5688,"ĠTierra":5689,"Ġaplicar":5690,"genierÃŃa":5691,"Ġsaben":5692,"ĠquizÃ¡s":5693,"ĠrealizaciÃ³n":5694,"ruguay":5695,"Ġnombres":5696,"Ġreconocer":5697,"Ġarreg":5698,"ĠAL":5699,"Ġhipo":5700,"ĠFor":5701,"Ġoptim":5702,"quen":5703,"ĠespectÃ¡":5704,"ritÃ¡n":5705,"Ġrecuerda":5706,"Ġfrecuencia":5707,"ĠrÃ¡pidamente":5708,"Ġpresentado":5709,"IDAD":5710,"ondo":5711,"Ġsuave":5712,"ĠRusia":5713,"33":5714,"Ġhttp":5715,"Ġasegura":5716,"Ġinfantil":5717,"ĠrecibiÃ³":5718,"Ãĳ":5719,"ĠSub":5720,"Ġhacemos":5721,"Ġprodu":5722,"Ġ300":5723,"ĠAna":5724,"zz":5725,"Ġefectu":5726,"ĠMÃ¡":5727,"ung":5728,"Ġagentes":5729,"Ġputas":5730,"Ġsolicitar":5731,"Mi":5732,"Ġpele":5733,"Ġconsiste":5734,"Ġlengua":5735,"ĠÐ":5736,"ĠCiencias":5737,"Ġasesor":5738,"Ġvendi":5739,"ĠTÃ©cn":5740,"Ġformar":5741,"Ġvenezol":5742,"ĠPri":5743,"mm":5744,"ane":5745,"Ġdomicilio":5746,"Ġmercados":5747,"Mar":5748,"let":5749,"quia":5750,"Ġplacer":5751,"Ġsubir":5752,"Ġvemos":5753,"eciÃ³":5754,"Ġgl":5755,"Ġintelec":5756,"Ġcierta":5757,"ĠCopa":5758,"ĠAst":5759,"Ġsegundos":5760,"ĠmisiÃ³n":5761,"Ġhos":5762,"ĠHar":5763,"Ġporta":5764,"Ġcuentan":5765,"Ġmotiv":5766,"rucciones":5767,"aa":5768,"pira":5769,"ĠMunicipal":5770,"90":5771,"Ġcomportamiento":5772,"ciles":5773,"ĠdeberÃ¡n":5774,"Ġquis":5775,"Ġrepresentantes":5776,"Ġasc":5777,"ĠpresentÃ³":5778,"Ġaudio":5779,"Ġapartado":5780,"Ġimplic":5781,"ĠalimentaciÃ³n":5782,"OD":5783,"olina":5784,"Ġadecuado":5785,"Ġgana":5786,"Ġasegurar":5787,"Ġacaba":5788,"ĠevaluaciÃ³n":5789,"ÃŃsticos":5790,"Ġvio":5791,"Ġprivada":5792,"Ġsiento":5793,"hat":5794,"Ġentregar":5795,"Ġporcent":5796,"Ġgratuita":5797,"ĠTwitter":5798,"Ġcontinuar":5799,"Ġdormitor":5800,"Ġalcance":5801,"Ġsimp":5802,"piraciÃ³n":5803,"Ġbru":5804,"Ġutilizando":5805,"hor":5806,"Ġindustrial":5807,"ĠPÃ©rez":5808,"Dis":5809,"Ġfom":5810,"ĠGre":5811,"ĠactuaciÃ³n":5812,"Ġalco":5813,"Ġtantos":5814,"vimos":5815,"rimiento":5816,"ĠfrancÃ©s":5817,"ĠCentral":5818,"ĠenvÃŃo":5819,"Ġexpan":5820,"ĠBas":5821,"Ġgrab":5822,"we":5823,"ĠRu":5824,"Ġriesgos":5825,"Ġ36":5826,"ini":5827,"sen":5828,"Ġpaque":5829,"Ġprotes":5830,"ĠfenÃ³m":5831,"ĠEsp":5832,"Ġpretende":5833,"Ġantiguo":5834,"Ġresponsables":5835,"Ġconcreto":5836,"Ġelemento":5837,"ĠprÃ³ximos":5838,"Ġchicos":5839,"%,":5840,"Ġsuces":5841,"Ġlleno":5842,"Ġerrores":5843,"ĠHol":5844,"ÃŃsima":5845,"ĠDist":5846,"ĠForm":5847,"ĠPlaza":5848,"Ġnecesitan":5849,"ii":5850,"Ġconsecuencias":5851,"ting":5852,"ĠEstas":5853,"Ġprogres":5854,"Ġexpec":5855,"ĠSte":5856,"ĠTribunal":5857,"Ġcookies":5858,"ĠquÃŃm":5859,"Ġcomunes":5860,"Ġinfraestruc":5861,"Ġcarretera":5862,"viera":5863,"Ġpiscina":5864,"Ġespal":5865,"Ġabierta":5866,"Ġetique":5867,"guar":5868,"Ġllen":5869,"Ġ)":5870,"Ġvale":5871,"Ġclara":5872,"ĠDepartamento":5873,"Ġpuesta":5874,"ĠLin":5875,"ĠniÃ±a":5876,"Ġcocin":5877,"Rec":5878,"orts":5879,"ĠejecuciÃ³n":5880,"Ġgestion":5881,"igna":5882,"ĠcafÃ©":5883,"Ġgar":5884,"Ġarchivo":5885,"Ġdieron":5886,"Ġamist":5887,"Ġmasa":5888,"rÃŃ":5889,"Ġalcalde":5890,"Ġadj":5891,"tizaciÃ³n":5892,"Ġtrabaja":5893,"ĠestaciÃ³n":5894,"UC":5895,"Ġterra":5896,"ĠSala":5897,"Ġasunto":5898,"ueve":5899,"Ġresponder":5900,"Ġcercan":5901,"Ġhuel":5902,"Ġincluyen":5903,"cesa":5904,"Ġestablece":5905,"Ġvaya":5906,"Ġutilizado":5907,"ĠoposiciÃ³n":5908,"Ġflor":5909,"Ãºcar":5910,"UL":5911,"adura":5912,"doba":5913,"Ġdejo":5914,"Ġsituado":5915,"ĠCosta":5916,"esÃŃa":5917,"ĠPuede":5918,"Ġneg":5919,"cir":5920,"Ġfich":5921,"Ġconvoc":5922,"ĠDr":5923,"ĠProduc":5924,"Ġperfectamente":5925,"Ġdesen":5926,"Ġbu":5927,"ĠbebÃ©":5928,"Ġesposa":5929,"Ġproporcion":5930,"Ġautores":5931,"Ġflo":5932,"Ġsencilla":5933,"Ġtranspar":5934,"Ġpensamiento":5935,"ĠmÃ©dicos":5936,"Ġexplor":5937,"Gracias":5938,"ĠON":5939,"Ġcontactos":5940,"Much":5941,"sal":5942,"Ġsoporte":5943,"ĠfotografÃŃa":5944,"tuales":5945,"ĠestÃ¡ndar":5946,"?,":5947,"Ġpilo":5948,"Ġescon":5949,"abora":5950,"roid":5951,"ĠcelebraciÃ³n":5952,"rue":5953,"Ġpeligro":5954,"grado":5955,"ĠAudi":5956,"iverso":5957,"ecido":5958,"rida":5959,"amÃ©rica":5960,"Ġinvoluc":5961,"ĠnÃºmeros":5962,"Ġconsejos":5963,"Ġaccidente":5964,"Ġimporta":5965,"',":5966,"Ġminer":5967,"ĠZapa":5968,"Ġhablando":5969,"Ġdestru":5970,"afa":5971,"tom":5972,"Ġlujo":5973,"ueva":5974,"Ġcabal":5975,"Ġextraord":5976,"rieron":5977,"pendencia":5978,"Ġmenudo":5979,"ĠsÃŃnt":5980,"Ġconflicto":5981,"ĠVol":5982,"Ġdesconoci":5983,"Ġflex":5984,"Ġafirma":5985,"ĠTrabajo":5986,"Ġmotivos":5987,"ĠTrump":5988,"TER":5989,"bos":5990,"ĠFederal":5991,"Ġlist":5992,"70":5993,"ĠJavier":5994,"ĠincreÃŃble":5995,"ĠdaÃ±os":5996,"Ġdesea":5997,"Ġdesay":5998,"Ġreceta":5999,"lin":6000,"Ġfuertes":6001,"ualmente":6002,"ĠÃīl":6003,"Ġfuncionarios":6004,"Ġsabes":6005,"ĠTom":6006,"Ġcontes":6007,"Ġbases":6008,"Ã³stico":6009,"Ġcomunicado":6010,"Ġabra":6011,"Ġconvierte":6012,"Ġagradable":6013,"Ġverdadero":6014,"Ġameric":6015,"iernos":6016,"Ġdocument":6017,"AB":6018,"ĠAmb":6019,"ys":6020,"29":6021,"esper":6022,"Ġprote":6023,"Ġhabilidades":6024,"Ġdefens":6025,"ĠPrograma":6026,"tieron":6027,"Ġindependiente":6028,"Ġcoleg":6029,"Ġrem":6030,"Ġcaliente":6031,"inte":6032,"ĠautÃ©n":6033,"ĠtÃ©cnicos":6034,"Ġservir":6035,"Pue":6036,"Ġcarb":6037,"Ġactuales":6038,"Ġnaveg":6039,"dimientos":6040,"ĠAgu":6041,"Ġcaer":6042,"ĠCorte":6043,"Ġautoridad":6044,"Ġ..":6045,"Ġalar":6046,"Ġdiscipl":6047,"Ġrelo":6048,"Ġapertura":6049,"ĠmÃ¡quina":6050,"ĠConstituciÃ³n":6051,"ionales":6052,"Ġger":6053,"Ġaclar":6054,"icales":6055,"quez":6056,"ĠCla":6057,"ĠFernÃ¡ndez":6058,"ĠCul":6059,"ĠSecretarÃŃa":6060,"Ġaument":6061,"ni":6062,"hol":6063,"Ġrecibe":6064,"ĠanunciÃ³":6065,"ĠreciÃ©n":6066,"Ġdeuda":6067,"Ġ2006":6068,"Ġjuez":6069,"Ġauton":6070,"Ġestrellas":6071,"Ġturismo":6072,"Ġcabello":6073,"Hace":6074,"ĠGa":6075,"Ġcontribu":6076,"ĠJohn":6077,"Ġhacerse":6078,"Ġvit":6079,"alacio":6080,"Ġmarketing":6081,"vos":6082,"pin":6083,"Ġtoque":6084,"Ġquedado":6085,"Ġposterior":6086,"Ġdeleg":6087,"Ġresca":6088,"ĠAC":6089,"Ġperro":6090,"ĠdÃ©cada":6091,"Ġmira":6092,"ĠFuer":6093,"Ġpeti":6094,"Ġcontam":6095,"Ġingre":6096,"Ġsecretario":6097,"ĠMat":6098,"ĠLiga":6099,"teo":6100,"ĠDeb":6101,"ĠEjecu":6102,"Ġimpon":6103,"risa":6104,"adÃ¡":6105,"36":6106,"ĠDef":6107,"bum":6108,"xo":6109,"Ġmod":6110,"ĠMientras":6111,"ĠdecÃŃa":6112,"Ġenviar":6113,"Ġgenerales":6114,"americana":6115,"QU":6116,"ilos":6117,"endas":6118,"ube":6119,"ĠÃºnicamente":6120,"Ã¡stico":6121,"Ġcosta":6122,"ĠGuerra":6123,"Ġcuidad":6124,"Ġllevado":6125,"ĠðŁ":6126,"Ġanimal":6127,"ĠtrÃ¡fico":6128,"ĠItalia":6129,"IV":6130,"Ġchico":6131,"Ġileg":6132,"ĠMartÃŃnez":6133,"Ġsup":6134,"Ġartic":6135,"guen":6136,"Ġestablecido":6137,"Ġfacilitar":6138,"Ġchoc":6139,"Ġrobo":6140,"Ġaccion":6141,"-,":6142,"capacidad":6143,"ĠcaÃŃda":6144,"Ġnerv":6145,"IB":6146,"ĠcuÃ¡n":6147,"ĠInformaciÃ³n":6148,"Ġprotagonista":6149,"500":6150,"Ġderiv":6151,"Ġfantas":6152,"ĠTiene":6153,"ĠrecuperaciÃ³n":6154,"Ġprostitutas":6155,"Ġreca":6156,"ĠafirmÃ³":6157,"zca":6158,"Ġvienen":6159,"Ġalquiler":6160,"Ġtasa":6161,"rente":6162,"ĠindicÃ³":6163,"Ġintegral":6164,"ajo":6165,"bios":6166,"Ġdesn":6167,"Ġpremios":6168,"Ġvidas":6169,"ĠbritÃ¡n":6170,"tistas":6171,"Ġpensando":6172,"Ġactitud":6173,"ĠGuar":6174,"olÃ³gicas":6175,"ĠCÃ¡mara":6176,"ĠsabÃŃa":6177,"entro":6178,"Ã±ar":6179,"Ġvisitas":6180,"Ġinicial":6181,"orar":6182,"ĠfrÃŃo":6183,"ĠAN":6184,"ĠWindows":6185,"Per":6186,"Ġviendo":6187,"duras":6188,"oras":6189,"ĠprÃ¡cticamente":6190,"Ġfutbol":6191,"mart":6192,"ĠdecidiÃ³":6193,"ÃŃficas":6194,"Ġdefinitiva":6195,"Ġviajar":6196,"ĠeconÃ³micos":6197,"Ġcuel":6198,"Ġenamor":6199,"Ġreform":6200,"Ġcostos":6201,"Ġteatro":6202,"zon":6203,"igos":6204,"ĠmÃ³viles":6205,"Ġdispuesto":6206,"Ġinspir":6207,"isten":6208,"Ġadecuada":6209,"Ġllena":6210,"uma":6211,"Ġbanco":6212,"Ġesencial":6213,"ĠTar":6214,"ĠJulio":6215,"Ã¡bamos":6216,"Ġimpar":6217,"Ġoficiales":6218,"Â´":6219,"ĠâĤ¬":6220,"Ġnecesarias":6221,"IG":6222,"ĠTur":6223,"Ġasign":6224,"Ġcandidato":6225,"Ġrin":6226,"Ġimplica":6227,"Ġbuscan":6228,"icultura":6229,"ĠHotel":6230,"Ġempieza":6231,"Ġrecuperar":6232,"Ġcruz":6233,"ecreto":6234,"Ġcamp":6235,"bres":6236,"ĠAma":6237,"Ġsufici":6238,"Ġtarif":6239,"afas":6240,"ĠGe":6241,"Ġconsultar":6242,"ĠCÃ¡":6243,"Ġelectoral":6244,"Ġsimilares":6245,"Ġtier":6246,"SS":6247,"ĠMuseo":6248,"ĠOc":6249,"Ġconcur":6250,"Ġurg":6251,"ij":6252,"ĠFlor":6253,"ĠPD":6254,"ĠActu":6255,"aso":6256,"ĠMundo":6257,"ĠrepresentaciÃ³n":6258,"ĠHern":6259,"Ġregalo":6260,"ĠprÃ©st":6261,"ĠPues":6262,"So":6263,"Ġmatrimonio":6264,"Ġpintura":6265,"lada":6266,"ille":6267,"Ġdepende":6268,"Ġindividual":6269,"Ġhago":6270,"Ġapara":6271,"Ġabre":6272,"ĠSanto":6273,"Ġterceros":6274,"itando":6275,".[":6276,"Ġdispone":6277,"Ġaport":6278,"Ġcausas":6279,"CIA":6280,"Ġmanejo":6281,"Par":6282,"Ġinvertir":6283,"ĠReino":6284,"ĠaÃ±adir":6285,"Ġdelan":6286,"Ġestrategias":6287,"ĠfÃ¡cilmente":6288,"osofÃŃa":6289,"tern":6290,"Ġrostro":6291,"Ġhuev":6292,"ficos":6293,"Ġcomprender":6294,"ĠsalÃ³n":6295,"Ġfiestas":6296,"Ġpropiedades":6297,"Ġign":6298,"III":6299,"ĠcÃ©l":6300,"Ġaquello":6301,"Ġsocio":6302,"Ġcompras":6303,"ĠCOM":6304,"Ġesperanza":6305,"Ġmezcl":6306,"tones":6307,"ĠgarantÃŃa":6308,"55":6309,"Ġdejando":6310,"ĠescribiÃ³":6311,"mes":6312,"Ġconfir":6313,"ĠinnovaciÃ³n":6314,"Ġprofesores":6315,"ĠSab":6316,"Ġreales":6317,"Ġregul":6318,"Ġpese":6319,"Ġlide":6320,"cciÃ³n":6321,"Ġcircunstancias":6322,"Ġventaja":6323,"tÃºa":6324,"Ġaconte":6325,".\"":6326,"Ġgenial":6327,"Ġllamar":6328,"ĠlogrÃ³":6329,"Ġadquirir":6330,"ĠParque":6331,"Ġcop":6332,"Ġpleno":6333,"ĠSen":6334,"ĠLatina":6335,"Ġcamis":6336,"ĠBoliv":6337,"andro":6338,"tol":6339,"ĠMen":6340,"Ġorgul":6341,"tudes":6342,"ĠtradiciÃ³n":6343,"Ġves":6344,"ĠniÃ±as":6345,"Ġnecesitas":6346,"ĠFil":6347,"Ġperci":6348,"istencia":6349,"land":6350,"ĠSalv":6351,"Ġrespal":6352,"tesis":6353,"yendo":6354,"Ġsalvo":6355,"Ġcapaces":6356,"ï¿½ï¿½":6357,"Ġjuz":6358,"ĠiP":6359,"Ġtorneo":6360,"ĠCat":6361,"Ġfechas":6362,"Ġcelebrar":6363,"Ġespecies":6364,"Ã³rm":6365,"Ġpecho":6366,"Ġcomienzo":6367,"ĠCÃ³r":6368,"lando":6369,"TR":6370,"ĠsaliÃ³":6371,"Ġexpor":6372,"MP":6373,"tÃŃ":6374,"Ġcomplejo":6375,"Ġdieta":6376,"Ġcreer":6377,"ĠMedio":6378,"ĠcompaÃ±ÃŃas":6379,"Ġacu":6380,"Ġjapon":6381,"Ġflores":6382,"idu":6383,"Ġtono":6384,"Ġbiblio":6385,"Ġfuncional":6386,"Ġincluir":6387,"Ġpuedas":6388,"ĠempezÃ³":6389,"Ġaltos":6390,"Ġdestacar":6391,"Ġ32":6392,"ĠSolo":6393,"Ġacredi":6394,"ricaciÃ³n":6395,"vio":6396,"Ġanalizar":6397,"Ġago":6398,"Ġpuerto":6399,"Ġreto":6400,"Ġordenador":6401,"Ġposee":6402,"Car":6403,"ĠestratÃ©g":6404,"isos":6405,"ami":6406,"Ġpieza":6407,"americano":6408,"ĠteorÃŃa":6409,"Ġmovil":6410,"ĠazÃºcar":6411,"Ġestudiar":6412,"ualidad":6413,"apÃ³n":6414,"95":6415,"DE":6416,"ĠFiscal":6417,"ĠparecÃŃa":6418,"habil":6419,"Ġprobablemente":6420,"ĠSociedad":6421,"Ġpriva":6422,"Ġusa":6423,"ĠlÃŃqu":6424,"ĠAndr":6425,"Ġviento":6426,"eler":6427,"ĠPÃºblica":6428,"Ġtuvieron":6429,"Ġdeterminar":6430,"Ġadicional":6431,"ĠGestiÃ³n":6432,"ĠreducciÃ³n":6433,"ĠLeer":6434,"Ġcorresponde":6435,"Ġestados":6436,"ĠFre":6437,"tologÃŃa":6438,"Ġutilizan":6439,"sted":6440,"dremos":6441,"ĠcÃ¡":6442,"Ġconta":6443,"Ha":6444,"Ġacor":6445,"quÃŃa":6446,"Ġcomput":6447,"Nos":6448,"Ġtextos":6449,"Ġnueve":6450,"ĠMag":6451,"Ġantigua":6452,"ĠPC":6453,"Ġcuch":6454,"Ġdiferencias":6455,"ĠhÃ¡bi":6456,"ĠComercio":6457,"Ġinvierno":6458,"tric":6459,"operaciÃ³n":6460,"Ġconoz":6461,"ĠcuÃ¡l":6462,"Ġsiente":6463,"Ġpresentan":6464,"ham":6465,"mites":6466,"ĠjardÃŃn":6467,"Ġdominio":6468,"ife":6469,"IP":6470,"ondres":6471,"Ġconvertirse":6472,"Ġcircu":6473,"Ġdestaca":6474,"ĠdeclaraciÃ³n":6475,"Ġviven":6476,"Ġculturales":6477,"ĠEstÃ¡":6478,"uir":6479,"maras":6480,"ĠtÃŃtulos":6481,"Ġdemocracia":6482,"ĠÃ¡l":6483,"rarÃ¡":6484,"Ġrestaurantes":6485,"ot":6486,"Ġnuevamente":6487,"Ġexpecta":6488,"orÃ¡n":6489,"ĠGab":6490,"ĠRÃŃo":6491,"turaciÃ³n":6492,"Ġ2000":6493,"ela":6494,"Ã³d":6495,"ota":6496,"Ġtocar":6497,"ĠAndalucÃŃa":6498,"ĠseÃ±ala":6499,"ĠHospital":6500,"ĠenseÃ±anza":6501,"IEN":6502,"ĠFederaciÃ³n":6503,"ridos":6504,"Ġrecientemente":6505,"Ġentradas":6506,"ĠNuevo":6507,"----":6508,"Ġescuelas":6509,"ĠfotografÃŃas":6510,"Ġguer":6511,"Ġadmi":6512,"ĠJul":6513,"ĠjamÃ¡s":6514,"Ġinmedi":6515,"inarias":6516,"Ġhiper":6517,"tral":6518,"Ġmm":6519,"bel":6520,"ĠutilizaciÃ³n":6521,"Ġconqu":6522,"han":6523,"Ġquerido":6524,"Ġimpuestos":6525,"ĠEd":6526,"ĠpermitirÃ¡":6527,"Ġanual":6528,"34":6529,"ĠEntonces":6530,"Ġliteratura":6531,"Ġdecre":6532,"Ġsentencia":6533,"lon":6534,"Ġenga":6535,"Ġllegan":6536,"ĠcorrupciÃ³n":6537,"dimos":6538,"Ġentrenamiento":6539,"frica":6540,"Ġfinalidad":6541,"ĠasociaciÃ³n":6542,"Ġdefender":6543,"Ġrazon":6544,"ters":6545,"Ġcuadro":6546,"Ġescolar":6547,"dy":6548,"Ġdiscurso":6549,"Ġdor":6550,"Ġcomponentes":6551,"Ġpantal":6552,"drÃŃa":6553,"Ġminuto":6554,"Ġtum":6555,"ĠDiv":6556,"Ġbolsa":6557,"ĠDec":6558,"Ġatender":6559,"Todos":6560,"Ġinterac":6561,"ĠcrÃŃtica":6562,"Ġensay":6563,"Ma":6564,"Ġrealizan":6565,"Todo":6566,"Ġseguros":6567,"Ġtantas":6568,"ĠclÃ¡sico":6569,"Ġlum":6570,"Ġpopulares":6571,"Ġfib":6572,"ĠNoticias":6573,"ĠvolviÃ³":6574,"comun":6575,"Ġans":6576,"ĠProtecciÃ³n":6577,"Ġmanual":6578,"dados":6579,"ilaciÃ³n":6580,"Ġsuperar":6581,"Ġjudicial":6582,"Ġincremento":6583,"iller":6584,"ĠLiber":6585,"Ġrealizada":6586,"ĠBur":6587,"Ġlluvia":6588,"dom":6589,"Ġdesarrollado":6590,"Ġciertos":6591,"ĠParÃŃs":6592,"fas":6593,"pp":6594,"mal":6595,"ĠHistoria":6596,"ĠDecreto":6597,"ĠRafa":6598,"DO":6599,"Ġaceptar":6600,"ADO":6601,"Ġcerv":6602,"menta":6603,"ristas":6604,"ĠPlata":6605,"ĠCÃ³":6606,"ĠdiÃ¡logo":6607,"ĠDoc":6608,"Ġrent":6609,"Ġgr":6610,"Ġpeligros":6611,"dental":6612,"Ã¡nico":6613,"Ġnacimiento":6614,"Ġaparecen":6615,"Ġconforme":6616,"!!!!":6617,"migo":6618,"Ġesperando":6619,"ionar":6620,"ev":6621,"ĠMur":6622,"ĠPaz":6623,"Ġdur":6624,"Ġactivos":6625,"Ġargentino":6626,"Ġdecidido":6627,"Ġactores":6628,"Ġreglas":6629,"Ġaj":6630,"ĠAust":6631,"ĠalegrÃŃa":6632,"icen":6633,"Ġadv":6634,"ĠdecoraciÃ³n":6635,"Ġrecurso":6636,"ĠautÃ³n":6637,"ant":6638,"undar":6639,"Ġcoste":6640,"izon":6641,"Ġacero":6642,"ĠFestival":6643,"Ġpide":6644,"DA":6645,"ĠTea":6646,"xil":6647,"Ġactor":6648,"Ġresal":6649,"ieren":6650,"Ġcurios":6651,"arago":6652,"Ġperiodista":6653,"inter":6654,"letas":6655,"Ġ34":6656,"Ġgig":6657,"Ġmoto":6658,"Ġapos":6659,"Ġchil":6660,"Ġescala":6661,"Ġsof":6662,"Ġtribu":6663,"sar":6664,"Ġhorm":6665,"Ã¡ndole":6666,"ĠNew":6667,"Ġcampos":6668,"Ġalternativa":6669,"partam":6670,"jera":6671,"Ġdescuento":6672,"unda":6673,"ĠsÃ³l":6674,"Ġpartida":6675,"Ġsorpresa":6676,"tÃº":6677,"Ġvisitantes":6678,"ĠJer":6679,"Ġprevia":6680,"Ġventajas":6681,"Ġdispu":6682,"Ġvigil":6683,"Esto":6684,"Ġcorrer":6685,"ĠAP":6686,"Ġbienestar":6687,"ego":6688,"tres":6689,"laciones":6690,"Ġevidente":6691,"Ġdoctor":6692,"39":6693,"Ġrespuestas":6694,"raron":6695,"Ġviviendas":6696,"Ġactuar":6697,"Ġconseguido":6698,"Ġzapatos":6699,"ĠvÃ¡l":6700,"Ġhice":6701,"Ġcuestiones":6702,"Ġrelacionadas":6703,"ĠAR":6704,"Ġquiera":6705,"Ġperros":6706,"ĠdÃ©cadas":6707,"Ġproto":6708,"75":6709,"Ġhorario":6710,"Ġpersonalidad":6711,"ĠValle":6712,"laga":6713,"Ãł":6714,"Ġnegoci":6715,"enaje":6716,"Ġdelito":6717,"ubl":6718,"ĠPolÃŃtica":6719,"Ġdije":6720,"Ġseguimiento":6721,"Ġmercan":6722,"ĠsÃŃntomas":6723,"ĠPremio":6724,"Ġaler":6725,"ĠAndroid":6726,"ventud":6727,"cindi":6728,"Ġhel":6729,"Ġparticulares":6730,"ĠpreparaciÃ³n":6731,"Ġcorriente":6732,"wa":6733,"Ġsilencio":6734,"Ġpudiera":6735,"ĠCÃ³rdoba":6736,"Ġcelebra":6737,"Ġconviv":6738,"ster":6739,"Ġtalleres":6740,"ĠmÃ©todos":6741,"ÃįA":6742,"Ġvulner":6743,"Ġprevisto":6744,"Ġbatalla":6745,"Ġefectivo":6746,"Ġfrase":6747,"enten":6748,"Ġmover":6749,"Ġdeclaraciones":6750,"ĠlÃŃderes":6751,"terrÃ¡n":6752,"gor":6753,"ambre":6754,"Ġemi":6755,"Ġusando":6756,"cra":6757,"Ġfrases":6758,"ĠDerechos":6759,"Ġrecord":6760,"Ġepiso":6761,"Ġcantante":6762,"idaciÃ³n":6763,"Ġama":6764,"Ġpromover":6765,"ĠFacultad":6766,"ĠGol":6767,"Ġdirigido":6768,"Ġaleg":6769,"izados":6770,"ĠcombinaciÃ³n":6771,"GO":6772,"yen":6773,"ĠLondres":6774,"Ġintento":6775,"Ġgir":6776,"zando":6777,"Ġofrecemos":6778,"Ġsho":6779,"Ġrato":6780,"ĠSÃ³lo":6781,"ĠUno":6782,"Ã³nico":6783,"âĢ¦.":6784,"Ġplano":6785,"ĠAM":6786,"Ġcuestion":6787,"derÃŃa":6788,"Ġhoteles":6789,"Ġanuncios":6790,"ĠEspaÃ±ola":6791,"Ġhumanidad":6792,"ezca":6793,"Ġbajar":6794,"Pues":6795,"Ġuniversidad":6796,"?.":6797,"ames":6798,"Ġperspectiva":6799,"ĠIng":6800,"alizadas":6801,"Ġvestido":6802,"Ġcotidi":6803,"Ġalm":6804,"Ġexplicar":6805,"Ġtradicionales":6806,"Ġgira":6807,"Ġparecen":6808,"ificados":6809,"Ġestancia":6810,"ĠEra":6811,"Ġacabar":6812,"ĠVil":6813,"Ġdiagn":6814,"ux":6815,"aste":6816,"Ġrap":6817,"Ġcontribuy":6818,"ald":6819,"ĠcÃ¡r":6820,"Ġrefug":6821,"iada":6822,"Ġincluido":6823,"Ġhumor":6824,"cidas":6825,"Ġtelef":6826,"Ġorganizado":6827,"ĠdarÃ¡":6828,"Ġdesign":6829,"Ġpropon":6830,"epres":6831,"Ġsocios":6832,"Ġcerebro":6833,"Ã¡les":6834,"ĠcatÃ¡":6835,"Ġ2005":6836,"Ġinteligencia":6837,"Ġsosp":6838,"Ġacercar":6839,"Ġinfluencia":6840,"Ġinteresantes":6841,"Ġdefec":6842,"Ġcuesta":6843,"Ġ150":6844,"ĠJuegos":6845,"Ġindis":6846,"Ð¾":6847,"Ġsuger":6848,"ĠInst":6849,"Ġpenal":6850,"ĠJe":6851,"ox":6852,"Ã³mico":6853,"ĠNavidad":6854,"ĠIb":6855,"Ġfracas":6856,"ezas":6857,"usos":6858,"Ġacondi":6859,"Â®":6860,"iciones":6861,"Ġlanzamiento":6862,"Ġesfuerzos":6863,"Ġforman":6864,"Ġregional":6865,"Ġescritor":6866,"Ġaso":6867,"Ġrepu":6868,"ĠSegun":6869,"Ġtrituradora":6870,"Ġdificultades":6871,"Ġmeter":6872,"Ġcolegio":6873,"ĠprevenciÃ³n":6874,"Ġingreso":6875,"Ġedificios":6876,"Ġcolum":6877,"Ġatre":6878,"ortun":6879,"art":6880,"ĠimpresiÃ³n":6881,"ĠSÃŃ":6882,"Ġtrayec":6883,"ĠCastilla":6884,"atamente":6885,"ĠEncuent":6886,"Ġopiniones":6887,"Ġlogra":6888,"ĠDaniel":6889,"ĠAlej":6890,"ijo":6891,"Co":6892,"pul":6893,"ĠcompaÃ±ero":6894,"Ġestablecimiento":6895,"ĠLatino":6896,"ĠbotÃ³n":6897,"Ã³mica":6898,"ĠInform":6899,"Ġeficaz":6900,"Ġconsiderar":6901,"ĠHasta":6902,"aman":6903,"Ġdescanso":6904,"Ġvay":6905,"ĠDig":6906,"ferencias":6907,"enciales":6908,"ĠEr":6909,"Ġcober":6910,"Ġaltas":6911,"ĠCataluÃ±a":6912,"Ġiniciar":6913,"Ġlogrado":6914,"ua":6915,"osas":6916,"dicas":6917,"Ġtec":6918,"Ġciertas":6919,"Ġprivi":6920,"48":6921,"ĠOrden":6922,"Ġdemocr":6923,"uaciÃ³n":6924,"ĠEnrique":6925,"ianza":6926,"Ġ48":6927,"38":6928,"inando":6929,"Ġcuento":6930,"Ġcari":6931,"ĠConsul":6932,"Ġmalo":6933,"asti":6934,"ĠPubl":6935,"Ġcerrar":6936,"Ġdesac":6937,"Ġganado":6938,"Ġcruc":6939,"Ġpreparar":6940,"ĠnaciÃ³":6941,"Ġarre":6942,"Ġcrecer":6943,"Ġpolici":6944,"Ã©ut":6945,"ĠCO":6946,"ĠMos":6947,"Ġparticipa":6948,"ington":6949,"ey":6950,"Ġaver":6951,"Ġseleccion":6952,"lÃ³":6953,"Ġcorrespondientes":6954,"derÃ¡":6955,"Ġmuestran":6956,"Ġgastron":6957,"demia":6958,"Ġconcierto":6959,"ock":6960,"adal":6961,"aragoza":6962,"Ġconvocatoria":6963,"Ġsole":6964,"Ġcorrecta":6965,"Ġvosotros":6966,"Ġfren":6967,"Ġdiscu":6968,"Ġplena":6969,"Ġcorrecto":6970,"Ġamiga":6971,"Ġprobable":6972,"Ġhin":6973,"iversario":6974,"Ġaeropuerto":6975,"Ġblanca":6976,"aque":6977,"gues":6978,"ĠMes":6979,"Ġprestig":6980,"Ġsobreviv":6981,"Ġingredientes":6982,"Ġcomprobar":6983,"Ġretro":6984,"ĠestarÃ¡n":6985,"ĠUsu":6986,"Ġpade":6987,"Ġpoca":6988,"Ġconceptos":6989,"Ġposteriormente":6990,"itÃ³":6991,"ĠÃ¡lbum":6992,"crito":6993,"Ġ195":6994,"____":6995,"Ġproporciona":6996,"Ġdesplaz":6997,"ĠIsrael":6998,"Ġdeba":6999,"Ġafecta":7000,"ariamente":7001,"ĠRadio":7002,"Ġaventura":7003,"Ġestatal":7004,"Ġbro":7005,"Ġfactor":7006,"ICO":7007,"SOE":7008,"Ġbr":7009,"Ġpene":7010,"Ġ38":7011,"Ġejercicios":7012,"ĠSuperior":7013,"ibe":7014,"Ġhermana":7015,"Ġaparecer":7016,"ÃŃna":7017,"CH":7018,"ĠmontaÃ±a":7019,"Ġcolectivo":7020,"Ġagencia":7021,"ĠEcu":7022,"orio":7023,"Ġcombust":7024,"ficas":7025,"ĠArm":7026,"Ġmuertos":7027,"Ġgrad":7028,"Ġsentimientos":7029,"ĠcomisiÃ³n":7030,"ĠMed":7031,"Ġmanip":7032,"Ġdenuncia":7033,"Ġaprovechar":7034,"Ġviejo":7035,"Ġdosis":7036,"iosos":7037,"Ġidioma":7038,"Ġfl":7039,"cada":7040,"ĠAsamblea":7041,"Ġestrech":7042,"ĠlÃŃmites":7043,"ĠDos":7044,"ĠpasiÃ³n":7045,"ĠIII":7046,"ood":7047,"ĠAca":7048,"Ġactivo":7049,"Ġcoches":7050,"ĠComitÃ©":7051,"ique":7052,"Ġempresarial":7053,"Ġmaestro":7054,"pla":7055,"Ġtuve":7056,"ĠDirector":7057,"Ġguitar":7058,"Ġacostumb":7059,"ajaj":7060,"ĠelaboraciÃ³n":7061,"Ġimpac":7062,"Ġarena":7063,"Ġestrella":7064,"Ġdifun":7065,"Ġcorta":7066,"Ġvotos":7067,"cambio":7068,"Ġcorpor":7069,"Ġfinanciera":7070,"Ġinmediato":7071,"ĠrealizarÃ¡":7072,"Ġpatrimonio":7073,"Ġpositivo":7074,"ĠGas":7075,"Ġinvestigadores":7076,"Ġlabora":7077,"ĠdestacÃ³":7078,"Ġmuebles":7079,"Ġimpul":7080,"ĠMis":7081,"Son":7082,"rg":7083,"Ġmirar":7084,"ĠvÃŃctima":7085,"tornos":7086,"Ġid":7087,"Ġic":7088,"Ac":7089,"Ġencontraba":7090,"teral":7091,"ĠNÂº":7092,"drÃ¡n":7093,"edi":7094,"Ġmetal":7095,"ike":7096,"ĠEjecutivo":7097,"Ġcancel":7098,"hibi":7099,"Ġfij":7100,"ĠApple":7101,"Ġcientos":7102,"ser":7103,"Ġactiva":7104,"ĠPaÃŃs":7105,"Ġnoches":7106,"Ġporcentaje":7107,"icha":7108,"37":7109,"Ġbonito":7110,"ĠSalvador":7111,"ĠDiego":7112,"Ġnormativa":7113,"quie":7114,"Ġentreten":7115,"PE":7116,"Ġhabil":7117,"Ġenfoc":7118,"Ġmunicipios":7119,"Ġlegales":7120,"Ġlicencia":7121,"ĠMir":7122,"Ġbes":7123,"ĠVis":7124,"Ġdemostrar":7125,"Ġdiciendo":7126,"ĠcapÃŃtulo":7127,"ĠMuy":7128,"bur":7129,"ĠJapÃ³n":7130,"Ġdormir":7131,"wer":7132,"ensiones":7133,"ĠeconÃ³micas":7134,"ĠespectÃ¡culo":7135,"Ġparcial":7136,"Ġpot":7137,"opera":7138,"ĠAutÃ³n":7139,"Ġaccesorios":7140,"Ġgobiernos":7141,"Ġobservar":7142,"Ġcuello":7143,"Ã©ro":7144,"ĠLic":7145,"ĠViv":7146,"sin":7147,"ĠLor":7148,"Ġtriunfo":7149,"Ġtrato":7150,"ight":7151,"quito":7152,"Ġidentificar":7153,"ĠMov":7154,"Ġmilitares":7155,"Ġcubrir":7156,"Ġdios":7157,"ĠPopular":7158,"Ġmetodo":7159,"ĠintegraciÃ³n":7160,"Ġespalda":7161,"Ġapa":7162,"Ġdedicado":7163,"cienda":7164,"Ġseguramente":7165,"Ġcercano":7166,"ĠApren":7167,"Ġhojas":7168,"ĠconvirtiÃ³":7169,"its":7170,"inten":7171,"ĠUnidad":7172,"Ġportal":7173,"Ġelegido":7174,"abel":7175,"get":7176,"Ġespectacular":7177,"hone":7178,"ney":7179,"ĠquizÃ¡":7180,"Ġcable":7181,"ĠcontinÃºa":7182,"ĠAndrÃ©s":7183,"SE":7184,"Ġdiri":7185,"Ġje":7186,"ĠcientÃŃficos":7187,"Ġanuncio":7188,"Ġinfin":7189,"Ġhubi":7190,"ld":7191,"medi":7192,"Ġmapa":7193,"Ġoficinas":7194,"ĠsueÃ±os":7195,"Ð°":7196,"Ġsucede":7197,"Ġgustan":7198,"cita":7199,"Ġmoral":7200,"Ġtermina":7201,"Ġnovia":7202,"genda":7203,"Ġprocedimientos":7204,"Ġambiental":7205,"Ġlibres":7206,"Ġpanor":7207,"Ġurban":7208,"ĠAlberto":7209,"isp":7210,"Ġcompati":7211,"ĠIl":7212,"Ġmoderno":7213,"ĠCE":7214,"Ġletras":7215,"Ġelegante":7216,"berg":7217,"Ġabsor":7218,"Ġtierras":7219,"sion":7220,"lÃŃn":7221,"Ġfamoso":7222,"Ġanteriormente":7223,"Ġhomenaje":7224,"Ġvoto":7225,"Ġperu":7226,"Ġboda":7227,"Ġrelaj":7228,"Ġcriterios":7229,"Ġigualdad":7230,"Ġpista":7231,"Â©":7232,"Ġmac":7233,"Ġinmig":7234,"Ġvuelo":7235,"Ġmetro":7236,"ĠfabricaciÃ³n":7237,"ĠcategorÃŃas":7238,"ĠlÃŃmite":7239,"Ġapartamento":7240,"ĠcÃ©lulas":7241,"...]":7242,"Ġ33":7243,"Ġclaramente":7244,"Ġasesina":7245,"Ġgor":7246,"ĠfantÃ¡":7247,"Ġmuerto":7248,"Ġsujeto":7249,"Ġparecido":7250,"Ġuniverso":7251,"Ã¡ticamente":7252,"Ġdecidir":7253,"mobil":7254,"terra":7255,"ĠSiempre":7256,"Ġllegaron":7257,"Ġpunta":7258,"ure":7259,"ĠTurismo":7260,"ĠÃģl":7261,"Ġbasado":7262,"Ġorganiza":7263,"iforn":7264,"domin":7265,"Ġpasaj":7266,"posiciones":7267,"ĠCÃ³digo":7268,"yn":7269,"ĠXV":7270,"IX":7271,"abilidades":7272,"ĠLoc":7273,"Ġespecialistas":7274,"Ġelig":7275,"presiÃ³n":7276,"ĠLuc":7277,"Ġ400":7278,"Ġimplan":7279,"FE":7280,"Ġcapit":7281,"Ġprevio":7282,"alizÃ³":7283,"ongitud":7284,"Ġamistad":7285,"ĠprisiÃ³n":7286,"idel":7287,"Ġcifra":7288,"ĠAgr":7289,"Ġgasto":7290,"cura":7291,"Ġvigente":7292,"Ġtanta":7293,"rimir":7294,"Ġcarreras":7295,"Ġimprescindi":7296,"Ġbancos":7297,"Ġplatos":7298,"Ġeficiencia":7299,"Ġocupa":7300,"Ġalcohol":7301,"Ġmental":7302,"Ġlatino":7303,"Ġconmigo":7304,"Ġoriginales":7305,"Ġtelevis":7306,"Ġbrazos":7307,"ĠdiseÃ±os":7308,"cientes":7309,"Ġexitos":7310,"Ġemociones":7311,"Ġmexicano":7312,"Ġsexuales":7313,"Ġconsta":7314,"ĠTeatro":7315,"ĠvÃŃdeos":7316,"ĠÃļ":7317,"Ġsimul":7318,"Ã©ticos":7319,"Ġpasan":7320,"DI":7321,"ish":7322,"47":7323,"Ġdichos":7324,"ĠreparaciÃ³n":7325,"ĠPARA":7326,"ĠNuestra":7327,"Ġ;":7328,"Ġsecreto":7329,"Ġrique":7330,"Ġsopor":7331,"Ġrob":7332,"Ġconces":7333,"ĠColegio":7334,"ragÃ³n":7335,"Ġesque":7336,"ganos":7337,"Ġprotec":7338,"ĠdocumentaciÃ³n":7339,"Ġnovedades":7340,"Ġexactamente":7341,"ĠFamil":7342,"ĠobligaciÃ³n":7343,"Ġencab":7344,"Ġinstrumentos":7345,"ĠfÃ¡b":7346,"Ġconsiderado":7347,"UM":7348,"ĠComp":7349,"Ġcartas":7350,"elos":7351,"100":7352,"Ġserio":7353,"stos":7354,"ĠYou":7355,"Ġestudiante":7356,"ĠUnido":7357,"ĠelÃ©ctrica":7358,"dri":7359,"culares":7360,"Ġacord":7361,"ĠganÃ³":7362,"Ġseguidores":7363,"fal":7364,"Ġapropi":7365,"Ġtratamientos":7366,"Ġmedicamentos":7367,"ĠSobre":7368,"Ġarras":7369,"ĠsÃŃmb":7370,"Ġausencia":7371,"anes":7372,"erio":7373,"Ġlector":7374,"ĠUruguay":7375,"ĠSch":7376,"Ġversiones":7377,"Ġexces":7378,"Ġpronunci":7379,"ĠHon":7380,"ĠCreo":7381,"Ġadolescentes":7382,"Ġpared":7383,"Ġrepresentante":7384,"desa":7385,"Ġculpa":7386,"Ġcabe":7387,"Ġojo":7388,"Ġfundamentales":7389,"Ġpatr":7390,"Ġplazas":7391,"Ġdibujos":7392,"Ġinfraestructura":7393,"ĠLeg":7394,"ĠprogramaciÃ³n":7395,"ĠAra":7396,"Ġaliment":7397,"Ġformulario":7398,"Ġbicicle":7399,"viendo":7400,"Ġsonrisa":7401,"Ġtabla":7402,"ĠdiseÃ±ado":7403,"ĠconfiguraciÃ³n":7404,"ĠBro":7405,"Ġinversiones":7406,"ucle":7407,"Ġoperativo":7408,"Ġpermita":7409,"Ġsignificado":7410,"Ġaceler":7411,"Ġactuaciones":7412,"Ġpeda":7413,"Ġbras":7414,"Ġadquis":7415,"rÃ©s":7416,"05":7417,"formas":7418,"Ġmascul":7419,"pÃ³":7420,"ĠbaterÃŃa":7421,"ĠClar":7422,"Ġgratuito":7423,"Ġtestimon":7424,"San":7425,"Ġgeneralmente":7426,"SA":7427,"riel":7428,"Ġincendi":7429,"venciones":7430,"Ġ2019":7431,"Ġfelicidad":7432,"Ġparejas":7433,"ĠEconomÃŃa":7434,"Ġgrasa":7435,"ĠCD":7436,"ĠArte":7437,"ĠinterpretaciÃ³n":7438,"Ġventana":7439,"ĠVie":7440,"Ġequilibrio":7441,"ĠapariciÃ³n":7442,"Ġpobreza":7443,"terial":7444,"ĠPin":7445,"ĠOrganizaciÃ³n":7446,"Ġtrim":7447,"ĠTi":7448,"Ġrefor":7449,"ĠpidiÃ³":7450,"emor":7451,"Ġseguido":7452,"Ġaplica":7453,"tara":7454,"ĠNov":7455,"unciÃ³n":7456,"Ġcanales":7457,"Ġingles":7458,"ĠindÃŃgen":7459,"Ġconferencia":7460,"ĠrevisiÃ³n":7461,"Ġcompetencias":7462,"Ġlla":7463,"ĠfenÃ³meno":7464,"Ġconsumidores":7465,"inadas":7466,"ĠHumanos":7467,"Ġmerece":7468,"Ġgobernador":7469,"Ġplato":7470,"Ġdulce":7471,"Ġinteresa":7472,"Ġinvestigaciones":7473,"Ġafirm":7474,"ĠAir":7475,"ĠTrabaj":7476,"Ġejemplos":7477,"Ġequival":7478,"iesta":7479,"Ġfelici":7480,"tid":7481,"Ġpreparado":7482,"arlas":7483,"Mo":7484,"ĠArtes":7485,"Ġfrac":7486,"Ġcelular":7487,"urÃŃa":7488,"ĠAlcal":7489,"Ġ2004":7490,"zadas":7491,"ĠFal":7492,"Ġinmediatamente":7493,"Ġcargos":7494,"ĠleÃŃdo":7495,"ĠRic":7496,"Mientras":7497,"bus":7498,"rom":7499,"ĠPSOE":7500,"ĠtransformaciÃ³n":7501,"Ġafi":7502,"ray":7503,"Ġtrabajan":7504,"imnas":7505,"Ġavance":7506,"imp":7507,"Ġvenir":7508,"cedentes":7509,"ĠPuedes":7510,"ionado":7511,"ĠpublicÃ³":7512,"ĠAsimismo":7513,"amÃ¡":7514,"Ġresuel":7515,"Ġdejan":7516,"ĠTex":7517,"Ġgraves":7518,"Ġhagan":7519,"ĠPDF":7520,"Ġintegrantes":7521,"ith":7522,"undo":7523,"Ġalojamiento":7524,"ĠVide":7525,"ics":7526,"Ðµ":7527,"Ġreemp":7528,"199":7529,"ĠMel":7530,"isco":7531,"ĠMc":7532,"Ġtrayectoria":7533,"Ġllamadas":7534,"Ġrecre":7535,"Ġjoy":7536,"Ã³mez":7537,"Ġsolar":7538,"camiento":7539,"Ġninguno":7540,"Ã¡ndolo":7541,"ĠcÃ³modo":7542,"terna":7543,"46":7544,"ĠCir":7545,"ĠclasificaciÃ³n":7546,"Ġpodremos":7547,"Ġnumerosos":7548,"Ġline":7549,"Ġperf":7550,"Ġenfoque":7551,"dras":7552,"rana":7553,"Ġmet":7554,"ĠMÃ¡laga":7555,"Ġ75":7556,"Ġemocional":7557,"Ġtengas":7558,"Ġcontigo":7559,"Man":7560,"Ġcontratos":7561,"ogrÃ¡":7562,"Ġcorpora":7563,"iten":7564,"Ġcifras":7565,"ĠTel":7566,"32":7567,"ĠdefiniciÃ³n":7568,"ĠFab":7569,"Ġdesayuno":7570,"Ġfui":7571,"apia":7572,"Ġafil":7573,"ĠRafael":7574,"ĠplÃ¡stico":7575,"ĠbÃ¡sicos":7576,"Ġpolvo":7577,"Cada":7578,"Ġvib":7579,"The":7580,"zados":7581,"asas":7582,"Ġinstalar":7583,"Ġcolon":7584,"Ġvuelto":7585,"Ã©spe":7586,"Ġeconom":7587,"ĠJef":7588,"Ġtendencias":7589,"Ġcandidatos":7590,"Ġdirigida":7591,"ĠBos":7592,"ĠcontemporÃ¡n":7593,"ĠEspecial":7594,"Ġvirtual":7595,"Ġregiones":7596,"Ġtalento":7597,"Ġquerer":7598,"Ã±ez":7599,"Ġarquitectura":7600,"rÃ©":7601,"ende":7602,"ĠDÃŃaz":7603,"ĠagregÃ³":7604,"Ġubicada":7605,"ĠsÃº":7606,"Ġapuesta":7607,"31":7608,"Ġdefinir":7609,"Ġseg":7610,"ĠpÃ¡r":7611,"Ġempresarios":7612,"Pres":7613,"Ġquede":7614,"78":7615,"Ġhorizon":7616,"inales":7617,"ACIÃĵN":7618,"tencia":7619,"Ġtarjetas":7620,"xi":7621,"tn":7622,"Ã§":7623,"ĠacompaÃ±ado":7624,"Ġbols":7625,"ĠfÃ³rm":7626,"ĠTorre":7627,"CIONES":7628,"cula":7629,"ĨĴ":7630,"ĀĀĀĀĀĀĀĀĀĀĀĀĀĀĀĀĀĀĀĀĀĀĀĀĀĀĀĀĀĀĀĀ":7631,"ÃŃmp":7632,"tedr":7633,"Ġsufrir":7634,"Ġfirme":7635,"ĠocurriÃ³":7636,"Ġeducativo":7637,"izaciones":7638,"ĠInte":7639,"ĠterminÃ³":7640,"Ġsober":7641,"uz":7642,"ĠConse":7643,"Ã³logos":7644,"gano":7645,"Ġponen":7646,"Ġlaborales":7647,"Ġreuniones":7648,"Ġembarazo":7649,"Ġpropone":7650,"rosoft":7651,"Ġpreguntar":7652,"ĠSupre":7653,"ĠCampe":7654,"ĠElla":7655,"Ġintelectual":7656,"ĠconcentraciÃ³n":7657,"Ġterraza":7658,"by":7659,"Ġpus":7660,"itarias":7661,"taje":7662,"Ġdesarrolla":7663,"ĠmÃ¡g":7664,"Ġnegra":7665,"Ġpuntu":7666,"Ġllegue":7667,"2017":7668,"ĠtransmisiÃ³n":7669,"sic":7670,"ĠaÃ©":7671,"Ġexpectativas":7672,"Ġlav":7673,"Ġcopia":7674,"ĠFa":7675,"Tra":7676,"ĠAlex":7677,"Ġafron":7678,"Ġacuerdos":7679,"iner":7680,"ĠhistÃ³rica":7681,"ĠDiseÃ±o":7682,"ĠRub":7683,"Ġalternativas":7684,"Ġcontinua":7685,"Ġhermosa":7686,"umbre":7687,"Ġcuerpos":7688,"lÃ³n":7689,"Ġgustado":7690,"Ġcobertura":7691,"Ġconsist":7692,"Ġincu":7693,"Ġhomb":7694,"Ġproporcionar":7695,"ĠAtl":7696,"ĠLes":7697,"ĠRoma":7698,"OC":7699,"ĠSim":7700,"Ġdocentes":7701,"He":7702,"merÃŃa":7703,"44":7704,"Ġprepara":7705,"Ġcristal":7706,"Ġprofundo":7707,"Ġocci":7708,"ĠLima":7709,"entimiento":7710,"Ġadver":7711,"Ġataques":7712,"lia":7713,"ĠinscripciÃ³n":7714,"ALES":7715,"ĠJim":7716,"Ġmoles":7717,"Ġprofundidad":7718,"ĠPÃºblico":7719,"Ġvirus":7720,"Ġemergencia":7721,"Ġirre":7722,"ind":7723,"ĠInvestigaciÃ³n":7724,"Ġnotas":7725,"Ġtoca":7726,"Ġlegisla":7727,"Ġjugue":7728,"Ġfues":7729,"entaria":7730,"Ġmunicipales":7731,"Ġactriz":7732,"Ġrecop":7733,"olut":7734,"ĠtendrÃŃa":7735,"dador":7736,"Ġreti":7737,"Estos":7738,"Ã¨":7739,"ĠcÃ¡rcel":7740,"arro":7741,"gando":7742,"Ġinquie":7743,"ĠSeb":7744,"Ġsesiones":7745,"Ġenfrentar":7746,"Ġseria":7747,"Ġfisc":7748,"ertos":7749,"voz":7750,"Ġconocidos":7751,"Ġrival":7752,"ĠactualizaciÃ³n":7753,"ĠlegislaciÃ³n":7754,"Ġgoles":7755,"ĠHace":7756,"Ġ37":7757,"Ġconsigue":7758,"Ġsug":7759,"Ġaportar":7760,"ĠEnerg":7761,"Ġdra":7762,"Ġproveedores":7763,"Ġrecomienda":7764,"ans":7765,"Ġaca":7766,"fos":7767,"Fin":7768,"Ġintercambio":7769,"Ġ55":7770,"tz":7771,"ĠÃģlvar":7772,"ny":7773,"Ġquitar":7774,"ĠalemÃ¡n":7775,"ĠZaragoza":7776,"ĠEdu":7777,"Ġrein":7778,"Ġpac":7779,"Ġpiensa":7780,"Ġjud":7781,"Ġ2003":7782,"Ã³st":7783,"ĠdebÃŃa":7784,"torÃŃa":7785,"Ġsing":7786,"Ġtol":7787,"ĠArch":7788,"ĠvÃŃas":7789,"Ġcomplicado":7790,"ĠmontÃ³n":7791,"Ġplas":7792,"Ġgarantiz":7793,"ĠPadre":7794,"Hab":7795,"Ġguardar":7796,"endario":7797,"Ã³lica":7798,"Ġconstituye":7799,"hÃŃ":7800,"aÃ±os":7801,"Ġ?":7802,"ĠBor":7803,"Ġdeterminado":7804,"ĠMonte":7805,"Ġretras":7806,"Ġlectores":7807,"Ġfiguras":7808,"Ġservidor":7809,"Ġdivis":7810,"Ġfinanciero":7811,"olutamente":7812,"mÃ¡tica":7813,"ĠllevarÃ¡":7814,"Asimismo":7815,"Ġbasada":7816,"ĠextensiÃ³n":7817,"Ġdaba":7818,"erra":7819,"ĠcontÃ³":7820,"Ġconm":7821,"Ġsiglos":7822,"Ġaniversario":7823,"ĠMuchas":7824,"Ġposiciones":7825,"Ġprotagonistas":7826,"Ġmando":7827,"Ġapoyar":7828,"ĠciudadanÃŃa":7829,"ĠcÃ¡maras":7830,"Ġindependencia":7831,"Ġpuente":7832,"icano":7833,"06":7834,"Ġescu":7835,"Ġsacri":7836,"ficamente":7837,"08":7838,"Ġcrema":7839,"ĠVi":7840,"Ġdijeron":7841,"Ġextranjero":7842,"Ġdiferenci":7843,"ĠAlgunos":7844,"Ġpaseo":7845,"ĠrevoluciÃ³n":7846,"ulada":7847,"ĠsatisfacciÃ³n":7848,"Ġunif":7849,"ĠcomparaciÃ³n":7850,"iario":7851,"Ġorganismos":7852,"Ġgris":7853,"sto":7854,"icana":7855,"Ġpiernas":7856,"Ġgrados":7857,"Ã³rico":7858,"Ġtomando":7859,"ĠPel":7860,"ĠAcu":7861,"Ġmarido":7862,"Ġdigitales":7863,"Ġsiguiendo":7864,"ĠGÃ³mez":7865,"'.":7866,"ĠAgencia":7867,"Ġdipl":7868,"ement":7869,"ÃŃcula":7870,"Ġvege":7871,"fru":7872,"iduos":7873,"Ġabund":7874,"ume":7875,"Ġaconse":7876,"Ġcolocar":7877,"Ġrecomiendo":7878,"Ġreconocido":7879,"Ġnormalmente":7880,"Ġsacerdo":7881,"Ġchocola":7882,"Ġrico":7883,"Ġamenaza":7884,"Ġamp":7885,"ĠtomÃ³":7886,"Ġdesh":7887,"Ġreper":7888,"ifornia":7889,"Ġabogado":7890,"jÃ³":7891,"ĠEcuador":7892,"bit":7893,"Ġreconoce":7894,"vie":7895,"ĠGranada":7896,"Ġcomedor":7897,"ĠWill":7898,"Ġespiri":7899,"ĠSU":7900,"09":7901,"Ġinvitados":7902,"Ġletra":7903,"07":7904,"Ġinformes":7905,"Ġpublici":7906,"Ġdelitos":7907,"Ġtejido":7908,"Ġmodificar":7909,"ĠMario":7910,"Ġcomodidad":7911,"ĠCarmen":7912,"ĠMejor":7913,"Ġolvidar":7914,"ugÃŃa":7915,"Ġrock":7916,"Ġcambiado":7917,"Ġtranspor":7918,"Ġinterno":7919,"ĠHernÃ¡ndez":7920,"âĢĻ.":7921,"ĠdiagnÃ³stico":7922,"Ġtiro":7923,"Ġvitam":7924,"ĠIns":7925,"ieres":7926,"igual":7927,"Ġtap":7928,"ĠpodÃ©is":7929,"tible":7930,"Gu":7931,"ĠtensiÃ³n":7932,"vez":7933,"ĠPrimera":7934,"ĠMol":7935,"Ġrelacionado":7936,"Luego":7937,"ĠfilosofÃŃa":7938,"Ġartifici":7939,"ĠFar":7940,"vela":7941,"ĠAlejandro":7942,"ĠRiv":7943,"Ġarma":7944,"Ġenlaces":7945,"Ġmargen":7946,"Ġentrenador":7947,"iosas":7948,"ĠBr":7949,"ĠAS":7950,"Ġmorir":7951,"Ġinteligente":7952,"Ġcitas":7953,"Ġformado":7954,"ĠâĨĴ":7955,"cÃ¡n":7956,"gna":7957,"Ġtraer":7958,"Ġemail":7959,"Ġextremo":7960,"Ġfestival":7961,"utas":7962,"Ġox":7963,"gotÃ¡":7964,"rilla":7965,"rillo":7966,"Ġmoderna":7967,"Ġimpuesto":7968,"orld":7969,"ss":7970,"Ġaumenta":7971,"grÃ¡fica":7972,"ĠAnti":7973,"laterra":7974,"Ġaparte":7975,"Ġlad":7976,"Ġrealizando":7977,"Ġbrindar":7978,"Ġvisual":7979,"aller":7980,"Ġrodil":7981,"ĠexpresÃ³":7982,"amas":7983,"lle":7984,"Ġrespectivamente":7985,"Ġaspir":7986,"TOR":7987,"49":7988,"terÃŃas":7989,"vido":7990,"Ġrestos":7991,"paÃ±as":7992,"ĠNaciÃ³n":7993,"Ġcritic":7994,"mej":7995,"mica":7996,"Ġperiodistas":7997,"Ġcastel":7998,"Ġrealizadas":7999,"ĠvÃŃn":8000,"Ġcombina":8001,"hua":8002,"Ġcambia":8003,"cieron":8004,"ĠmenÃº":8005,"Ġdeportivo":8006,"ĠÃ¡rboles":8007,"Ġatribu":8008,"ĠnaciÃ³n":8009,"ĠMujeres":8010,"ĠIP":8011,"ĠPresiden":8012,"ĠNicol":8013,"Ġinjust":8014,"Ġregreso":8015,"Algun":8016,"Ġlongitud":8017,"ĠContra":8018,"aras":8019,"@@@@":8020,"Ġconductor":8021,"endido":8022,"Ġmaneras":8023,"Ġseries":8024,"quilidad":8025,"ĠFoto":8026,"ĠPalacio":8027,"ĠaprobaciÃ³n":8028,"Ġempu":8029,"uca":8030,"Ġeficiente":8031,"ĠDip":8032,"ĠTan":8033,"Ġcapacidades":8034,"endaciones":8035,"ĠCr":8036,"oca":8037,"Ġcontamos":8038,"ĠWar":8039,"ĠAf":8040,"Ġrecomendable":8041,"Ġmatem":8042,"cinas":8043,"nal":8044,"Ġalumno":8045,"ĠmÃ¡quinas":8046,"Ġignor":8047,"top":8048,"Ġrepos":8049,"Ġlament":8050,"ĠexplotaciÃ³n":8051,"ĠencontrarÃ¡s":8052,"Ġdientes":8053,"Ġvid":8054,"ides":8055,"Ġdependiendo":8056,"UD":8057,"Ġmonitor":8058,"Ġaudiencia":8059,"bes":8060,"od":8061,"Ġextranjeros":8062,"ĠGob":8063,"ĠBra":8064,"izan":8065,"IR":8066,"Ġdiscrim":8067,"Ġexplos":8068,"incu":8069,"Ġpublicar":8070,"ĠBolivia":8071,"Ġbrasile":8072,"Ġincom":8073,"Ġinteresados":8074,"Ġdiaria":8075,"ĠPortu":8076,"Ġinstrumento":8077,"Ġcerem":8078,"eco":8079,"ĠiniciÃ³":8080,"Ġparedes":8081,"Ġpuls":8082,"ingÃ¼":8083,"strucciÃ³n":8084,"ĠLOS":8085,"Ġsorte":8086,"Ġrevolucion":8087,"Ãļ":8088,"Ġaden":8089,"ĠEse":8090,"Ġfinancieros":8091,"inio":8092,"tusias":8093,"Ġpensado":8094,"Ġestadio":8095,"ĠDepor":8096,"Uno":8097,"Ġ65":8098,"Ġquieras":8099,"Ġobligaciones":8100,"Ġprevenir":8101,"unas":8102,"ĠreflexiÃ³n":8103,"Ġlisto":8104,"Ġaqui":8105,"Ġacabado":8106,"Ġom":8107,"Ġpublicada":8108,"Ġmedicina":8109,"ĠfinanciaciÃ³n":8110,"Ġpobres":8111,"Ġecu":8112,"ĠKa":8113,"TIV":8114,"Ġplane":8115,"iter":8116,"Ġparo":8117,"Ġequivoc":8118,"Ġponerse":8119,"Ġbotel":8120,"ĠmÃ³d":8121,"ĠTes":8122,"ĠconservaciÃ³n":8123,"ĠautorizaciÃ³n":8124,"Ġasuntos":8125,"ĠInde":8126,"Ġmaqu":8127,"ĠUE":8128,"ĠaviÃ³n":8129,"Ġnav":8130,"Ġdarse":8131,"Ġespiritual":8132,"oluciones":8133,"Ġcircuito":8134,"icar":8135,"Ġpienso":8136,"Ġreferente":8137,"Ġconsejo":8138,"Ġpreviamente":8139,"ĠcientÃŃfico":8140,"gip":8141,"Ġdocente":8142,"Ġnumerosas":8143,"Ġvital":8144,"mana":8145,"Ġmatar":8146,"ĠTodas":8147,"ĠraÃŃz":8148,"Ġintensidad":8149,"Ġdign":8150,"Ġtomado":8151,"Ġretra":8152,"Ġcorrectamente":8153,"ĠCamp":8154,"Ġdiversidad":8155,"Ad":8156,"Ġlesiones":8157,"hats":8158,"ĠdifusiÃ³n":8159,"Ġahorro":8160,"Estamos":8161,"Ġfederal":8162,"Ġdedicada":8163,"sito":8164,"Ġdejamos":8165,"fera":8166,"ĠCastro":8167,"Ġth":8168,"ĠNuestro":8169,"Ġprofunda":8170,"ĠDatos":8171,"ĠOro":8172,"entarios":8173,"ĠHD":8174,"Ġexclusiva":8175,"Ġdescarga":8176,"Ġpreocupa":8177,"diciÃ³n":8178,"Ġusado":8179,"inan":8180,"ĠelectrÃ³nica":8181,"Ġevidencia":8182,"Ġasistir":8183,"Ġhecha":8184,"into":8185,"Ã¡rez":8186,"ĠtendrÃ¡s":8187,"idaridad":8188,"Ġclim":8189,"Ġtable":8190,"Ġguard":8191,"Ġentusias":8192,"Ġcero":8193,"ĠcampeÃ³n":8194,"Ġautos":8195,"ĠpreocupaciÃ³n":8196,"Ġlook":8197,"Ġpagos":8198,"Ġcerrado":8199,"Ġdemostrado":8200,"ĠmÃŃnima":8201,"Ġperteneci":8202,"ural":8203,"Ser":8204,"Ġturno":8205,"ĠSebasti":8206,"ĠQuÃ©":8207,"ĠÃ©stos":8208,"Ġproductores":8209,"ĠBlack":8210,"Ġinspec":8211,"Sal":8212,"Ġinfancia":8213,"ĠportÃ¡":8214,"Ġvel":8215,"rista":8216,"Ġhues":8217,"ĠEstudios":8218,"allado":8219,"ĠIndustri":8220,"Ġhosp":8221,"ĠNegro":8222,"ĠrecepciÃ³n":8223,"Ġexclusivamente":8224,"Ġabsolutamente":8225,"jerÃŃa":8226,"Ġrural":8227,"Ġincluidos":8228,"Ġhidra":8229,"Ġchat":8230,"ĠClas":8231,"Ġtotalidad":8232,"urias":8233,"Ġinteresado":8234,"trÃ³leo":8235,"Ġfacilidad":8236,"ĠencontrÃ³":8237,"undaria":8238,"xx":8239,"Ġsinc":8240,"icias":8241,"omba":8242,"Ġextrem":8243,"ĠPodemos":8244,"Ġluces":8245,"ĠVirgen":8246,"Ġcuri":8247,"ĠcatÃ³":8248,"Ġpude":8249,"Ġcombate":8250,"Ġcreen":8251,"Ġindividuales":8252,"ĠSO":8253,"Ġcompletar":8254,"Ġneu":8255,"istemas":8256,"Ġ39":8257,"Ġcompuesto":8258,"ÃŃnea":8259,"ĠpeticiÃ³n":8260,"Ġperju":8261,"Ð¸":8262,"Ġcomentar":8263,"Ġinstrucciones":8264,"Ġcach":8265,"Ġaisl":8266,"ĠColor":8267,"ĠDar":8268,"Ġhaces":8269,"Ġdificultad":8270,"ĠContin":8271,"grafo":8272,"ĠPoder":8273,"Ġhorno":8274,"ĠcooperaciÃ³n":8275,"onal":8276,"Ġapas":8277,"Ġabst":8278,"Ã±ado":8279,"'s":8280,"ĠEspaÃ±ol":8281,"Ġexpon":8282,"ĠOficial":8283,"ĠiPhone":8284,"65":8285,"Ġsociedades":8286,"ĠComunicaciÃ³n":8287,"lie":8288,"Ġpremi":8289,"Ġtercero":8290,"idal":8291,"Ġmagia":8292,"Ġtranquilidad":8293,"ĠdeclarÃ³":8294,"ĠRosa":8295,"Ġejercer":8296,"Ġdivertido":8297,"Ġdisponibilidad":8298,"Ay":8299,"grad":8300,"Ġsuperiores":8301,"ĠbaÃ±os":8302,"grÃ¡fico":8303,"Ġvisu":8304,"ĠPS":8305,"NA":8306,"Ġrelato":8307,"Ġagradecer":8308,"Ġcinta":8309,"ĠNaciones":8310,"ĠEqui":8311,"ĠCarta":8312,"Ġpaquete":8313,"americanos":8314,"Ġefectiva":8315,"ĠEsper":8316,"ĠdeberÃŃan":8317,"ĠSoy":8318,"Ġhablamos":8319,"Ġavances":8320,"Ġocurrido":8321,"Ġalmacenamiento":8322,"Ġbajos":8323,"Ġdrogas":8324,"Ġconstruc":8325,"Ġdiscre":8326,"medio":8327,"ĠProyecto":8328,"Ġestructuras":8329,"ĠMayor":8330,"ĠFelipe":8331,"Bueno":8332,"MI":8333,"Ġganador":8334,"BC":8335,"dismo":8336,"iam":8337,"ÃŃdos":8338,"Ġsimb":8339,"ĠreacciÃ³n":8340,"Ġmarcar":8341,"Ġasistentes":8342,"Ġpertenece":8343,"Ġrecetas":8344,"Ġinsu":8345,"Ġresidencia":8346,"ĠCalifornia":8347,"Ġcog":8348,"Ġador":8349,"ĠMetro":8350,"ĠAntes":8351,"Ġcontactar":8352,"Ġtecho":8353,"mir":8354,"Ġsh":8355,"Ãºcle":8356,"uto":8357,"toÃ±o":8358,"Ġbrillante":8359,"terapia":8360,"Ġitaliano":8361,"Ġsindica":8362,"Ġminist":8363,"ert":8364,"mala":8365,"Ġhumil":8366,"Ġproducido":8367,"Ġhambre":8368,"ĠRicardo":8369,"ĠparÃ¡":8370,"Ġrepetir":8371,"tricidad":8372,"Ġconflictos":8373,"Â¡Â¡":8374,"ĠIngenierÃŃa":8375,"ĠCe":8376,"Ġaporta":8377,"Estas":8378,"ĠIV":8379,"Ġluchar":8380,"Ġvideoj":8381,"ĠcomentÃ³":8382,"Ġancho":8383,"ĠPh":8384,"ĠelÃ©ctrico":8385,"Ġintroducir":8386,"ĠcrÃŃticas":8387,"Ġconvenio":8388,"Ġprivacidad":8389,"Ġriqueza":8390,"ĠestrÃ©s":8391,"Ġarque":8392,"Ġcena":8393,"Ġespecialista":8394,"ĠInglaterra":8395,"denas":8396,"Ġbarra":8397,"ĠCultural":8398,"entario":8399,"ĠControl":8400,"Ġafectados":8401,"Ġayudan":8402,"ĠexcepciÃ³n":8403,"ritos":8404,"Ġtranquilo":8405,"ĠcampaÃ±as":8406,"cambi":8407,"Ġtradu":8408,"Ġtrae":8409,"Ġantiguos":8410,"ĠBern":8411,"Ġimporte":8412,"Ġdias":8413,"Ġmete":8414,"Ġencargado":8415,"Ġexamen":8416,"tÃŃas":8417,"Ġtemporal":8418,"ĠmÃ©dica":8419,"ashington":8420,"Fue":8421,"Ġllevaba":8422,"Ġtenia":8423,"ĠVan":8424,"ĠCel":8425,"Ġjuris":8426,"Ġexistentes":8427,"ĠestarÃŃa":8428,"igh":8429,"Ġfrontera":8430,"04":8431,"ĠRegistro":8432,"rones":8433,"ĠextraÃ±o":8434,"tive":8435,"Ġrecoger":8436,"Ġplayas":8437,"Ġmecanismos":8438,"Ġperj":8439,"Ã©nd":8440,"ĠBre":8441,"Ġaer":8442,"Ġdesgra":8443,"ĠEEUU":8444,"ĠUsted":8445,"Ġcuarta":8446,"Ġexceso":8447,"ĠMicrosoft":8448,"Ġdirectora":8449,"ĠEduardo":8450,"denes":8451,"cioso":8452,"Ġmonum":8453,"GA":8454,"Ġanaliz":8455,"Ġpermitido":8456,"Ġtriste":8457,"ergio":8458,"ĠilusiÃ³n":8459,"Ġmultitud":8460,"ĠFormaciÃ³n":8461,"ĠelectrÃ³nicos":8462,"ĠconversaciÃ³n":8463,"Ġruido":8464,"ĠhÃŃ":8465,"Ġproducen":8466,"ĠautomÃ³vil":8467,"Ġdecide":8468,"ierte":8469,"Ġrema":8470,"ĠWal":8471,"Ġocupar":8472,"ĠTener":8473,"Ġcump":8474,"ÃŃculas":8475,"Ġadicionales":8476,"Ġcau":8477,"ĠBogotÃ¡":8478,"Ġfum":8479,"88":8480,"ĠDra":8481,"Ġconducta":8482,"Ġ2002":8483,"Ġajuste":8484,"ĠEmple":8485,"Ver":8486,"Ġplataformas":8487,"Ġsaludo":8488,"Ġplen":8489,"ĠlÃ¡":8490,"Ġhierro":8491,"ĠCÃ³mo":8492,"ICI":8493,"Ġ<":8494,"stica":8495,"Ġtrabajador":8496,"Ġeducativa":8497,"Ġuniversidades":8498,"Ġauxil":8499,"Ġpendiente":8500,"Ġcantidades":8501,"gin":8502,"ĠDomingo":8503,"ĠQuer":8504,"Ġcomunicaciones":8505,"tamen":8506,"tarÃ¡n":8507,"Ġcuidados":8508,"Ġesencia":8509,"itores":8510,"fun":8511,"Ġbarco":8512,"Ġchocolate":8513,"trÃŃa":8514,"manes":8515,"Ġnarra":8516,"urar":8517,"Ġgay":8518,"Ġeditorial":8519,"traciÃ³n":8520,"Ġmoneda":8521,"Ġesperan":8522,"jada":8523,"ĠMexic":8524,"bor":8525,"Ġtonel":8526,"Ġ2001":8527,"Ġdistinto":8528,"Ġmasco":8529,"Ġiban":8530,"Ġescritura":8531,"Ġencabez":8532,"ĠSud":8533,"CU":8534,"ĠIndia":8535,"Ġtemperaturas":8536,"Publ":8537,"vide":8538,"Ġregistrado":8539,"Ġoscuro":8540,"Ġatractivo":8541,"Ġdormitorios":8542,"ĠLan":8543,"Ġcaminos":8544,"Ġflujo":8545,"ĠSociales":8546,"ueble":8547,"ĠHacienda":8548,"glesias":8549,"Ġsaludable":8550,"Ġmanifies":8551,"mato":8552,"Ġhermoso":8553,"uan":8554,"stagram":8555,"ĠStar":8556,"Ġhaz":8557,"Ġmaestros":8558,"Ġvenido":8559,"2016":8560,"Ġclaves":8561,"Ġinstante":8562,"rate":8563,"ĠAmbiente":8564,"tional":8565,"Ġampliar":8566,"ĠEsa":8567,"ĠDic":8568,"Ġromper":8569,"ĠprofesiÃ³n":8570,"Ġestric":8571,"Ġsalen":8572,"ader":8573,"Ġreloj":8574,"ĠBil":8575,"ĠUnidas":8576,"Ġprivileg":8577,"ormes":8578,"ĠSantos":8579,"ĠnavegaciÃ³n":8580,"Ġpositiva":8581,"Ġcen":8582,"Ġsusp":8583,"mis":8584,"ĠIncluso":8585,"Ġvuestra":8586,"Ġcalendario":8587,"Ã©tr":8588,"lico":8589,"ĠArt":8590,"df":8591,"ĠdivisiÃ³n":8592,"ĠcuÃ¡les":8593,"Ġintenta":8594,"ĠestÃ©tica":8595,"Ġcreatividad":8596,"ĠIr":8597,"itivo":8598,"ĠNatural":8599,"Ġllan":8600,"Ġabur":8601,"MS":8602,"Ġllevo":8603,"Ġpaisaje":8604,"ĠVia":8605,"SÃŃ":8606,"Ġmolino":8607,"ficio":8608,"venil":8609,"bro":8610,"ecas":8611,"parte":8612,"Ġentiende":8613,"Ã³nimo":8614,"Ġrecuerdos":8615,"ĠProvincial":8616,"Ġfabricante":8617,"Ġconsciente":8618,"mn":8619,"Ġcertificado":8620,"Ġbosque":8621,"ĠÃ³rganos":8622,"ĠPR":8623,"Ġsombra":8624,"ĠmanifestÃ³":8625,"Ġsecund":8626,"Ġrecomendaciones":8627,"Ġurbano":8628,"Ġagente":8629,"ĠPeÃ±a":8630,"Ġaviso":8631,"Ġinstitucional":8632,"Ġbe":8633,"Ġencuentros":8634,"Ġesperaba":8635,"ĠdiscusiÃ³n":8636,"Ġcuyos":8637,"ĠbÃ¡sico":8638,"Ġveter":8639,"ĠuniÃ³n":8640,"ERS":8641,"tander":8642,"acu":8643,"2015":8644,"dias":8645,"Ġinmediata":8646,"Ġbalance":8647,"Ġcontrar":8648,"Ġagenda":8649,"-.":8650,"42":8651,"Ġresiduos":8652,"ĠÃ¡nimo":8653,"Ġpodamos":8654,"ĠAdo":8655,"ĠLen":8656,"razgo":8657,"Ġdeje":8658,"Ġpap":8659,"ĠmostrÃ³":8660,"sh":8661,"Ġestabilidad":8662,"Ġproven":8663,"Ġconcluy":8664,"Ġdimensiones":8665,"ĠReyes":8666,"Ġgracia":8667,"Ġcien":8668,"Ġenrique":8669,"ĠRio":8670,"ĠTemp":8671,"Ġarmon":8672,"Ġdocumental":8673,"ĠimplementaciÃ³n":8674,"ĠpoesÃŃa":8675,"Ġrenta":8676,"Ġcaminar":8677,"Ġfinalizar":8678,"Ġeuropeo":8679,"Ġredac":8680,"ĠSierra":8681,"Ġresumen":8682,"cando":8683,"ĠperdiÃ³":8684,"ĠFondo":8685,"Ġpiloto":8686,"Ġbajas":8687,"Ġpasajeros":8688,"Ġquieran":8689,"IZ":8690,"Ġjer":8691,"ema":8692,"ĠDefensa":8693,"ĠIma":8694,"Ġrebel":8695,"Ġasigna":8696,"Ġayudas":8697,"Ġpura":8698,"ĠCine":8699,"Ġigualmente":8700,"ĠdesempeÃ±":8701,"toriales":8702,"66":8703,"Ġlabios":8704,"Ġtendremos":8705,"ĠLle":8706,"hibiciÃ³n":8707,"aunque":8708,"Ġinsul":8709,"Ġabsoluto":8710,"Ġagar":8711,"Ġcuero":8712,"Ġescla":8713,"Ġrecep":8714,"ĠDigital":8715,"Ġuniversal":8716,"Ca":8717,"Ġtrimestre":8718,"Ġinex":8719,"ĠtraducciÃ³n":8720,"ĠpolÃ©m":8721,"Ġbandas":8722,"Ġiniciativas":8723,"ĠmodificaciÃ³n":8724,"ips":8725,"ĠEstoy":8726,"AquÃŃ":8727,"Ġrutas":8728,"utados":8729,"titudes":8730,"ĠFun":8731,"ĠNie":8732,"ribuye":8733,"Ġdesas":8734,"ĠreligiÃ³n":8735,"ilio":8736,"TRA":8737,"Ġrueda":8738,"ĠcientÃŃfica":8739,"ĠMayo":8740,"ĠCastel":8741,"ĠcirculaciÃ³n":8742,"ĠcontrataciÃ³n":8743,"Ġlider":8744,"Ġnavegador":8745,"ning":8746,"Ġhue":8747,"Ġirreg":8748,"cara":8749,"media":8750,"Ġguste":8751,"Ġinsist":8752,"Ġsemej":8753,"ĠmuriÃ³":8754,"ĠHor":8755,"ĠÃŃndice":8756,"Ġcoordin":8757,"Ġaust":8758,"Segu":8759,"Ġconveniente":8760,"Ġlimpiar":8761,"Ġincrement":8762,"Ġagregar":8763,"GU":8764,"Ġexperto":8765,"eda":8766,"ienta":8767,"Ġnecesitamos":8768,"ĠPlay":8769,"ĠPÃ¡g":8770,"cub":8771,"Ġorganizar":8772,"eraciÃ³n":8773,"Ġsituada":8774,"ĠHombre":8775,"Ġnacido":8776,"Ġciudadano":8777,"Cons":8778,"ĠorientaciÃ³n":8779,"ĠpodÃŃan":8780,"ĠromÃ¡n":8781,"Ġexpresa":8782,"ibil":8783,"Ġtela":8784,"abas":8785,"Ġestatu":8786,"ĠRegional":8787,"ĠBu":8788,"Ġcuantos":8789,"ADA":8790,"reros":8791,"Ġsalido":8792,"Ġdiscapacidad":8793,"ÃŃtico":8794,"Ġeficacia":8795,"ĠNicolÃ¡s":8796,"istar":8797,"antiles":8798,"Ġusan":8799,"Ġdemuestra":8800,"ĠcomposiciÃ³n":8801,"ĠdesempeÃ±o":8802,"Ġpermiso":8803,"Ġvertic":8804,"Ġprivadas":8805,"ĠCaribe":8806,"Ġdepos":8807,"Ġjuega":8808,"ĠmuchÃŃsimo":8809,"Ġhablan":8810,"ĠcoordinaciÃ³n":8811,"uera":8812,"taÃ±a":8813,"ĠAmeric":8814,"Ġfilm":8815,"Ġmister":8816,"habilitaciÃ³n":8817,"Ġprimavera":8818,"Ġcicl":8819,"ĠAutÃ³noma":8820,"uerzo":8821,"ĠmillÃ³n":8822,"Ġeuropeos":8823,"Ġtransmitir":8824,"Ġ42":8825,"Ġlados":8826,"Hasta":8827,"ĠBlanco":8828,"ĠChar":8829,"Ġimprescindible":8830,"ĠiluminaciÃ³n":8831,"ĠnÃºcle":8832,"Ġingenier":8833,"ĠadaptaciÃ³n":8834,"Ġ!":8835,"Ġindividuos":8836,"ĠEstamos":8837,"Bo":8838,"Ġalf":8839,"Ġconstitucional":8840,"Ġapreci":8841,"Ġsalvar":8842,",...":8843,"Ġdoce":8844,"martph":8845,"ĠespecÃŃfico":8846,"\":":8847,"Ġfuese":8848,"ĠcrÃ©ditos":8849,"ĠcariÃ±o":8850,"Ð½":8851,"Ġpierde":8852,"Ġescul":8853,"Ġinstancia":8854,"Ġplantilla":8855,"Ġpensamientos":8856,"Ġrecorrer":8857,"enz":8858,"Ġdamos":8859,"atemala":8860,"Ġrequieren":8861,"cipe":8862,"Ġmadres":8863,"Ġconectar":8864,"Ġcompens":8865,"Ã³sitos":8866,"ilas":8867,"ĠHan":8868,"ĠPOR":8869,"cord":8870,"uestras":8871,"Ġaprobado":8872,"Ġespecializada":8873,"Ġlimpio":8874,"Ġacondicionado":8875,"Ġavanzar":8876,"Ġmarch":8877,"ĠOtros":8878,"ĠÃ³pti":8879,"Ġjornadas":8880,"ĠOficina":8881,"Ġjugando":8882,"ĠĠĠĠ":8883,"Ġgarantiza":8884,"Ġveinte":8885,"MO":8886,"BI":8887,"Ġhoja":8888,"âĢ¦)":8889,"ĠejÃ©rcito":8890,"Ġcubierta":8891,"uena":8892,"ĠBueno":8893,"Ġ600":8894,"Ġutilidad":8895,"ĠdueÃ±o":8896,"sula":8897,"Ġacepta":8898,"ÃŃg":8899,"Ġnaran":8900,"Ġturistas":8901,"Ã©rico":8902,"umb":8903,"Ġabsoluta":8904,"tecas":8905,"alizaciones":8906,"Ġbebidas":8907,"Pa":8908,"ĠÃ³p":8909,"Ġgre":8910,"Ġinformado":8911,"usto":8912,"ispo":8913,"Ġpatio":8914,"Ġcalent":8915,"Ġdiscos":8916,"Ġindividuo":8917,"ĠDiario":8918,"ĠcatÃ¡logo":8919,"ĠDI":8920,"ĠjurÃŃdica":8921,"ĠpetrÃ³leo":8922,"Ġponiendo":8923,"02":8924,"NO":8925,"jando":8926,"ĠNet":8927,"ĠRamÃ³n":8928,"PU":8929,"ĠAlic":8930,"tle":8931,"ĠSant":8932,"Ġbasa":8933,"Ġmantienen":8934,"Ġsobres":8935,"cemos":8936,"Ġargentina":8937,"Actu":8938,"ĠreÃºn":8939,"Ġcolorear":8940,"77":8941,"Ġconsideran":8942,"Ġimpresionante":8943,"Ġestima":8944,"Ġaliv":8945,"Ġbl":8946,"Ġbancar":8947,"Ġcans":8948,"ĠKar":8949,"Ġresponde":8950,"Ġllegando":8951,"Ġvicepres":8952,"Ġliqu":8953,"ÃŃficamente":8954,"ĠCanarias":8955,"Ġutilizados":8956,"Ġmodalidad":8957,"Ġmaterias":8958,"ĠWashington":8959,"Emp":8960,"menes":8961,"Ãºsica":8962,"Ġasociaciones":8963,"EA":8964,"Ġfri":8965,"Ġenemigo":8966,"Ġpreserv":8967,"Ġinser":8968,"ĠEX":8969,"Ġjub":8970,"Ġdepartam":8971,"Ġesperamos":8972,".âĢĶ":8973,"tarias":8974,"Ġconformidad":8975,"Ġinmobil":8976,"ĠExper":8977,"Ġcriterio":8978,"Ġrepresentan":8979,"ĠllamÃ³":8980,"ĠPapa":8981,"Ġgimnas":8982,"03":8983,"tipo":8984,"Ġgestionar":8985,"ĠcumpleaÃ±os":8986,"Ġsindic":8987,"ĠÃĵ":8988,"ĠReglamento":8989,"Ġescas":8990,"ART":8991,"ĠToda":8992,"Ġtratando":8993,"Ġexc":8994,"Ġfrag":8995,"Ġasumir":8996,".Â»":8997,"trices":8998,"ĠInstagram":8999,"Ġrecientes":9000,"icioso":9001,"].":9002,"Ġexcelentes":9003,"Ġcontribuir":9004,"Ġfabricantes":9005,"iti":9006,"Ġcultivo":9007,"ĠFiscalÃŃa":9008,"ĠMurcia":9009,"Ġqueso":9010,"ĠCU":9011,"Ġindicado":9012,"Ġrosa":9013,"hop":9014,"Ġrango":9015,"Ġmodern":9016,"acha":9017,"Ġrealizados":9018,"leto":9019,"Ġnoc":9020,"istos":9021,"Ob":9022,"Ġbonita":9023,"ĠVas":9024,"ERO":9025,"Ġamable":9026,"Ġterminado":9027,"ĠAllÃŃ":9028,"Ġadjud":9029,"Ġpresidenta":9030,"gulo":9031,"Ġnucle":9032,"Col":9033,"Ġmadru":9034,"Ġanunciado":9035,"ĠcapacitaciÃ³n":9036,"Ġcortes":9037,"Ġdeportes":9038,"ĠXIX":9039,"ĠMercado":9040,"Ġelectro":9041,"ĠMedia":9042,"Ġquedarse":9043,"Ġces":9044,"Ġpropietario":9045,"Ġvuelos":9046,"ĠPanamÃ¡":9047,"Ġhol":9048,"Ġparlam":9049,"Ġmexicana":9050,"Ġempie":9051,"Ġlanzar":9052,"Ġpata":9053,"ĠÃŃ":9054,"Ġfamosa":9055,"Ġdistingu":9056,"ĠBon":9057,"ĠcompeticiÃ³n":9058,"ĠCanadÃ¡":9059,"ĠdÃ©bil":9060,"Ġportu":9061,"ĠQuiz":9062,"Ġdestacado":9063,"ĠmetÃ¡l":9064,"ĠcaracterÃŃstica":9065,"ArtÃŃculo":9066,"Ġimpe":9067,"Sab":9068,"citos":9069,"anal":9070,"Ġlaboratorio":9071,"Ġmovilidad":9072,"ĠidentificaciÃ³n":9073,"ĠSergio":9074,"Antes":9075,"ĠBien":9076,"Ġmanga":9077,"bir":9078,"Ġreservas":9079,"Ġsuav":9080,"ĠprÃ³ximas":9081,"Ġsostenible":9082,"ĠBlanca":9083,"Ġcaj":9084,"Ġdedos":9085,"gran":9086,"ĠAuto":9087,"Ġ120":9088,"Ġbille":9089,"85":9090,"Ġceb":9091,"Otro":9092,"ariales":9093,"ĠÃ³rgano":9094,"ĠCA":9095,"Ġpuro":9096,"putaciÃ³n":9097,"abetes":9098,"ÑĤ":9099,"Ġset":9100,"bao":9101,"Ġaluminio":9102,"ĠUl":9103,"ĠVar":9104,"Ġsujetos":9105,"Ġabogados":9106,"Ġpobla":9107,"Ġconducir":9108,"Ġmodos":9109,"Ġdiputado":9110,"Ġglob":9111,"ÃŃcola":9112,"Ġvoces":9113,"ãģ":9114,"ĠRica":9115,"Ġsumar":9116,"Muchas":9117,"Ġhubiese":9118,"direc":9119,"ĠSegunda":9120,"Ġembaj":9121,"Ġbron":9122,"Ġfortalecer":9123,"Ġruedas":9124,"Ġbailar":9125,"ĠBiblio":9126,"ĠabriÃ³":9127,"itadas":9128,"ĠCN":9129,"ĠCuer":9130,"vol":9131,"ĠmamÃ¡":9132,"Ġprodujo":9133,"Ġcompet":9134,"ĠexpansiÃ³n":9135,"Ġcorreg":9136,"Ġ250":9137,"Ġculp":9138,"Ġtreinta":9139,"Ġprivados":9140,"64":9141,"Ġalber":9142,"Ġpermanecer":9143,"garse":9144,"Ġdichas":9145,"iadas":9146,"ĠhÃ¡bitos":9147,"ĠcomprensiÃ³n":9148,"ĠParlamento":9149,"ĠespaÃ±olas":9150,"Ġdato":9151,"Ġindustriales":9152,"Ġcola":9153,"ĠseÃ±ora":9154,"Nuestro":9155,"izadas":9156,"Ġconstantemente":9157,"Ġferia":9158,"Ġmusicales":9159,"Di":9160,"Ġnecesitar":9161,"Ġvuestro":9162,"Ġater":9163,"Ġexige":9164,"ĠficciÃ³n":9165,"Ġdelincu":9166,"ĠSemana":9167,"ĠharÃ¡n":9168,"Ġfuncionario":9169,"dea":9170,"Ġmagist":9171,"Ġentiendo":9172,"Ġpropa":9173,"fonso":9174,"ĠAlim":9175,"ĠBea":9176,"ĠaÃ±ade":9177,"Sobre":9178,",,":9179,"Ġreempla":9180,"ĠNosotros":9181,"Ġvigor":9182,"ĠGlo":9183,"ĠbÃ¡sica":9184,"ĠdifÃŃciles":9185,"ĠUsuario":9186,"ĠTengo":9187,"Tu":9188,"Ġevaluar":9189,"Ġdelic":9190,"Ġdesl":9191,"amar":9192,"ernam":9193,"Ġcampeonato":9194,"ME":9195,"Ġseleccionar":9196,"Ġlogo":9197,"Ġretos":9198,"Ġpolic":9199,"ĠAcademia":9200,"Ġsentimiento":9201,"Ġacudir":9202,"Ġnotable":9203,"ĠÃģfrica":9204,"Ġproductor":9205,"Ġetapas":9206,"Ġdetenido":9207,"Ġconsumidor":9208,"ĠProvincia":9209,"omina":9210,"ĠseÃ±ales":9211,"Ġquedaron":9212,"Ġcombatir":9213,"ĠEmpresa":9214,"ĠclÃŃnica":9215,"Ġcafe":9216,"guÃ©":9217,"trans":9218,"Ġgeneraciones":9219,"nado":9220,"TOS":9221,"Ġembar":9222,"Ġvirtud":9223,"Ġdeseos":9224,"Ġnoctur":9225,"Ġmach":9226,"Ġpublicaciones":9227,"Ġit":9228,"colo":9229,"Ġdibujo":9230,"fit":9231,"Ġhaci":9232,"Ġende":9233,"ĠAustral":9234,"ĠTorres":9235,"ĠRosario":9236,"Ġenemigos":9237,"Ġdeportiva":9238,"tela":9239,"ward":9240,"iona":9241,"Ġcercana":9242,"ĠMartin":9243,"Ã³cra":9244,"Ġmalos":9245,"ĠArtÃŃculo":9246,"Ġjuventud":9247,"tinas":9248,"Ġtasas":9249,"temp":9250,"Ġverlo":9251,"Ġcontrad":9252,"Ġdistrito":9253,"Ãºp":9254,"RAN":9255,"Ġestuvieron":9256,"ĠtelÃ©fonos":9257,"Ġaporte":9258,"udio":9259,"Ġtorm":9260,"Cre":9261,"Ġtruc":9262,"esas":9263,"Ġfiel":9264,"Ġintercambi":9265,"Ġdesf":9266,"Ġbrazo":9267,"Ġnieve":9268,"Ġvende":9269,"Ġdirigentes":9270,"Ġmaravilloso":9271,"ĠTenemos":9272,"Ġtoneladas":9273,"Ġconfun":9274,"Ġregalos":9275,"ĠRico":9276,"Ġfallo":9277,"Ġaltamente":9278,"ĠdescripciÃ³n":9279,"lga":9280,"ĠadquisiciÃ³n":9281,"gia":9282,"ĠSr":9283,"...)":9284,"Ġ[...]":9285,"ĠprestaciÃ³n":9286,"ĠRoberto":9287,"Ġsecu":9288,"Ġconsentimiento":9289,"Ġmejoras":9290,"ĠespecÃŃficos":9291,"plan":9292,"Ġcarro":9293,"Ġidiomas":9294,"trada":9295,"ĠconclusiÃ³n":9296,"Ġdestacan":9297,"dicaciÃ³n":9298,"tarlo":9299,"riz":9300,"Ġhuevos":9301,"Ġbeso":9302,"Ġpoderes":9303,"ĠPi":9304,"43":9305,"Ġsubs":9306,"aqu":9307,"Ġprobabilidad":9308,"Ġeuropea":9309,"PD":9310,"Ġcuadros":9311,"Ġmecanismo":9312,"Ġcartel":9313,"Ġmanejar":9314,"Ġfrutas":9315,"Ġdespues":9316,"Ġmuestras":9317,"polit":9318,"ĠperiÃ³dico":9319,"ede":9320,"Ġadvers":9321,"ĠbaÃ±":9322,"Ġhttps":9323,"ĠenseÃ±ar":9324,"Ġcreando":9325,"Ġcuidar":9326,"Ġesquina":9327,"ualquier":9328,"endar":9329,"Ġpotente":9330,"Ġconocen":9331,"ĠlÃŃquido":9332,"Ġpiedras":9333,"ĠlÃ³gica":9334,"Ġmontaje":9335,"oxid":9336,"Ġpermitan":9337,"ĠprecisiÃ³n":9338,"emb":9339,"Ġantic":9340,"Ġtratado":9341,"Ġbarato":9342,"Ġhorarios":9343,"Ġasociados":9344,"Ġcomputadora":9345,"ĠAv":9346,"itat":9347,"Ġimaginar":9348,"ĠCoord":9349,"enses":9350,"Ġfutu":9351,"tito":9352,"Ã¡mico":9353,"Ġnace":9354,"ĠEduca":9355,"Ġaval":9356,"ĠconsiguiÃ³":9357,"Ġimpro":9358,"ĠxD":9359,"ĠEv":9360,"Ġinfo":9361,"ĠcÃ³moda":9362,"tadura":9363,"cripciones":9364,"udiciales":9365,"Ġprovincial":9366,"ĠSebastiÃ¡n":9367,"Ġdecora":9368,"ĠgrÃ¡fico":9369,"Ġsat":9370,"Ġquem":9371,"Ġasal":9372,"Ġoral":9373,"ĠCurso":9374,"Ġpropietarios":9375,"Ġpublica":9376,"Ġsaga":9377,"orro":9378,"68":9379,"Â·":9380,"Ġdeterior":9381,"ĠacÃ¡":9382,"bie":9383,"Ġdele":9384,"Ġmirando":9385,"ĠJorn":9386,"Ġsuyo":9387,"bÃºs":9388,"ĠfÃ³rmula":9389,"ĠacadÃ©mico":9390,"ĠSar":9391,"Ġregla":9392,"Ġmostra":9393,"Ġronda":9394,"Ġfrancesa":9395,"Otra":9396,"ajaja":9397,"ĠdinÃ¡mica":9398,"Ġdivul":9399,"âĢ¦âĢ¦":9400,"ĠAutor":9401,"ĠaceptaciÃ³n":9402,"ĠAragÃ³n":9403,"Ġprohib":9404,"Ġapunta":9405,"ĠcÃŃr":9406,"ĠEspa":9407,"Ġmuseo":9408,"Ġense":9409,"Ġreproduc":9410,"geno":9411,"eramente":9412,"Ġconciertos":9413,"alax":9414,"Ġmari":9415,"Ġverdes":9416,"Ġverse":9417,"Ã¡ndonos":9418,"ĠPaul":9419,"ĠGuatemala":9420,"ĠMA":9421,"Os":9422,"ĠGalicia":9423,"Ġlimpia":9424,"Ġprovoca":9425,"ĠpermitiÃ³":9426,"Ġahorrar":9427,"ĠGobern":9428,"Ġpendientes":9429,"Ġiguales":9430,"Ġreformas":9431,"uncios":9432,"Ġrevisar":9433,"Ġinn":9434,"tinos":9435,"Ġprovincias":9436,"ĠvacÃŃo":9437,"Ġfueran":9438,"Ġdiputados":9439,"ĠautomÃ¡ticamente":9440,"Ġderrota":9441,"Ġbasura":9442,"Ġautomo":9443,"box":9444,"Ġanticip":9445,"Ġmemor":9446,"Ġcrimen":9447,"Ġfans":9448,"lados":9449,"Ġinvita":9450,"Ġadelga":9451,"ificada":9452,"Ġminerales":9453,"Ġtransferencia":9454,"rÃŃan":9455,"tube":9456,"ĠDol":9457,"Muy":9458,"Ã©nez":9459,"ted":9460,"Ġveremos":9461,"Ġexclusivo":9462,"Ġprimaria":9463,"Ġpudieron":9464,"Ġponemos":9465,"Ãºmero":9466,"Ġnovio":9467,"Ġportavoz":9468,"ĠOnline":9469,"Ġreiv":9470,"Ġsatisfacer":9471,"avo":9472,"ĠVida":9473,"Ġcreciente":9474,"ĠEspero":9475,"olla":9476,"Ġsoci":9477,"vias":9478,"ĠSue":9479,"Ġprolon":9480,"Ġducha":9481,"Ġgub":9482,"Ãºrg":9483,"ERA":9484,"Ġobtuvo":9485,"Ġapariencia":9486,"Ġborde":9487,"Ġviviendo":9488,"Del":9489,"tifica":9490,"diciones":9491,"Ġfruto":9492,"Ġobserva":9493,"Ġejecutivo":9494,"ĠfÃ¡brica":9495,"Ġestablecimientos":9496,"Ġcostes":9497,"Ġlistas":9498,"ĠEjÃ©rcito":9499,"Ġrenunci":9500,"Ġmexicanos":9501,"ĠindÃŃgenas":9502,"ĠFeria":9503,"ges":9504,"erÃŃas":9505,"Ġsolidaridad":9506,"Ġestilos":9507,"dadas":9508,"ĠOf":9509,"TS":9510,"ĠcirugÃŃa":9511,"wood":9512,"ĠhÃ©ro":9513,"ĠplanificaciÃ³n":9514,"TV":9515,"tilidad":9516,"ĠcontinÃº":9517,"ĠdaÃ±":9518,"alla":9519,"Ġculo":9520,"ĠQUE":9521,"Ġfuncionar":9522,"ĠNunca":9523,"Ġinoc":9524,"quillaje":9525,"Ġformal":9526,"Ġcenten":9527,"rey":9528,"ÃŃces":9529,"Ġrecomendamos":9530,"ĠFinanci":9531,"Ġestaciones":9532,"Ġemocion":9533,"Ġincumpl":9534,"ĠCristina":9535,"Ġtrama":9536,"ÑĢ":9537,"enco":9538,"Ġreglam":9539,"Ġinformar":9540,"Ġfach":9541,"ĠcayÃ³":9542,"ĠseÃ±alado":9543,"Ġdisposiciones":9544,"Ġdescuentos":9545,"ĠPRI":9546,"Ġï":9547,"Ġfemenino":9548,"Ġdetener":9549,"Ġdistinta":9550,"trina":9551,"Ġbolas":9552,"ĠCuenta":9553,"Creo":9554,"cÃ³mo":9555,"Ġextin":9556,"ĠSy":9557,"41":9558,"Ġobligado":9559,"Ġaccidentes":9560,"Ġ47":9561,"67":9562,"Ġescribe":9563,"ĠÃºtiles":9564,"Ġdisciplina":9565,"ak":9566,"Ġamantes":9567,"ĠmuÃ±":9568,"way":9569,"Ġcoron":9570,"ĠAsturias":9571,"Ġllaman":9572,"Ġcomprob":9573,"Ġanci":9574,"ĠexplicaciÃ³n":9575,"illermo":9576,"Finalmente":9577,"Ġliderazgo":9578,"Ġentero":9579,"ĠbalÃ³n":9580,"Ġreciben":9581,"cismo":9582,"Ġsalas":9583,"Ġdebut":9584,"Ġcolumna":9585,"ĠMorales":9586,"ĠActualmente":9587,"peta":9588,"Ġvigilancia":9589,"ĠEuropeo":9590,"Ġdebo":9591,"ĠaÃ±adiÃ³":9592,"Ġdecreto":9593,"Ġhig":9594,"ĠVicente":9595,"Ġprobado":9596,"ĠJack":9597,"ise":9598,"ARIO":9599,"Ġtrabajado":9600,"ĠDeportes":9601,"Ġarroz":9602,"Ġrumbo":9603,"anc":9604,"Ġsirven":9605,"ĠbÃ¡sicas":9606,"Ġterap":9607,"ĠautonomÃŃa":9608,"iblia":9609,"ĠChrist":9610,"Ġolor":9611,"Ġaci":9612,"ulaciones":9613,"Ġreiter":9614,"Ġcoopera":9615,"Ġestadounidenses":9616,"Ġ43":9617,"econ":9618,"Ġtranscur":9619,"iental":9620,"radores":9621,"Ġpredic":9622,"Ġprede":9623,"ĠInterior":9624,"Ġbandera":9625,"ĠimaginaciÃ³n":9626,"Ġcuadrados":9627,"Ġescenarios":9628,"Ġ01":9629,"Ġmaquinaria":9630,"Ġmanifesta":9631,"Ġtos":9632,"Ġcerveza":9633,"ĠsÃºper":9634,"critos":9635,"Ġceremonia":9636,"Ġintenso":9637,"Ġcono":9638,"Ġlej":9639,"ĠAmor":9640,"Ġaparato":9641,"Ġintegrado":9642,"Ġparar":9643,"Ġmencionar":9644,"Ġfibra":9645,"ĠLE":9646,"Ġadolescente":9647,"ĠhablÃ³":9648,"Ġcaptur":9649,"ĠprÃ©stamo":9650,"Ġraza":9651,"Ġhabilidad":9652,"Ġexistir":9653,"Ġmediados":9654,"ĠMuchos":9655,"Ġvinos":9656,"Ġasesinato":9657,"Ġord":9658,"QuiÃ©n":9659,"Ġsufrido":9660,"Ġprevent":9661,"ĠRecuer":9662,"tuario":9663,"Ġescenas":9664,"Ã³nicas":9665,"ings":9666,"ĠPortugal":9667,"kin":9668,"abo":9669,"Ġmedir":9670,"ĠAmazon":9671,"ĠHen":9672,"Ġsignific":9673,"ĠrespondiÃ³":9674,"BL":9675,"Ġhilo":9676,"Ġcampes":9677,"Ġ:)":9678,"Ġbendi":9679,"Ġparticiparon":9680,"Ġfija":9681,"ĠLeon":9682,"hab":9683,"ÃŃmetros":9684,"Ġrica":9685,"ĠEspÃŃritu":9686,"Ġcomenzaron":9687,"ĠveÃŃa":9688,"iremos":9689,"Ġeducativos":9690,"app":9691,"work":9692,"ĠoÃŃdo":9693,"ĠvaloraciÃ³n":9694,"inete":9695,"Ġdeseas":9696,"Ġsustancias":9697,"Ġbicicleta":9698,"Ġdoy":9699,"Ġcomis":9700,"ĠWil":9701,"ĠDom":9702,"Ġreferencias":9703,"Ġultra":9704,"Ġdefine":9705,"Ġingen":9706,"Ġsiga":9707,"Ġquisiera":9708,"ĠComple":9709,"Ġobtenido":9710,"Ġfemin":9711,"Ġcontinuidad":9712,"Ġfiscales":9713,"ĠMedicina":9714,"ĠemociÃ³n":9715,"Ġmesas":9716,"Ġpoeta":9717,"Ġorgullos":9718,"Ġprestaciones":9719,"ĠMich":9720,"ĠÃ³rdenes":9721,"ĠMoreno":9722,"Estoy":9723,"chos":9724,"Ġtrist":9725,"Ġrestr":9726,"ĠÃºnicos":9727,"ĠfÃŃsicas":9728,"Ġciviles":9729,"ĠLuna":9730,"Ñģ":9731,"ĠpÃ¡rra":9732,"Ġalimento":9733,"ĠturÃŃstico":9734,"Ġhumedad":9735,"Ġgustos":9736,"Ġsp":9737,"Ġdrama":9738,"Ã³gico":9739,"ÃŃsimas":9740,"ĠAngel":9741,"Ġpreciso":9742,"Ã¡ctica":9743,"Ġescrita":9744,"Ġ44":9745,"ĠCastillo":9746,"ĠFon":9747,"ĠotoÃ±o":9748,"orden":9749,"ĠNorm":9750,"Ġingresar":9751,"lash":9752,"Ġshow":9753,"Ġtemprano":9754,"Ġescapar":9755,"ĠtÃ©":9756,"ĠtrÃ¡n":9757,"ĠIsabel":9758,"Ġintroduci":9759,"Ġsalario":9760,"Ġtrop":9761,"Ġsignos":9762,"Ġmodificaciones":9763,"Ġmalas":9764,"Ġfavoritos":9765,"EX":9766,"ĠTim":9767,"ÃŃnas":9768,"Ġabrazo":9769,"Ġcreada":9770,"asiÃ³n":9771,"Ġregresar":9772,"Ġconsiderable":9773,"ENTE":9774,"Ġagro":9775,"Ġinyec":9776,"Ġcombustible":9777,"ĠAtenciÃ³n":9778,"Ġsolucionar":9779,"icidio":9780,"ze":9781,"Ġroja":9782,"ĠContac":9783,"far":9784,"Ġpsico":9785,"Ġregistros":9786,"ĠnegociaciÃ³n":9787,"onso":9788,"tizar":9789,"ĠpÃ©rdidas":9790,"idi":9791,"ĠGuer":9792,"Ġdirigir":9793,"ĠayudarÃ¡":9794,"gica":9795,"Ġcolombiano":9796,"Ġintim":9797,"Ġpisos":9798,"Ġilegal":9799,"Ġapp":9800,"Ġcontratar":9801,"ĠregulaciÃ³n":9802,"ĠCalle":9803,"GT":9804,"Ġdices":9805,"tedral":9806,"Nuestra":9807,"Ġdirige":9808,"Ġindependientes":9809,"Ġrell":9810,"Ġbienvenida":9811,"Ġabri":9812,"ĠAÃ±o":9813,"Ġvolv":9814,"Ġgafas":9815,"Ġempresario":9816,"ĠMana":9817,"Ġreduce":9818,"ĠjurÃŃdico":9819,"ĠinspiraciÃ³n":9820,"Ġlevantar":9821,"Ġfomentar":9822,"Ġepisodio":9823,"Ġesenciales":9824,"Ġquiso":9825,"Ġcajas":9826,"Ġterren":9827,"terales":9828,"Ġtop":9829,"Ġplantea":9830,"Ġdefinitivamente":9831,"mol":9832,"Ġ46":9833,"Ġalcanza":9834,"Ġelevado":9835,"ĠMul":9836,"iempo":9837,"TC":9838,"ĠsuspensiÃ³n":9839,"mano":9840,"Ġespon":9841,"Ġmarcado":9842,"Ġpanorama":9843,"ĠIsla":9844,"Ġ95":9845,"Ġsuple":9846,"Ġasomb":9847,"gÃ©n":9848,"ĠPrincip":9849,"2014":9850,"Ġinvestigar":9851,"ÃŃv":9852,"Ġmadri":9853,"PO":9854,"Ġdependencia":9855,"entamente":9856,"idado":9857,"ĠespecÃŃfica":9858,"Ġaficionados":9859,"Ġacontecimientos":9860,"inarios":9861,"ĠeliminaciÃ³n":9862,"Ġodio":9863,"ucho":9864,"Ġmotores":9865,"rico":9866,"ĠCapital":9867,"tab":9868,"Ġ49":9869,"Ġcomidas":9870,"Ġsuficientes":9871,"Ġansiedad":9872,"Ġpagina":9873,"Ġatraves":9874,"Ġprocl":9875,"Ġdescubierto":9876,"for":9877,"jeje":9878,"Ġprecisa":9879,"ĠProfesional":9880,"rimonio":9881,"Ġhogares":9882,"Ġcastellano":9883,"Ġdisput":9884,"idra":9885,"Ġocurrir":9886,"ĠFrente":9887,"Ġprendas":9888,"taban":9889,"ĠMÃºsica":9890,"ĠSp":9891,"Ġrespaldo":9892,"ĠSitio":9893,"Ġdedica":9894,"Ġpatro":9895,"Ġpudieran":9896,"ĠespecÃŃficas":9897,"Somos":9898,"risto":9899,"Ġcolabora":9900,"ĠHabana":9901,"Ġtoler":9902,"Ġatac":9903,"ĠOp":9904,"Ġimpulso":9905,"Ġemble":9906,"rocar":9907,"%)":9908,"Ġdevolver":9909,"ĠsentÃŃa":9910,"ĠserÃŃan":9911,"Ġcria":9912,"Ġnecesito":9913,"Ġmonto":9914,"Ġcoger":9915,"ĠsÃŃmbolo":9916,"cap":9917,"Ġrecaud":9918,"Ġestablecidos":9919,"ondas":9920,"ĠExcel":9921,"Ġespecializado":9922,"Ġsuministro":9923,"jeras":9924,"Ġcaballo":9925,"ĠSomos":9926,"cons":9927,"Ġnomin":9928,"Ġejecut":9929,"cr":9930,"Ġricos":9931,"ĠGuadal":9932,"Ġlistado":9933,"Ġmand":9934,"Ġvivido":9935,"versiÃ³n":9936,"trop":9937,"Ġapla":9938,"venido":9939,"uerta":9940,"Ġproveedor":9941,"ĠWorld":9942,"cargar":9943,"ĠRespon":9944,"lig":9945,"Ġexcelencia":9946,"Ġdeterminados":9947,"sung":9948,"!,":9949,"Ġacumul":9950,"ĠclÃ¡sicos":9951,"ĠoraciÃ³n":9952,"Ġpoquito":9953,"ucar":9954,"Ġraro":9955,"Ġequivalente":9956,"Ġconocemos":9957,"ĠPA":9958,"gi":9959,"ĠpareciÃ³":9960,"Ġcuentos":9961,"ĠobstÃ¡":9962,"Ġconvivencia":9963,"ĠTecnologÃŃa":9964,"Ġmetas":9965,"Ġfes":9966,"ĠcontarÃ¡":9967,"Ġmadrugada":9968,"Ġllevaron":9969,"Ġdemon":9970,"Ġeco":9971,"Ġpaga":9972,"Ġexcepcional":9973,"ledo":9974,"Ġminim":9975,"uez":9976,"ĠBio":9977,"Ġfavorito":9978,"Ġpostura":9979,"ĠÃ©stas":9980,"ĠNeces":9981,"mico":9982,"Ġconstruido":9983,"Ġindispens":9984,"Ġpracticar":9985,"ĠSER":9986,"Ġyou":9987,"ĠCin":9988,"Ġevolu":9989,"ĠUniversitario":9990,"ĠJames":9991,"Ġlargas":9992,"Ġintentando":9993,"Ġgato":9994,"Ġbasta":9995,"ml":9996,"Ġdescenso":9997,"Ġrecoge":9998,"Ġheridas":9999,"Ġcamiseta":10000,"Ante":10001,"Ġcausar":10002,"ÃŃctor":10003,"Ġbaile":10004,"Ġcontinente":10005,"Ġguitarra":10006,"Ġencanto":10007,"Ġrealizaron":10008,"Ġentien":10009,"Ġfrust":10010,"vida":10011,"Ġrelacionada":10012,"âĨ":10013,"Ġenviado":10014,"rena":10015,"guardia":10016,"ĠGro":10017,"Ġescog":10018,"Ġandal":10019,"ĠAnte":10020,"Ġresultar":10021,"Ġsolid":10022,"Ġune":10023,"Ġlac":10024,"ĠDES":10025,"ĠtrÃ¡nsito":10026,"Ġtalla":10027,"Ġtribunal":10028,"Ġapo":10029,"cm":10030,"Ġsmartph":10031,"Ġreino":10032,"Ġconfes":10033,"lim":10034,"ĠLibro":10035,"Ġprestar":10036,"ĠOctubre":10037,"Ġsuficientemente":10038,"ĠLibre":10039,"ĠGust":10040,"Ġhabido":10041,"Ġgrues":10042,"Ġdelantero":10043,"Ġirregular":10044,"ĠGuardia":10045,"Ġexpresar":10046,"Bus":10047,"ata":10048,"FOR":10049,"Ġcaracteriza":10050,"ĠconfirmÃ³":10051,"Ġfresco":10052,"Ġsalsa":10053,"Â±":10054,"Ġfascin":10055,"Ġnaciones":10056,"ĠcontaminaciÃ³n":10057,"2013":10058,"Ġelector":10059,"hael":10060,"Ġcuota":10061,"Bar":10062,"Ġcaball":10063,"ĠreproducciÃ³n":10064,"lantes":10065,"Ġtraslado":10066,"Ġamenazas":10067,"Ġtranquila":10068,"daje":10069,"Ġsilla":10070,"gena":10071,"Ġestamp":10072,"Ġimpulsar":10073,"ĠForo":10074,"Ġestando":10075,"Ġpart":10076,"ĠinclusiÃ³n":10077,"ĠgeogrÃ¡":10078,"Ġmono":10079,"ĠDen":10080,"Ã³micas":10081,"ADOR":10082,"Ġvea":10083,"ĠAlta":10084,"Ġ00":10085,"Ġespi":10086,"umer":10087,"Ġintu":10088,"Ã¡us":10089,"Ġcartera":10090,"Ġllevando":10091,"Ġcontempl":10092,"Ġpasta":10093,"eciendo":10094,"Ġcongel":10095,"ĠTro":10096,"ĠCiencia":10097,"Ġdejaron":10098,"ĠAdministra":10099,"ĠMarketing":10100,"Ġgeo":10101,"Ġvag":10102,"Ġtarifa":10103,"Ġhec":10104,"Ġaguan":10105,"ĠhuÃ©spe":10106,"Quer":10107,"Ġexplicado":10108,"ĠSenado":10109,"cones":10110,"inÃ³":10111,"Ġinmun":10112,"Ġdestinos":10113,"ĠProp":10114,"ĠHi":10115,"Ã¡ndola":10116,"Ġbrinda":10117,"Ġtransparencia":10118,"Ġreina":10119,"Ã³gica":10120,"Ġseco":10121,"Ġcae":10122,"Ġplaca":10123,"ĠAlicante":10124,"ĠAsia":10125,"Ġocta":10126,"ĠSantander":10127,"ĠapareciÃ³":10128,"Ġsurge":10129,"Ġben":10130,"Am":10131,"Ġamo":10132,"Ġtramo":10133,"Ġlargos":10134,"ĠpolicÃŃas":10135,"Ġaves":10136,"Ġrebaj":10137,"ÃŃncipe":10138,"ĠcelebrarÃ¡":10139,"Ġkilos":10140,"Ġ1999":10141,"Ġsentirse":10142,"Ġdisponer":10143,"inc":10144,"Ġby":10145,"esos":10146,"Ġdespren":10147,"ĠfotÃ³":10148,"ĠOscar":10149,"Ġelectricidad":10150,"ĠAlto":10151,"Ġpintar":10152,"ĠDistrito":10153,"ĠEmpresas":10154,"delo":10155,"urs":10156,"tega":10157,"ĠaÃ±adido":10158,"garon":10159,"Ġelaborado":10160,"Ġfeste":10161,"Ġdiabetes":10162,"ager":10163,"Ġabordar":10164,"tÃºan":10165,"iÃ©ndose":10166,"oli":10167,"Ġllamados":10168,"ejo":10169,"Ġhall":10170,"Ġfelices":10171,"Ġolvi":10172,"Ġrelevante":10173,"dÃŃan":10174,"ĠIS":10175,"Ġsello":10176,"tumbre":10177,"Ġcorporal":10178,"ursos":10179,"ĠpodrÃŃamos":10180,"cop":10181,"98":10182,"ificaciones":10183,"ÃŃmenes":10184,"Ġpersonalmente":10185,"Ġrepubl":10186,"ĠCalidad":10187,"Ġmineral":10188,"ĠnÂº":10189,"Ġtonos":10190,"Ġtin":10191,"Ġofreciendo":10192,"ĠNA":10193,"Ġvieja":10194,"izando":10195,"Ġestreno":10196,"ĠgarantÃŃas":10197,"ĠconducciÃ³n":10198,"Ġparada":10199,"Ġfracaso":10200,"Ġexcur":10201,"gnacio":10202,"ĠgustÃ³":10203,"CON":10204,"Soy":10205,"Ġdisfruta":10206,"ĠrenovaciÃ³n":10207,"Ġvueltas":10208,"ĠportÃ¡til":10209,"Ġechar":10210,"uido":10211,"ĠHuman":10212,"Ġrechazo":10213,"Ġasesoramiento":10214,"Ġarco":10215,"Ġcreciendo":10216,"Ġbiblioteca":10217,"ĠLAS":10218,"Ġrevistas":10219,"Fi":10220,"ĠSport":10221,"ĠTab":10222,"incl":10223,"Ġmaquillaje":10224,"ĠCity":10225,"Ã¡menes":10226,"Ġcancha":10227,"tÃ¡nea":10228,"digos":10229,"Ġbomba":10230,"Ã¡vez":10231,"ĠÃ¡mbitos":10232,"ĠGir":10233,"zcan":10234,"ĠRegiÃ³n":10235,"Ġvecino":10236,"clar":10237,"iertas":10238,"ĠhistÃ³ricos":10239,"Ġcristianos":10240,"ĠAcciÃ³n":10241,"izÃ³":10242,"ĠOtra":10243,"gancia":10244,"ĠcreÃ³":10245,"Ġcompetir":10246,"ĠLea":10247,"uyendo":10248,"Ġtorre":10249,"Ġalej":10250,"Ġejecutar":10251,"ĠSta":10252,"Ġcomplementar":10253,"Ġofens":10254,"Cas":10255,"Ġprogreso":10256,"Ġ85":10257,"Ġprecioso":10258,"Ġimportar":10259,"Ġ41":10260,"ÃŃso":10261,"enza":10262,"Ġparticularmente":10263,"cedes":10264,"Ġmasaje":10265,"ĠRuiz":10266,"ĠseÃ±alar":10267,"Ġgalard":10268,"usas":10269,"ĠHerman":10270,"ĠONU":10271,"Ġfarmac":10272,"ĠprÃ³":10273,"........":10274,"Ġvestidos":10275,"diales":10276,"Ġsoldados":10277,"Ġpesca":10278,"ĠNavarra":10279,"Ġluna":10280,"Ġprovocar":10281,"ecimiento":10282,"ĠSecretario":10283,"ĠinflaciÃ³n":10284,"Ġsigo":10285,"Ġpatrocin":10286,"Ã©ramos":10287,"Ġterrible":10288,"EE":10289,"Ġdormitorio":10290,"ĠGuillermo":10291,"Ġadh":10292,"Ġsalto":10293,"ĠMarco":10294,"Ġincent":10295,"zones":10296,"Ġsubsi":10297,"acciones":10298,"ĠIde":10299,"ĠAprende":10300,"Ġrecin":10301,"GB":10302,"Ġconsultas":10303,"ĠÃ¡cido":10304,"ĠRaÃºl":10305,"ENCIA":10306,"ĠCH":10307,"ĠNoviembre":10308,"itable":10309,"Ġfactura":10310,"pot":10311,"Ġafrontar":10312,"Ġfuimos":10313,"ĠcrÃŃtico":10314,"FA":10315,"Ġdiplom":10316,"Ġdignidad":10317,"Ġorganizada":10318,"Ġescoger":10319,"ĠRol":10320,"ĠRevoluciÃ³n":10321,"ĠDispon":10322,"ĠNor":10323,"Ġargumento":10324,"Ġrefleja":10325,"Ġhaberse":10326,"ĠincorporaciÃ³n":10327,"Ġsemillas":10328,"ĠPromo":10329,"ĠUtil":10330,"gnos":10331,"ĠExtre":10332,"ĠGen":10333,"Ġcurioso":10334,"ĠVo":10335,"Ġdetectar":10336,"Ġparad":10337,"Ġgubernam":10338,"ĠMaduro":10339,"ll":10340,"Ġvilla":10341,"Ġcuriosidad":10342,"terrÃ¡neo":10343,"ficit":10344,"Ġservidores":10345,"Ġhabia":10346,"ĠJur":10347,"Ġbau":10348,"SI":10349,"tificado":10350,"BO":10351,"ÃŃticas":10352,"Cor":10353,"Ġpersegu":10354,"Ġtuvimos":10355,"Ġabandonar":10356,"Ġimpre":10357,"ĠlesiÃ³n":10358,"ĠemisiÃ³n":10359,"ĠÃį":10360,"ĠraÃŃces":10361,"ĠLocal":10362,"ĠlanzÃ³":10363,"Ġliga":10364,"atorio":10365,"Ġautoma":10366,"ĠseparaciÃ³n":10367,"Ġnegativa":10368,"Ġpongo":10369,"Ġ800":10370,"Ġcompara":10371,"rosa":10372,"Ġafectar":10373,"Ġproductividad":10374,"icul":10375,"valuaciÃ³n":10376,"bimos":10377,"Ġfirmado":10378,"Ġdenominado":10379,"ĠmÃŃo":10380,"ĠAlfonso":10381,"CN":10382,"ĠZona":10383,"Tengo":10384,"Ġmanifestaciones":10385,"ĠUR":10386,"Ġcolectiva":10387,"vada":10388,"Ġsostuvo":10389,"Ġprofundi":10390,"ĠWi":10391,"ĠsufriÃ³":10392,"ĠAlonso":10393,"Ġterapia":10394,"Ġmensual":10395,"alista":10396,"Ġrutina":10397,"ĠBilbao":10398,"Ġgolpes":10399,"Ġfrutos":10400,"Ġculmin":10401,"endoza":10402,"ĠAustralia":10403,"ĠReserv":10404,"Ġdespre":10405,"ĠWilliam":10406,"ĠKe":10407,"Ġtemor":10408,"Ġideales":10409,"ĠSeguro":10410,"ciencia":10411,"ĠDivisiÃ³n":10412,"Ġfirmas":10413,"ajara":10414,"Ġcelebrado":10415,"Hemos":10416,"Pos":10417,"Ġnegativo":10418,"Ġimplement":10419,"Ġvivimos":10420,"Ġaprue":10421,"ture":10422,"Ġnegros":10423,"Ġcharla":10424,"Ġcreemos":10425,"ĠprÃ©stamos":10426,"iedades":10427,"Ġparro":10428,".:":10429,"Ġarru":10430,"ĠfrÃŃa":10431,"Ġterminal":10432,"itarÃ¡":10433,"ĠRelaciones":10434,"Ġcubano":10435,"2012":10436,"Ġoficio":10437,"eld":10438,"ĠLatinoamÃ©rica":10439,"ĠPie":10440,"Ġfrecuente":10441,"Ġocio":10442,"ĠseguirÃ¡":10443,"Ġpelota":10444,"ensor":10445,"ĠReci":10446,"ĠMaes":10447,"LAN":10448,"ĠTres":10449,"ĠconsideraciÃ³n":10450,"ĠEmpleo":10451,"ĠcuÃ¡ndo":10452,"Ġlateral":10453,"Ġdestinado":10454,"ĠGabriel":10455,"Tenemos":10456,"ĠcatalÃ¡n":10457,"onces":10458,"Ġabon":10459,"Ġcortar":10460,"ĠVictoria":10461,"ĠÃ¡ra":10462,"Ġverduras":10463,"recciÃ³n":10464,"Ġdada":10465,"Ġaudiovis":10466,"Or":10467,"Ġcarbono":10468,"Ġaventuras":10469,"Ġhielo":10470,"Ġinal":10471,"Ġencuesta":10472,"tables":10473,"itiva":10474,"Ġpistas":10475,"Ġagencias":10476,"Ġdiga":10477,"Ġmandar":10478,"Ġganancias":10479,"Ġfus":10480,"Ġautora":10481,"Ġislas":10482,"Ġparticipan":10483,"Ġpolicial":10484,"Ġviva":10485,"iertos":10486,"Ġduelo":10487,"Ġmutu":10488,"Ġbuc":10489,"comunicaciones":10490,"Ġmante":10491,"Na":10492,"entados":10493,"raba":10494,"Ġcontroles":10495,"ĠAzul":10496,"Ġprevis":10497,"Ġtemplo":10498,"Ġvigencia":10499,"oraciones":10500,"reza":10501,"Ġdeterminada":10502,"ĠentrÃ³":10503,"uelve":10504,"Ġbolsas":10505,"ilan":10506,"Ã¶":10507,"Ġincur":10508,"ĠbritÃ¡nico":10509,"ĠOtro":10510,"yeron":10511,"Ġquince":10512,"Ġincrementar":10513,"Ġviajeros":10514,"Ġquedo":10515,"Ġcultiv":10516,"Ġpapeles":10517,"uth":10518,"ĠGil":10519,"Ġexistente":10520,"ÃŃsica":10521,"Ġutilizada":10522,"TAN":10523,"ĠPenal":10524,"ĠIndustria":10525,"Ð¾Ð":10526,"Ġorgullo":10527,"Ġrepresentar":10528,"Ġafectan":10529,"ĠescÃ¡n":10530,"Ġpensaba":10531,"Ġmg":10532,"Ġcostumbre":10533,"Ġsecretos":10534,"Ġalerta":10535,"Ġapell":10536,"lero":10537,"Ġventanas":10538,"Sus":10539,"Ġparticipado":10540,"Ġvotar":10541,"Ġdesesper":10542,"my":10543,"Ġhayas":10544,"Ġdesigual":10545,"Ġmonstru":10546,"Ġsensibilidad":10547,"ĠOrg":10548,"Ġespiritu":10549,"Ġvidrio":10550,"Ġoeste":10551,"Ġdescribe":10552,"Ġaqu":10553,"Ġnotar":10554,"TM":10555,"Ġabiertas":10556,"Ġcredi":10557,"Ġdiarios":10558,"Ġsentidos":10559,"Ġsocialista":10560,"Ã¡z":10561,"Ġamigas":10562,"Ġescritorio":10563,"ĠenergÃ©tica":10564,"guna":10565,"enzo":10566,"Ġhablado":10567,"ĠLog":10568,"Fo":10569,"ĠLegisla":10570,"Ġinmigrantes":10571,"ĠSaludos":10572,"ĠPac":10573,"Ġconversaciones":10574,"olv":10575,"Ġpertin":10576,"ÃŃsimos":10577,"Ġbaratos":10578,"adilla":10579,"Ġtarifas":10580,"Ġsecundaria":10581,"Ġchino":10582,"Ġempleado":10583,"Ġjueces":10584,"ĠdestrucciÃ³n":10585,"quero":10586,"ĠrecordÃ³":10587,"Ġposiblemente":10588,"Ġtest":10589,"ribunales":10590,"Ġmier":10591,"INA":10592,"Ġrelatos":10593,"Ġcobre":10594,"Ġ64":10595,"ĠLO":10596,"Ġnub":10597,"Ġciencias":10598,"Ġinstalado":10599,"ĠÃģngeles":10600,"Ġlabores":10601,"69":10602,"Deb":10603,"eamente":10604,"Ġlitros":10605,"Bien":10606,"TAS":10607,"Ġpelic":10608,"Ġespecializados":10609,"IDA":10610,"ĠChÃ¡vez":10611,"Ġamarillo":10612,"Eso":10613,"Ġespejo":10614,"Ġpanel":10615,"damente":10616,"olas":10617,"ĠtenÃ©is":10618,"ĠUSB":10619,"Ġcostumb":10620,"Ġlago":10621,"adrid":10622,"Ġrecogida":10623,"Puede":10624,"Ġblogs":10625,"ĠcuÃ¡nto":10626,"Ġpulgadas":10627,"Ġsubida":10628,"ĠMira":10629,"Ġcaras":10630,"ĠresultÃ³":10631,"ĠPatri":10632,"Ġconlle":10633,"EstÃ¡":10634,"drome":10635,"ĠmÃ¡r":10636,"Ġrelevantes":10637,"Ġcobrar":10638,"ĠdepÃ³sito":10639,"Ġrespira":10640,"Ġdesactiv":10641,"ĠEnergÃŃa":10642,"tions":10643,"ĠpercepciÃ³n":10644,"Ġsuperviv":10645,"Ġcolectivos":10646,"Ġandar":10647,"Ġprioridad":10648,"ling":10649,"ĠmontaÃ±as":10650,"ĠPersonal":10651,"CC":10652,"cubre":10653,"Ġperpe":10654,"ĠclÃ¡sica":10655,"ĠMichael":10656,"Siempre":10657,"Ġargumentos":10658,"ĠSex":10659,"Ġevent":10660,"ĠBlog":10661,"ĠTenerife":10662,"Ġmencionado":10663,"Ġcuyas":10664,"Ġ1998":10665,"Ġdeportivas":10666,"ĠVÃŃctor":10667,"Ġego":10668,"pado":10669,"Ġfuturos":10670,"ĠmÃŃa":10671,"Ġcomunica":10672,"Ġvayan":10673,"ĠProductos":10674,"Ġusos":10675,"Ġmandato":10676,"ĠacabÃ³":10677,"cionario":10678,"Ġextrac":10679,"TRO":10680,"ĠFlores":10681,"ĠtenÃŃamos":10682,"ĠParti":10683,"Ġjurado":10684,"Ġdictadura":10685,"Ġsorprendente":10686,"Ġsolicitudes":10687,"Ġpresidencial":10688,"Ġpreciosa":10689,"rent":10690,"ĠIntro":10691,"ĠBlo":10692,"ĠllegarÃ¡":10693,"ĠLED":10694,"Ġvisible":10695,"Ġbode":10696,"Ġvariables":10697,"84":10698,"ĠmetodologÃŃa":10699,"tul":10700,"Ġenferm":10701,"Prim":10702,"irÃ¡n":10703,"Ġsufre":10704,"Ġmontar":10705,"ej":10706,"Ġpaciencia":10707,"Ġsienten":10708,"ĠtransiciÃ³n":10709,"Ġmedal":10710,"illar":10711,"ĠPsic":10712,"Ġmostrado":10713,"ĠResoluciÃ³n":10714,"Ġreducido":10715,"embol":10716,"Ã©sar":10717,"ĠtemÃ¡tica":10718,"ence":10719,"Ġneum":10720,"ther":10721,"Ġtengamos":10722,"ĠTre":10723,"ĠTÃ©cnico":10724,"Ġenve":10725,"GR":10726,"Ġnaranja":10727,"drÃ¡s":10728,"Ġmisterio":10729,"Ġfrances":10730,"Ġseguimos":10731,"Ġpescado":10732,"Ġlanzado":10733,"Ġcontienen":10734,"Ġmentir":10735,"ĠDoctor":10736,"Ġfinancieras":10737,"ĠIgnacio":10738,"uncias":10739,"Ġinscrib":10740,"ĠHugo":10741,"ZA":10742,"89":10743,"tea":10744,"press":10745,"ĠestÃ¡ndares":10746,"hum":10747,"iciosa":10748,"ĠEvan":10749,"ĠautobÃºs":10750,"Ġasegurado":10751,"Ġinfantiles":10752,"ĠOriente":10753,"ĠIndustrial":10754,"Ġdefecto":10755,"ĠCampeonato":10756,"ĠEsco":10757,"ĠMAR":10758,"tuvieron":10759,"ĠRef":10760,"dela":10761,"Ġriv":10762,"Ġruso":10763,"Ġapreciar":10764,"Ã±e":10765,"POR":10766,"ĠFranco":10767,"Ġtraje":10768,"Ġsentimos":10769,"Ġcalcul":10770,"Ġindican":10771,"ĠperfecciÃ³n":10772,"ĠXXI":10773,"ĠdesafÃŃo":10774,"ĠprÃ¡ctico":10775,"ĠCL":10776,"ĠartÃŃstica":10777,"Ġtrataba":10778,"olvid":10779,"Ġpresidencia":10780,"ĠMesa":10781,"ĠteÃ³r":10782,"adi":10783,"Ġcolegios":10784,"Ġsimples":10785,"Ġchar":10786,"ĠPresu":10787,"Ġsana":10788,"Ġligeramente":10789,"ĠCorea":10790,"Ġfemenina":10791,"Ġconstituyen":10792,"atch":10793,"bano":10794,"ĠCAR":10795,"Ġmandatario":10796,"lid":10797,"Ġabuso":10798,"Ġtapa":10799,"Ġdeter":10800,"Ġemis":10801,"Ġsufren":10802,"Ġantiguas":10803,"endiÃ³":10804,"Ġblancos":10805,"Ġarries":10806,"tita":10807,"gio":10808,"Ġelaborar":10809,"Publicado":10810,"Ġfacilita":10811,"ĠPes":10812,"untamente":10813,"ĠConce":10814,"Ġprotesta":10815,"Ġvideojuegos":10816,"Ġadquier":10817,"87":10818,"Ġaman":10819,"ĠproteÃŃnas":10820,"ĠEllos":10821,"ĠGuti":10822,"uis":10823,"Ġocasion":10824,"htt":10825,"ĠpatrÃ³n":10826,"fice":10827,"Ã¡mb":10828,"uliar":10829,"ĠSÃ¡":10830,"Ġencuentre":10831,"gÃ¼edad":10832,"ĠAnuncios":10833,"Ġquinto":10834,"ĠhacÃŃan":10835,"Imp":10836,"igma":10837,"Ġnecesariamente":10838,"Ġclick":10839,"ĠMy":10840,"ĠDominicana":10841,"ĠTanto":10842,"ĠparÃ¡metros":10843,"Ġonce":10844,"Ġconsigo":10845,"aragua":10846,"ĠdisminuciÃ³n":10847,"win":10848,"dura":10849,"Ġligero":10850,"ĠEstra":10851,"Ġagricultura":10852,"ĠHal":10853,"Ġresponsabilidades":10854,"ĠFÃºtbol":10855,"Ġclaras":10856,"Ġecos":10857,"ĠSexo":10858,"ĠcelebrÃ³":10859,"Ã³lico":10860,"ĠestadÃŃsticas":10861,"ĠintroducciÃ³n":10862,"Ġlavado":10863,"Ġexcepto":10864,"!.":10865,"Ġsingular":10866,"orcio":10867,"ĠcontraseÃ±a":10868,"Ġsemin":10869,"Ġtuviera":10870,"Ġconfec":10871,"ĠhipÃ³":10872,"BRE":10873,"Ġbarrios":10874,"Ġromp":10875,"Ġtestimonio":10876,"ÃŃes":10877,"Ġdefien":10878,"sex":10879,"ÃŃdas":10880,"Ġfruta":10881,"Ġprecip":10882,"ĠfundaciÃ³n":10883,"Ġincorpora":10884,"ĠmÃºsicos":10885,"Ã©ticas":10886,"ule":10887,"ĠDonald":10888,"Ġhabituales":10889,"Ġcumplen":10890,"cuenta":10891,"ĠGafas":10892,"Ġlanza":10893,"Ġcuantas":10894,"undamente":10895,"uche":10896,"teria":10897,"eth":10898,"ĠCanal":10899,"Ġharina":10900,"ĠPatrimonio":10901,"Ġsimpl":10902,"ĠAgua":10903,"ĠCampo":10904,"ĠFeder":10905,"Ġabord":10906,"racciÃ³n":10907,"ĠED":10908,"cidades":10909,"ben":10910,"Ġmini":10911,"Ġagrup":10912,"300":10913,"ĠJard":10914,"Ġ--":10915,"Ã±Ã³n":10916,"ĠdimensiÃ³n":10917,"ĠPros":10918,"Ġcasco":10919,"Ġanuales":10920,"ony":10921,"sea":10922,"ult":10923,"Ġimplementar":10924,"Ġtesis":10925,"Ġrepeti":10926,"Ġcondena":10927,"Ġke":10928,"ĠCoci":10929,"uelva":10930,"Ġimponer":10931,"Ġalcanzado":10932,"Ġesposo":10933,"ĠgastronomÃŃa":10934,"ĠBay":10935,"Ġreivin":10936,"Ġhabita":10937,"Ġmaravillosa":10938,"ester":10939,"letÃŃn":10940,"ĠAri":10941,"efacciÃ³n":10942,"tock":10943,"Ġdeterminadas":10944,"Ġprocesamiento":10945,"camos":10946,"din":10947,"Ġcomplement":10948,"Ġdesarrollando":10949,"ĠSho":10950,"eck":10951,"Ġincluida":10952,"ianas":10953,"Ġedades":10954,"Ġabiertos":10955,"tensiÃ³n":10956,"timas":10957,"ĠDocu":10958,"Ġgravedad":10959,"Ġvers":10960,"Ġtoman":10961,"Ġdisminuir":10962,"ĠAdri":10963,"Ġclan":10964,"PI":10965,"ĠharÃŃa":10966,"Ġsabido":10967,"ĠCÃ¡diz":10968,"Ġleyenda":10969,"ĠNego":10970,"Ġdivertida":10971,"Ġconozco":10972,"Dos":10973,"Ġresidentes":10974,"ĠhectÃ¡":10975,"alismo":10976,"Ġademas":10977,"ĠSupremo":10978,"Ġverdaderamente":10979,"enciado":10980,"Ġinteriores":10981,"ĠRock":10982,"Ġjurisdic":10983,"Ġinesper":10984,"ĠalgodÃ³n":10985,"Ġpeculiar":10986,"ĠpÃ¡":10987,"Ġdeclarado":10988,"bert":10989,"Ġtac":10990,"Ġlluvias":10991,"Ġimpedir":10992,"Ġlogro":10993,"Ġcuartos":10994,"ĠautomÃ¡tica":10995,"sor":10996,"Ġadvir":10997,"Ã©sticos":10998,"Val":10999,"Ġquir":11000,"Ġperjuicio":11001,"Ġconfirmar":11002,"ĠMauri":11003,"ĠMendoza":11004,"Ġdirigente":11005,"ĠcomercializaciÃ³n":11006,"Ġremon":11007,"Ġmarcador":11008,"Ġdas":11009,"oya":11010,"ĠRay":11011,"Ġconocidas":11012,"ĠparticipÃ³":11013,"ĠOne":11014,"ĠplÃ¡st":11015,"ĠmanifestaciÃ³n":11016,"ifi":11017,"Ġmanz":11018,"Ġcinemato":11019,"Ġelimina":11020,"Ġatacar":11021,"lace":11022,"Ġcaro":11023,"Ġsigno":11024,"ĠliberaciÃ³n":11025,"ĠBri":11026,"Ġdecenas":11027,"Ġalianza":11028,"Ġvivos":11029,"cista":11030,"ĠFinalmente":11031,"Ġconsa":11032,"cionalmente":11033,"ĠdÃ©ficit":11034,"ĠMarcos":11035,"ĠCR":11036,"Ġllegamos":11037,"Ġescritos":11038,"Ġbacter":11039,"Ġvestir":11040,"angel":11041,"ortunadamente":11042,"Ġwebs":11043,"Ġvaso":11044,"Ġgeneran":11045,"Ġinsegu":11046,"Ġfuncionan":11047,"Ġhun":11048,"Ġdepartamentos":11049,"ĠDiputaciÃ³n":11050,"Ġtejidos":11051,"ĠRaj":11052,"Ġintr":11053,"ĠdepresiÃ³n":11054,"Ġindemn":11055,"Ġlimitado":11056,"garÃ¡":11057,"ĠVamos":11058,"ÃŃnsula":11059,"Ġsonidos":11060,"Ġregistrar":11061,"Ġcopa":11062,"Ġmortal":11063,"Ġfrecuentes":11064,"ĠdÃ³lar":11065,"Ġgigante":11066,"ĠfÃ¡ciles":11067,"Ġclubes":11068,"Ġhisp":11069,"Ġkg":11070,"Ġcura":11071,"Ġaparatos":11072,"Ġatm":11073,"uyen":11074,"ãĥ":11075,"ĠPueblo":11076,"VD":11077,"Ġbrillo":11078,"Ġtea":11079,"Ġche":11080,"mado":11081,"JO":11082,"Ġindicar":11083,"ĠelÃ©ctricos":11084,".....":11085,"Ġclaridad":11086,"ezcan":11087,"ĠOcci":11088,"hh":11089,"ija":11090,"Ġsuena":11091,"Ġprovis":11092,"celo":11093,"Ġinconven":11094,"Ġfunda":11095,"JA":11096,"Ġsalga":11097,"Ġinternos":11098,"ĠSalÃ³n":11099,"ĠAlgunas":11100,"ĠextraÃ±a":11101,"ĠMadre":11102,"Ġincorporar":11103,"Ġvenezolano":11104,"rimas":11105,"ĠBat":11106,"ĠJimÃ©nez":11107,"ĠproyecciÃ³n":11108,"Ġvuelven":11109,"ĠingenierÃŃa":11110,"ĠArquitec":11111,"Ġfundament":11112,"Ġexce":11113,"ĠvenÃŃa":11114,"ĠHel":11115,"Ãºme":11116,"Ġrefres":11117,"Ġdedo":11118,"Ġinclus":11119,"nia":11120,"Ã±ad":11121,"guera":11122,"Ġcens":11123,"ĠrehabilitaciÃ³n":11124,"tiquetas":11125,"ĠinteracciÃ³n":11126,"ĠposesiÃ³n":11127,"arquÃŃa":11128,"Ġapasion":11129,"Ġconferencias":11130,"trico":11131,"Ġpresi":11132,"Pas":11133,"ĠRich":11134,"Ġtrascen":11135,"Ġguarda":11136,"Ġmultiplic":11137,"ding":11138,"Ġfama":11139,"Ġzo":11140,"ĠPrimero":11141,"ASA":11142,"ĠclimÃ¡tico":11143,"uar":11144,"Ġterritorios":11145,"Ġ52":11146,"Ġrentabilidad":11147,"otas":11148,"Ġcombinar":11149,"Ġtestigos":11150,"eja":11151,"omosex":11152,"Ġacar":11153,"ĠampliaciÃ³n":11154,"Ġciudadana":11155,"toras":11156,"buen":11157,"ĠtrÃ¡mite":11158,"Ġdiscur":11159,"ecÃŃan":11160,"CD":11161,"Ġenormes":11162,"ĠSAN":11163,"ax":11164,"Ġfamosos":11165,"mio":11166,"ĠFamilia":11167,"Ġpudiendo":11168,"ĠPU":11169,"Ġvicepresidente":11170,"Ġester":11171,"Ġcontado":11172,"Ġtratados":11173,"Fran":11174,"Ġexquis":11175,"lera":11176,"iler":11177,"ĠJudicial":11178,"Ġavenida":11179,"fia":11180,"ĠprevÃ©":11181,"ĠEstatal":11182,"Ġindirec":11183,"Ã¡zquez":11184,"Gran":11185,"Ġperfiles":11186,"Ġcostumbres":11187,"cionada":11188,"Ġboliv":11189,"ĠespecÃŃficamente":11190,"Ġasiento":11191,"clo":11192,"questa":11193,"ĠDem":11194,"Ġsupermer":11195,"kes":11196,"ficar":11197,"ĠBach":11198,"tens":11199,"Ġvariable":11200,"Can":11201,"Ġsensaciones":11202,"Ġleve":11203,"ĠObama":11204,").-":11205,"ĠUb":11206,"ĠOpera":11207,"Ġmueve":11208,"Ġmolesti":11209,"Ã¡nicos":11210,"Ġobtiene":11211,"ĠAlgo":11212,"ĠalcanzÃ³":11213,"Ġverte":11214,"Ġmantuvo":11215,"Ġacusado":11216,"Ġsorteo":11217,"Ġambi":11218,"ĠWh":11219,"Ã¡ster":11220,"Ġmaltra":11221,"Ġgerente":11222,"86":11223,"lega":11224,"Ġdid":11225,"ĠSor":11226,"ĠdiversiÃ³n":11227,"Ġgesto":11228,"Ġexperimentar":11229,"tex":11230,"ĠSigue":11231,"enciana":11232,"ls":11233,"ĠLuz":11234,"ĠcÃ¡lculo":11235,"ĠTaller":11236,"Ġlento":11237,"organ":11238,"Ġrespetar":11239,"Ġalrededores":11240,"ĠgrabaciÃ³n":11241,"olar":11242,"Ġambientales":11243,"Ġviaj":11244,"Ġvalorar":11245,"ĠdetenciÃ³n":11246,"Ġculturas":11247,"Ġentretenimiento":11248,"ĠAses":11249,"Ġdesapareci":11250,"fac":11251,"ĠencontrÃ©":11252,"vir":11253,"Ġrelativamente":11254,"Ġaprendido":11255,"Ġgrabar":11256,"Ġsalarios":11257,"Ġderivados":11258,"Ġcalific":11259,"ĠcapitÃ¡n":11260,"abra":11261,"itis":11262,"Ġemisiones":11263,"Ġtransmi":11264,"Ġinolvid":11265,"VE":11266,"Ġdemandas":11267,"ĠMax":11268,"ĠFan":11269,"ĠConten":11270,"Ġgigantes":11271,"Ġdiscul":11272,"ĠCapa":11273,"Ġvencer":11274,"Ġtransforma":11275,"Ã©rrez":11276,"Ġconcejal":11277,"ĠFrank":11278,"Ġconclusiones":11279,"Ġbordo":11280,"Ġflam":11281,"Ġresistente":11282,"Porque":11283,"ĠBiblioteca":11284,"Ġposteriores":11285,"Ġbeber":11286,"Ġdirecciones":11287,"plica":11288,"Ġjuvenil":11289,"Ġgiro":11290,"400":11291,"ortuna":11292,"ĠPens":11293,"Ġperjud":11294,"ĠPap":11295,"ĠResta":11296,"Ġcomponente":11297,"Ġamericano":11298,"Ġpromociones":11299,"fecto":11300,"ĠnÃºcleo":11301,"gramas":11302,"79":11303,"Ġfronteras":11304,"igan":11305,"ĠgalerÃŃa":11306,"ĠÃģrea":11307,"ĠautÃ©ntico":11308,"ĠlegÃŃ":11309,"Ġsemi":11310,"ĠSelecciÃ³n":11311,"76":11312,"ĠIgual":11313,"Ġpasaba":11314,"ĠCÃ©sar":11315,"Ġcentrales":11316,"vÃ¡n":11317,"andante":11318,"ĠHemos":11319,"Ġdescubrimiento":11320,"Ġjardines":11321,"Tube":11322,"Ġlee":11323,"Ġestupen":11324,"Ġavanzado":11325,"ĠWhats":11326,"Cam":11327,"Ġcro":11328,"ĠcertificaciÃ³n":11329,"Ġrepente":11330,"trando":11331,"ĠSamsung":11332,"ĠChi":11333,"Ġnegociaciones":11334,"Ġterrenos":11335,"dujo":11336,"certid":11337,"Ġreduc":11338,"Ġhicimos":11339,"uu":11340,"Ġexpediente":11341,"Ġhechas":11342,"eme":11343,"Ġensal":11344,"Ġdiagnos":11345,"Ġexpuls":11346,"mia":11347,"Ġpresupuestos":11348,"ĠJoaqu":11349,"Ġquinta":11350,"Jos":11351,"ĠLar":11352,"Ġinterrump":11353,"Ġtitulado":11354,"Ġbrind":11355,"Ġcaza":11356,"ĠinvitaciÃ³n":11357,"ĠGrande":11358,"ĠObje":11359,"amora":11360,"Ġpollo":11361,"****":11362,"Ġjuntas":11363,"dest":11364,"Ġcolaboradores":11365,"Ġpelea":11366,"Ġafuera":11367,"JE":11368,"ricas":11369,"Ġacorde":11370,"Ġpop":11371,"ubo":11372,"Ġcolaborar":11373,"ĠPÃºblicas":11374,"esto":11375,"faz":11376,"ciado":11377,"ÃŃrez":11378,"exo":11379,"ĠSha":11380,"amanca":11381,"Actualmente":11382,"Ġwith":11383,"ĠZapatos":11384,"ĠAcces":11385,"Ġescolares":11386,"ĠdevoluciÃ³n":11387,"Ġmadrile":11388,"cÃŃas":11389,"Ġinev":11390,"Ġllor":11391,"Ġbolsillo":11392,"Ġencontraron":11393,"Ġhuelga":11394,"esen":11395,"Ġapete":11396,"ĠStu":11397,"ĠStre":11398,"ĠEp":11399,"Ġvenden":11400,"Ġbis":11401,"Ġbella":11402,"Ġvs":11403,"ĠBiblia":11404,"Ġvuelva":11405,"ĠconocÃŃa":11406,"ĠDin":11407,"letos":11408,"Ġfijo":11409,"Ġdisfrute":11410,"illones":11411,"ĠEscri":11412,"riles":11413,"Ġ56":11414,"Ġsanciones":11415,"Ġhacerle":11416,"Ġfla":11417,"Ġcolonia":11418,"ĠvotaciÃ³n":11419,"ĠNada":11420,"acruz":11421,"Ġ99":11422,"âĨĳ":11423,"Ġape":11424,"ĠÃģlvarez":11425,"Ġpuse":11426,"ĠatmÃ³s":11427,"ĠcÃ³m":11428,"ĠTI":11429,"Ġllevamos":11430,"itco":11431,"idurÃŃa":11432,"Ġregionales":11433,"fol":11434,"Ġdescubre":11435,"Ġestuviera":11436,"ĠJefe":11437,"Ġpetrol":11438,"Ã¡ndome":11439,"zco":11440,"apar":11441,"Ġdispuestos":11442,"Ġsuspen":11443,"NI":11444,"ĠtÃŃpico":11445,"Ġ1000":11446,"Ġlinea":11447,"ĠgrÃ¡ficos":11448,"Ġcoher":11449,"Ġhere":11450,"Ġnavegar":11451,"2011":11452,"Ġpresentaron":11453,"Ġincidencia":11454,"Ġizquierdo":11455,"iriÃ³":11456,"Ġfundador":11457,"Ġcompartido":11458,"onÃŃa":11459,"ĠRES":11460,"Ġviejos":11461,"ĠTiempo":11462,"Ġnube":11463,"ĠverÃ¡":11464,"ĠInnov":11465,"Ġmales":11466,"Ġconfort":11467,"olos":11468,"Ġvieron":11469,"Ġvapor":11470,"puestamente":11471,"Ġasust":11472,"Ġrurales":11473,"Ġagru":11474,"terno":11475,"onde":11476,"Ġensayo":11477,"Ġnovedad":11478,"Ġcompromisos":11479,"Ġpapa":11480,"Ġpastel":11481,"guas":11482,"Ġhospitales":11483,"ĠinfecciÃ³n":11484,"Ġcircular":11485,"Ġrescate":11486,"uertos":11487,"tano":11488,"Ġdesconocido":11489,"Ġpasaron":11490,"Cal":11491,"ÃŃe":11492,"Ġpensiones":11493,"Ġdetenidos":11494,"aster":11495,"Ġsustan":11496,"Ġintensa":11497,"Ġescucha":11498,"ĠÃ©tica":11499,"Ġdescri":11500,"Ġluminos":11501,"ĠToledo":11502,"iaria":11503,"Ġindicadores":11504,"Ġadministrativa":11505,"ĠRecursos":11506,"Ġrelativa":11507,"Ġjudiciales":11508,"Ġmanteniendo":11509,"cera":11510,"piro":11511,"Ġadmir":11512,"ĠreconociÃ³":11513,"ĠRomero":11514,"ĠquedarÃ¡":11515,"Ġcadenas":11516,"ĠMiami":11517,"alladolid":11518,"ator":11519,"ĠhuÃ©spedes":11520,"ĠpensÃ©":11521,"DD":11522,"macia":11523,"ĠMancha":11524,"entre":11525,"ternidad":11526,"Ġdemues":11527,"ĠdiscriminaciÃ³n":11528,"logÃŃas":11529,"Ġpresentaciones":11530,"Ġhard":11531,"tificar":11532,"Ġdespertar":11533,"nar":11534,"Ġempe":11535,"inf":11536,"ĠSI":11537,"ĠClÃŃn":11538,"ĠMarina":11539,"Ġcastillo":11540,"ĠApar":11541,"Ġvalle":11542,"Ġascenso":11543,"Ġdecis":11544,"Ġeng":11545,"Ġartificial":11546,"eral":11547,"Ġdesgas":11548,"Ġdanza":11549,"tif":11550,"caba":11551,"Ġesquema":11552,"ĠMej":11553,"ĠVa":11554,"Ġinstan":11555,"EspaÃ±a":11556,"ĠMercedes":11557,"Ġexigir":11558,"Ġpiensan":11559,"ĠcapÃŃtulos":11560,"ĠÃ¡ngel":11561,"ĠVill":11562,"Ġcapas":11563,"ĠCro":11564,"Ġhomosex":11565,"Ġrestric":11566,"Ġ....":11567,"Ġgenerado":11568,"Ġonda":11569,"ĠEgip":11570,"ĠvÃŃnculo":11571,"carga":11572,"tividades":11573,"hal":11574,"guÃ©s":11575,"ĠApo":11576,"ige":11577,"ĠsÃ©pti":11578,"ĠviolaciÃ³n":11579,"ENTA":11580,"oraciÃ³n":11581,"Ġactualizar":11582,"ĠGustavo":11583,"dista":11584,"Ġportada":11585,"Ġencontrarse":11586,"Ġconscientes":11587,"Ġexhib":11588,"ĠVerde":11589,"Ġamante":11590,"lana":11591,"ĠCerv":11592,"ĠmotivaciÃ³n":11593,"Ġimprimir":11594,"PR":11595,"Ġadaptar":11596,"Ġgatos":11597,"ets":11598,"ĠPalma":11599,"Ġinterro":11600,"tines":11601,"ĠAlfre":11602,"Ġcomplemento":11603,"Ġalemana":11604,"muy":11605,"Ġvisitante":11606,"Ġfranqu":11607,"ĠFuente":11608,"Ġurbana":11609,"Ġrecinto":11610,"ĠGRA":11611,"ĠGuÃŃa":11612,"Ġradi":11613,"Ġing":11614,"ĠJaime":11615,"ĠsiguiÃ³":11616,"ĠAlb":11617,"figu":11618,"anim":11619,"56":11620,"ĠdiseÃ±ar":11621,"Ġsalidas":11622,"ford":11623,"ĠSeptiembre":11624,"Ġhuevo":11625,"lorca":11626,"Ġconsumir":11627,"Ġrefrig":11628,"dones":11629,"Ġpaisajes":11630,"Ġincertid":11631,"low":11632,"vila":11633,"ĠSelec":11634,"Ġurgente":11635,"Ġincons":11636,"Ġabus":11637,"anti":11638,"ĠInglÃ©s":11639,"Ġcargar":11640,"ĠApro":11641,"ĠChica":11642,"Pr":11643,"ĠâĢĿ":11644,"ĠhÃºme":11645,"ionistas":11646,"Ã³ma":11647,"Ġregula":11648,"âĢĺ":11649,"TIC":11650,"Ġsufrimiento":11651,"ĠRajoy":11652,"Ġsensor":11653,"ometra":11654,"Ab":11655,"tear":11656,"jidad":11657,"Ġreligiosa":11658,"oper":11659,"turadora":11660,"idencial":11661,"ĠSA":11662,"ĠTampoco":11663,"Ġquie":11664,"Ġpresentada":11665,"ĠDemoc":11666,"ĠðŁĺ":11667,"Ġsupera":11668,"Ġpedidos":11669,"char":11670,"Ġunir":11671,"ĠGuadalajara":11672,"Ġnovelas":11673,"orada":11674,"yu":11675,"visor":11676,"lÃ¡n":11677,"ĠSistemas":11678,"Ġsensible":11679,"Ġposeen":11680,"Ġestatales":11681,"Ġoccidental":11682,"ucristo":11683,"Ġsostiene":11684,"Ġantecedentes":11685,"Ġjuguetes":11686,"ĠStor":11687,"Ġadministrativo":11688,"Ġsatisfac":11689,"ĠrÃ©cord":11690,"ĠEscorts":11691,"ĠPRE":11692,"59":11693,"Ġretorno":11694,"ĠRevista":11695,"ÃŃgenes":11696,"of":11697,"ividad":11698,"Ġvengan":11699,"book":11700,"ĠGutiÃ©rrez":11701,"ĠDirectiva":11702,"ION":11703,"iss":11704,"ania":11705,"Ġjunta":11706,"ĠCatÃ³lica":11707,"Ġcomparte":11708,"iÃ¡n":11709,"Ġbarro":11710,"Ġcontinuo":11711,"uco":11712,"Ġrecibieron":11713,"Ġdesean":11714,"Ġavanzada":11715,"iciembre":11716,"Ġmantenerse":11717,"Ġexplorar":11718,"Ġreconocida":11719,"Pe":11720,"Tal":11721,"iaciones":11722,"Ġaclarar":11723,"ĠencontrarÃ¡":11724,"Ġpoblaciones":11725,"Ġquedando":11726,"mun":11727,"Ġrealizarse":11728,"ampa":11729,"Ġsar":11730,"Inicio":11731,"ander":11732,"igas":11733,"colas":11734,"ĠPÃ¡gina":11735,"Ġformatos":11736,"adÃ¡ver":11737,"Ġinto":11738,"Ġheridos":11739,"tent":11740,"ficientes":11741,"ĠtÃ¡c":11742,"Ġfacebook":11743,"Ġfavorita":11744,"ĠmÃºsculos":11745,"Ġparale":11746,"Ġcorriendo":11747,"Ġpositivos":11748,"ĠpÃ¡rrafo":11749,"uelta":11750,"Ġcitado":11751,"ĠGratis":11752,"Ġmolde":11753,"AA":11754,"Ġcortos":11755,"resa":11756,"Ġ180":11757,"Ġtram":11758,"ĠEnfer":11759,"Ġnarco":11760,"Ġib":11761,"Ġlocalidades":11762,"Ġencantado":11763,"ĠbebÃ©s":11764,"--------":11765,"Ġmedias":11766,"ĠArgent":11767,"ĠNicaragua":11768,"Ġsospech":11769,"Ġopos":11770,"Ġtubo":11771,"Ġsuspendi":11772,"Ġescritores":11773,"Ġefectivos":11774,"Ġsaque":11775,"Ġinteligentes":11776,"tizado":11777,"queros":11778,"Ġrebo":11779,"Ġcualidades":11780,"tti":11781,"izas":11782,"Ã©dito":11783,"Ġdenuncias":11784,"ĠdueÃ±os":11785,"Ġhijas":11786,"Ã²":11787,"ĠAgust":11788,"Ġdesarrollan":11789,"Ġretirar":11790,"Ġsera":11791,"ĠObserv":11792,"Ġ1997":11793,"ĠRamÃŃrez":11794,"Ġsupo":11795,"ness":11796,"Ġafectado":11797,"ÂĶ":11798,"ĠCompaÃ±":11799,"Ġabsur":11800,"ĠRen":11801,"Ġcamas":11802,"ĠWa":11803,"obo":11804,"ĠMotor":11805,"Ġpresupues":11806,"ocar":11807,"tte":11808,"ĠTrad":11809,"egr":11810,"Ġcompuesta":11811,"Ġtransparente":11812,"Ġrecomendar":11813,"ecuciÃ³n":11814,"Ġnormales":11815,"eses":11816,"Ġtradiciones":11817,"Ġcompatible":11818,"Ġsangu":11819,"ĠdesafÃŃos":11820,"Mon":11821,"Ġespectadores":11822,"Ġdeportivos":11823,"Ġlev":11824,"Ġdescansar":11825,"ĠgrÃ¡fica":11826,"idro":11827,"quita":11828,"ĠtecnolÃ³gica":11829,"Ġmelo":11830,"IENTO":11831,"Ġvistazo":11832,"Ġpasamos":11833,"ioneros":11834,"gador":11835,"Ġotorga":11836,"Ġgimnasio":11837,"ĠTama":11838,"Ġconsiderada":11839,"ĠrestauraciÃ³n":11840,"Ġlindo":11841,"ĠhectÃ¡reas":11842,"Ġrevela":11843,"Ġpublicados":11844,"Ġloco":11845,"Ġcaptura":11846,"Ġcho":11847,"Ġempiezan":11848,"Ro":11849,"ĠCub":11850,"2010":11851,"ĠReina":11852,"Ġbebida":11853,"Ġimagin":11854,"ĠPresidencia":11855,"ĠocupaciÃ³n":11856,"CIO":11857,"grada":11858,"yente":11859,"Ġmodernos":11860,"Ã©ano":11861,"Ġcomienzan":11862,"ĠME":11863,"Ġmusul":11864,"ĠLaura":11865,"teos":11866,"ĠactÃºa":11867,"ĠRivera":11868,"ĠKen":11869,"Ġmuscular":11870,"ĠBi":11871,"Ġauxiliar":11872,"ĠminerÃŃa":11873,"Ġprin":11874,"Ġaline":11875,"Ġcrean":11876,"Ġbares":11877,"Ġcamar":11878,"Ġcomenzado":11879,"ĠBlue":11880,"ĠKo":11881,"Ġvos":11882,"Ġsienta":11883,"hola":11884,"Ġeducativas":11885,"ĠpolÃ©mica":11886,"Ġcalma":11887,"fonÃŃa":11888,"Ġpeligroso":11889,"Ġpaquetes":11890,"ejas":11891,"ĠdelegaciÃ³n":11892,"ĠMovimiento":11893,"erador":11894,"Ġbuscas":11895,"zamiento":11896,"Ġ54":11897,"Ġvuestros":11898,"gresos":11899,"ĠCic":11900,"ĠviviÃ³":11901,"Ġprocedentes":11902,"Ġesperado":11903,"Todas":11904,"Ġseleccionado":11905,"Ġgloria":11906,"ĠcadÃ¡ver":11907,"Ġmuro":11908,"Ġempresariales":11909,"Ġpresentamos":11910,"Ġextremadamente":11911,"Ġpreparados":11912,"ĠAgricultura":11913,"OP":11914,"Ġconvierten":11915,"Ġreparto":11916,"Ġexterna":11917,"Ġlink":11918,"Ġtratan":11919,"ĠVenta":11920,"Ġusados":11921,"Ġextrema":11922,"Ġdespla":11923,"ĠhabÃ©is":11924,"pue":11925,"ĠdesapariciÃ³n":11926,"ĠAll":11927,"Ġparado":11928,"Ġdesgracia":11929,"Ġasimismo":11930,"Ġintegrada":11931,"Ġtramp":11932,"Ġindependientemente":11933,"Ġcontener":11934,"achos":11935,"Ġetiqueta":11936,"ellos":11937,"mor":11938,"Ġangust":11939,"ms":11940,"Ġadoptar":11941,"ĠenergÃŃas":11942,"ĠJuz":11943,"har":11944,"Ġayudarte":11945,"Ġtim":11946,"Ġ72":11947,"Ġcumplido":11948,"Ġenmar":11949,"ĠCapÃŃtulo":11950,"Ġestuve":11951,"ĠacompaÃ±ar":11952,"ĠfÃŃsicos":11953,"Ġfrontal":11954,"hay":11955,"uj":11956,"Ġcasti":11957,"Ġmierda":11958,"Ġcantar":11959,"ĠAF":11960,"util":11961,"Ġsucedido":11962,"Ġsuya":11963,"Ġligera":11964,"Ġempate":11965,"grados":11966,"Ġtardes":11967,"Ġmanifiesto":11968,"Ġlleve":11969,"Ġprestigio":11970,"DescripciÃ³n":11971,"apro":11972,"Ġcreador":11973,"Ġdulces":11974,"Ġpiden":11975,"Ġatraer":11976,"Ġhombro":11977,"hÃŃa":11978,"ĠLl":11979,"ĠMara":11980,"ĠConst":11981,"Ġoptar":11982,"Jo":11983,"xa":11984,"ĠParaguay":11985,"Ġcambiando":11986,"Ġfle":11987,"ĠGan":11988,"Ġpecado":11989,"person":11990,"tuoso":11991,"Ġreforzar":11992,"IÃĵN":11993,"eres":11994,"Ġrecal":11995,"Ġacomo":11996,"Ġ51":11997,"oncesto":11998,"ĠRobert":11999,"Ġdestinados":12000,"Ġpinta":12001,"ĠConsejerÃŃa":12002,"Ġple":12003,"Ġtestigo":12004,"Ġoscuridad":12005,"Ġtrate":12006,"ADOS":12007,"hibido":12008,"Ġret":12009,"Ġempo":12010,"madura":12011,"ĠLorenzo":12012,"Ġdens":12013,"Ġlici":12014,"Ġestup":12015,"Ġconfirmado":12016,"ĠcambiÃ³":12017,"Ġcrece":12018,"Ġcaz":12019,"Ġdirectivos":12020,"ĠJunio":12021,"ĠmercancÃŃas":12022,"Ġbosques":12023,"Ġatro":12024,"Ġseparado":12025,"ĠpresentarÃ¡":12026,"Ġediciones":12027,"Ġtitulares":12028,"Ġindispensable":12029,"Ġponga":12030,"ĠTipo":12031,"gs":12032,"ĠCaracas":12033,"Ġafric":12034,"Ġtextura":12035,"ani":12036,"Ã±al":12037,"Ġinversores":12038,"rie":12039,"Ġcomisiones":12040,"»¿":12041,"Ġuniversitarios":12042,"ĠFron":12043,"GRA":12044,"Ġprofundamente":12045,"Ġplanos":12046,"Ġrellen":12047,"dora":12048,"Ġasim":12049,"porque":12050,"tipos":12051,"Ġalcanz":12052,"Ġliberales":12053,"Ġentrevistas":12054,"oros":12055,"ĠConven":12056,"ĠMÃ¡ster":12057,"elle":12058,"ĠGrecia":12059,"Ġtrasera":12060,"Ã¡sico":12061,"Ġvertical":12062,"Ġlograron":12063,"mÃ³n":12064,"Ġrever":12065,"ĠElectoral":12066,"iness":12067,"ĠmediciÃ³n":12068,"gÃ¼enza":12069,"BS":12070,"ĠLee":12071,"rita":12072,"Ġgrie":12073,"izos":12074,"itro":12075,"Ġradical":12076,"ĠdÃ©ci":12077,"Ġmiel":12078,"irch":12079,"Ġcomplejos":12080,"Ġencantan":12081,"ĠJesucristo":12082,"Ġpoderoso":12083,"Ġexpresiones":12084,"ĠCursos":12085,"Ġcontun":12086,"Ġtransfer":12087,"Ġllave":12088,"Ġmasas":12089,"Ġconfigurar":12090,"gui":12091,"ĠDie":12092,"Ġsobrevivir":12093,"Ġnatur":12094,"ĠacadÃ©mica":12095,"Ġdespacho":12096,"cela":12097,"Ġfores":12098,"ĠMariano":12099,"Ġredi":12100,"Ġprece":12101,"ĠirÃ¡":12102,"Ġrealice":12103,"ĠStan":12104,"Ġejemplares":12105,"Ġcuotas":12106,"ĠconsiderÃ³":12107,"mÃ¡tico":12108,"ĠMauricio":12109,"ĠTit":12110,"Ġintegridad":12111,"Ġquedaba":12112,"Ġcercanos":12113,"Ġmanio":12114,"ramiento":12115,"PC":12116,"tadora":12117,"Leer":12118,"Ġnovedos":12119,"Ġepisodios":12120,"Ġ57":12121,"Ġadecuados":12122,"Ġengan":12123,"Ġabuela":12124,"ĠerÃ³":12125,"Ġfinanciamiento":12126,"Ġalo":12127,"ĠDeleg":12128,"Ġefectivamente":12129,"ĠXVI":12130,"Ġcomentado":12131,"800":12132,"ĠartÃŃstico":12133,"ĠescÃ¡ndal":12134,"Toda":12135,"ĠâĢľÂ¿":12136,"ĠMinistro":12137,"ĠVega":12138,"Ġtomo":12139,"Ġpusieron":12140,"Ġadulto":12141,"Ġplazos":12142,"Ġbotella":12143,"ĠPra":12144,"Ġcomenta":12145,"Ġmoch":12146,"Ġconvencer":12147,"ecÃ©":12148,"ĠMaster":12149,"ĠEu":12150,"lique":12151,"Ġmedicamento":12152,"logos":12153,"Ġalza":12154,"lfo":12155,"iki":12156,"ĠCualquier":12157,"ANA":12158,"Ġgrasas":12159,"Ġcincuenta":12160,"Ġsueldo":12161,"ĠValladolid":12162,"adar":12163,"fu":12164,"Ġsepa":12165,"selo":12166,"Ġafectadas":12167,"ĠEgipto":12168,"ĀĀĀĀĀĀĀĀĀĀĀĀĀĀĀĀĀĀĀĀĀĀĀĀĀĀĀĀĀĀĀĀĀĀĀĀĀĀĀĀĀĀĀĀĀĀĀĀĀĀĀĀĀĀĀĀĀĀĀĀĀĀĀĀ":12169,"ĠatmÃ³sfera":12170,"Ġpiz":12171,"Ġsinies":12172,"Ġextraordinaria":12173,"ĠautÃ©ntica":12174,"ĠsucediÃ³":12175,"Ġgasolina":12176,"ĠBajo":12177,"Ġ1996":12178,"Ġcarreteras":12179,"Ġministerio":12180,"Ġmanifiesta":12181,"trica":12182,"Ġargentinos":12183,"ĠautomÃ¡tico":12184,"Ġmonedas":12185,"Ġpertenecen":12186,"Ġtrastornos":12187,"ĠaprobÃ³":12188,"Ġexposiciones":12189,"Ġasociado":12190,"Ġsupuestamente":12191,"emia":12192,"Ġexigencias":12193,"poraciÃ³n":12194,"yectos":12195,"icciones":12196,"uss":12197,"dito":12198,"ĠTorn":12199,"ĠRespons":12200,"ĠNuestros":12201,"Ġcorregir":12202,"Ġchina":12203,"ĠdeterminaciÃ³n":12204,"Ġequipamiento":12205,"Ã¡micas":12206,"Ġenfrenta":12207,"Ġoperadores":12208,"Ġinvitado":12209,"Ġterrorismo":12210,"dices":12211,"Ġopon":12212,"Ġsemestre":12213,"Ġfases":12214,"discipl":12215,"Ġmentira":12216,"ĠInfantil":12217,"ĠanimaciÃ³n":12218,"Ġespecialidad":12219,"Ġincendio":12220,"Ġputa":12221,"Ġcotidiana":12222,"aqueta":12223,"Ġcontempla":12224,"ING":12225,"Ġtemporadas":12226,"Ġoficialmente":12227,"fitri":12228,"Ġ1994":12229,"ĠMacri":12230,"ĠpreguntÃ³":12231,"Ġlimitada":12232,"ĠquÃŃmicos":12233,"ĠconcluyÃ³":12234,"Ġsorprender":12235,"ĠvocaciÃ³n":12236,"ĠWord":12237,"ĠYouTube":12238,"ĠÃ©xitos":12239,"Ġcuchar":12240,"ĠinformÃ¡tica":12241,"ĠSL":12242,"Ġretom":12243,"Ġadapta":12244,"ĠtecnolÃ³gico":12245,"Ġemitir":12246,"Ã©ricas":12247,"COM":12248,"Entonces":12249,"Ġaroma":12250,"Ġreacciones":12251,"abell":12252,"Ã±oz":12253,"ĠConferencia":12254,"Ġcorreos":12255,"Ġrenuncia":12256,"chi":12257,"Ġcontando":12258,"Ġobtenidos":12259,"ĠPrecio":12260,"aduras":12261,"Ġout":12262,"ciosa":12263,"Ġdesierto":12264,"Ġnavide":12265,"ĠAbog":12266,"Ġcubre":12267,"istente":12268,"rases":12269,"Ġdemand":12270,"57":12271,"ĠcÃ©":12272,"mu":12273,"Ġforos":12274,"ÃŃcolas":12275,"Ġconforman":12276,"ĠOrtega":12277,"ĠAbril":12278,"yan":12279,"TEN":12280,"Ġinvestigador":12281,"Ġganadores":12282,"Ġsistem":12283,"ĠrÃŃos":12284,"Ġpromete":12285,"Ġmantenido":12286,"drigo":12287,"ĠEU":12288,"ĠaquÃ©l":12289,"ĠPerio":12290,"Ġcapitalismo":12291,"Ġrayos":12292,"Ġdestruir":12293,"ĠperdÃ³n":12294,"usk":12295,"Ġpico":12296,"Ġconcer":12297,"Ġcomparten":12298,"Ġentera":12299,"Ġvaca":12300,"Ġinterpretar":12301,"Ġcep":12302,"ĠLabor":12303,"ĠPrimer":12304,"ĠlÃ¡g":12305,"Ġcalzado":12306,"ĠSecciÃ³n":12307,"ĠHonduras":12308,"alim":12309,"rimos":12310,"Ġaplicable":12311,"ĠseguÃŃa":12312,"Ġpist":12313,"Ġinicios":12314,"uerte":12315,"ĠEncuentro":12316,"ĠJoaquÃŃn":12317,"Ġrecurrir":12318,"Ġmama":12319,"Ġblancas":12320,"ĠcalificaciÃ³n":12321,"Ġobviamente":12322,"Ġmatr":12323,"ĠFlorida":12324,"ĠEncuentra":12325,"Ġzapatillas":12326,"Ġpensamos":12327,"Ġsano":12328,"Ġempleos":12329,"Fu":12330,"ĠAtlÃ©tico":12331,"arela":12332,"publ":12333,"Ã§a":12334,"Ġconduce":12335,"bados":12336,"Ġinformaciones":12337,"ĠTerri":12338,"Ġcosm":12339,"ĠenseÃ±a":12340,"Ġhem":12341,"ĠinauguraciÃ³n":12342,"Ġtropas":12343,"cÃ©":12344,"Ġposicionamiento":12345,"Ġbande":12346,"ĠsitÃºa":12347,"urg":12348,"Ã³micos":12349,"ĠhabÃŃamos":12350,"Ġelectorales":12351,"ĠTÃ©cnica":12352,"Ho":12353,"Ġmaravilla":12354,"Ġemprendedores":12355,"ĠCuar":12356,"culas":12357,"Ġbloqueo":12358,"ĠBolsa":12359,"Ġinmueble":12360,"Ġperdida":12361,"Ġ59":12362,"ĠlÃ¡mp":12363,"ĠSent":12364,"stein":12365,"Ġvitamina":12366,"ĠmÃ³dulo":12367,"ĠreÃºne":12368,"mel":12369,"Ġsincer":12370,"Ġbronce":12371,"ĠAÃºn":12372,"cepto":12373,"ĠdirÃŃa":12374,"Ġintes":12375,"ĠturÃŃstica":12376,"Ġnecesitaba":12377,"cionalidad":12378,"ĠestÃ¡bamos":12379,"Ġsecues":12380,"Ġconvirti":12381,"ĠHola":12382,"cÃº":12383,"Ġubica":12384,"Ġpersonalizado":12385,"ĠcÃŃrculo":12386,"Ġcoloca":12387,"ĠSac":12388,"Ġtome":12389,"Ġsupuestos":12390,"Ġconexiones":12391,"pones":12392,"Ġsobresal":12393,".).":12394,"Ġlimitaciones":12395,"MÃ©":12396,"uza":12397,"Ġaula":12398,"Ġ1995":12399,"Ġrodea":12400,"ross":12401,"Ġgenerando":12402,"ĠElectrÃ³n":12403,"ĠGuerrero":12404,"CuÃ¡n":12405,"ĠconcesiÃ³n":12406,"Ġsubra":12407,"ĠcrÃ³nica":12408,"ĠDeportivo":12409,"CL":12410,"Ġhubieran":12411,"Ne":12412,"Ġrup":12413,"Ġcil":12414,"Do":12415,"cript":12416,"ĠdebiÃ³":12417,"CIAS":12418,"Ġcreencias":12419,"alizan":12420,"Ġfortuna":12421,"Ġcusto":12422,"ĠPorno":12423,"Ġrasgos":12424,"Ã©rpre":12425,"Ġinevitable":12426,"Ġrelevancia":12427,"Ġambientes":12428,"Ġinstituto":12429,"Ġ58":12430,"ĠVel":12431,"Ġhallaz":12432,"tren":12433,",.":12434,"radora":12435,"ĠFigu":12436,"ĠdesarrollÃ³":12437,"Ġmascotas":12438,"Ġ53":12439,"Ġanuncia":12440,"Ġdescribir":12441,"Ġara":12442,"Ġsemif":12443,"Ġparques":12444,"ĠobservaciÃ³n":12445,"Ã³tica":12446,"ĠExteriores":12447,"Ġasent":12448,"Ġpatrones":12449,"ĠofreciÃ³":12450,"EP":12451,"ĠCompe":12452,"Ġcaballos":12453,"Ġtrage":12454,"ĠAlianza":12455,"getales":12456,"Ġnavidad":12457,"ĠSig":12458,"Ġdram":12459,"Ġevangel":12460,"osten":12461,"Ġcompa":12462,"Ġpantallas":12463,"Ġ700":12464,"estrÃŃa":12465,"Ġvera":12466,"Ġterritorial":12467,"ĠsabidurÃŃa":12468,"Ġdestacados":12469,"Ġradic":12470,"Ġconviene":12471,"ĠCha":12472,"Ġcubanos":12473,"ĠDiciembre":12474,"Ġarres":12475,"Algunos":12476,"ders":12477,"Ġprotocolo":12478,"Ġlogros":12479,"Ġgradu":12480,"ĠCort":12481,"Ġsupongo":12482,"ĠPlaya":12483,"ĠporquÃ©":12484,"ĠAnÃ¡lisis":12485,"TAL":12486,"Ġverla":12487,"Ġcometido":12488,"Ġchav":12489,"Ġprevista":12490,"Ġdoctrina":12491,"ĠCrea":12492,"Ġmix":12493,"ĠPuebla":12494,"Ġflexibilidad":12495,"Ġacabo":12496,"ĠregistrÃ³":12497,"Ġencuentras":12498,"Ġinvi":12499,"ĠquÃŃmica":12500,"ĠtÃŃo":12501,"remo":12502,"Ġpacto":12503,"ĠDia":12504,"Ġpira":12505,"Ġsolos":12506,"Ġbonitas":12507,"ĠOlÃŃmp":12508,"gualmente":12509,"mens":12510,"Ġcuarenta":12511,"ĠIz":12512,"ĠcalefacciÃ³n":12513,"Ġsombras":12514,"dro":12515,"Ġsalieron":12516,"Ġbrutal":12517,"Ġsolicitado":12518,"ĠCondiciones":12519,"Ġ1990":12520,"unya":12521,"ajar":12522,"ARI":12523,"ĠacompaÃ±a":12524,"ĠPark":12525,"Ġhumanas":12526,"Ġpresentarse":12527,"omento":12528,"Ġescuchado":12529,"Ġahi":12530,"ulados":12531,"Ġcamion":12532,"vista":12533,"ĠlÃ³gico":12534,"Ġexpresamente":12535,"ĠobtenciÃ³n":12536,"Ġdarte":12537,"Ġaseguran":12538,"Ġempa":12539,"Ġsindicatos":12540,"jecimiento":12541,"Ġvenezolanos":12542,"Ġmadu":12543,"Ġconjunta":12544,"Ġdesin":12545,"ĠFuerza":12546,"Ġcristiana":12547,"ĠNar":12548,"ĠVasco":12549,"Ġexterno":12550,"ĠrevelÃ³":12551,"ÃŃvar":12552,"Ġculto":12553,"iblemente":12554,"ĠPort":12555,"teza":12556,"ĠRan":12557,"ĠGenerales":12558,"ARC":12559,"Ġcomplejidad":12560,"TES":12561,"ãĤ":12562,"ĠSalamanca":12563,"Ġalu":12564,"Ġprofesora":12565,"ĠbÃ¡sicamente":12566,"Ġencer":12567,"ect":12568,"Ġdirectores":12569,"2007":12570,"ĠenviÃ³":12571,"Ġitaliana":12572,"Ġrapidez":12573,"Ġsecciones":12574,"resiÃ³n":12575,"cusiÃ³n":12576,"ĠJac":12577,"ĠSara":12578,"ĠMarta":12579,"Ġdenomina":12580,"Ter":12581,"TP":12582,"Ġdetermina":12583,"Ġvoluntarios":12584,"tÃ¡ndose":12585,"Ġcreativo":12586,"alizando":12587,"amarca":12588,"Ġexperiment":12589,"mita":12590,"Ġpermitiendo":12591,"ĠVers":12592,"orado":12593,"ĠAplic":12594,"Ġsometer":12595,"Ġimpide":12596,"Ġdegust":12597,"Ġformada":12598,"Ġrespectivos":12599,"Ġequipada":12600,"Ġembal":12601,"Ġexista":12602,"PER":12603,"Ġconserva":12604,"Ġcontraste":12605,"Ġfieles":12606,"Ġensayos":12607,"App":12608,"icho":12609,"Ġreen":12610,"HA":12611,"Ġconduci":12612,"Ġsentado":12613,"ĠExp":12614,"ache":12615,"Ġpersi":12616,"Ġremedio":12617,"Ġconquist":12618,"Ġincertidumbre":12619,"ueven":12620,"Encuent":12621,"ĠturÃŃsticos":12622,"Ġocultar":12623,"EB":12624,"vieran":12625,"ĠcerrÃ³":12626,"Ġcamisetas":12627,"Ġarrep":12628,"ĠDisfru":12629,"Ġplenamente":12630,"ueba":12631,"Dentro":12632,"Ġaborto":12633,"Ġcrees":12634,"ĠNÃºmero":12635,"Ġinflam":12636,"Ġstan":12637,"Ġconsejero":12638,"Ġsecundarios":12639,"ĠMedina":12640,"Ġevita":12641,"ĠarmonÃŃa":12642,"umas":12643,"Ġcontaba":12644,"ĠcÃ³digos":12645,"ĠConstitucional":12646,"andra":12647,"Ġinac":12648,"Ġconductores":12649,"ĠCanaria":12650,"Ġcubana":12651,"Ġvolante":12652,"yac":12653,"tiza":12654,"Ġdiscutir":12655,"Ġintervenciones":12656,"Ġreflexionar":12657,"ĠincreÃŃbles":12658,"vic":12659,"Ġiniciado":12660,"Ġpersonalizada":12661,"ĠModer":12662,"kers":12663,"eval":12664,"ordi":12665,"Ġcruzar":12666,"ĠhÃ¡bil":12667,"igar":12668,"ĠTour":12669,"ĠExtremadura":12670,"CuÃ¡l":12671,"pada":12672,"Ġparezca":12673,"Ġreconocidos":12674,"Ġfuturas":12675,"ĠLÃŃnea":12676,"Ġais":12677,"Ġdecidieron":12678,"Ã¡mites":12679,"Ġdesaparecer":12680,"Ġentrevist":12681,"Ġargument":12682,"ĠjaponÃ©s":12683,"ĠDisney":12684,"Ġsustancia":12685,"Ġfirmar":12686,"Ġ09":12687,"ĠCC":12688,"Ġcron":12689,"ĠilÃŃ":12690,"Ġbola":12691,"Ġpatria":12692,"Ġfundamentalmente":12693,"ĠCV":12694,"Ġnegras":12695,"ĠOpen":12696,"Ġconservar":12697,"Ġsoledad":12698,"uevo":12699,"Ġinterfaz":12700,"Ã¡ndolos":12701,"itante":12702,"Ġestablecidas":12703,"ĠentregÃ³":12704,"ĠTransporte":12705,"core":12706,"ĠEle":12707,"CIAL":12708,"Ġconectado":12709,"ĠSco":12710,"ĠsanciÃ³n":12711,"Ġencuestas":12712,"ĠRoc":12713,"cing":12714,"Juan":12715,"ĠestÃ©s":12716,"Ġdifundir":12717,"Ġprocede":12718,"ku":12719,"Ġarreglar":12720,"Ġqueb":12721,"Ġficha":12722,"Ġdol":12723,"ĠMuÃ±oz":12724,"Ven":12725,"ĠUSA":12726,"tto":12727,"Ġpreferencias":12728,"ĠCuerpo":12729,"ĠLucas":12730,"Ġurgencia":12731,"Ġtransformar":12732,"Ġautent":12733,"Ġconfirma":12734,"ĠAnim":12735,"ĠtrÃ¡mites":12736,"Ġsolucion":12737,"ĠSiria":12738,"ĠCaja":12739,"ieras":12740,"Ġhagas":12741,"Ġtristeza":12742,"ĠenvÃŃa":12743,"Ġov":12744,"Ġirse":12745,"Ġbanca":12746,"loj":12747,"ĠAcuerdo":12748,"ĠGrado":12749,"fÃ³nica":12750,"ĠRamos":12751,"Ġnegar":12752,"jemp":12753,"Ġchoque":12754,"Ġperdiendo":12755,"ĠconstituciÃ³n":12756,"enio":12757,"ĠEdad":12758,"ĠAquel":12759,"aliciÃ³n":12760,"Ġextremos":12761,"ĠSerÃ¡":12762,"tillos":12763,"jalÃ¡":12764,"Ġnumero":12765,"rerÃŃa":12766,"Ġunidos":12767,"Ġtetas":12768,"Ġencontraban":12769,"ĠsatÃ©l":12770,"Ġrelativo":12771,"ĠDiputados":12772,"ĠGeorge":12773,"Ġvein":12774,"ĠDeporte":12775,"ĠRural":12776,"ĠTOD":12777,"ĠacompaÃ±ada":12778,"pecial":12779,"Ġexternos":12780,"Ġayuntamiento":12781,"ĠAmbos":12782,"ika":12783,"Ġefectuar":12784,"ĠEstatu":12785,"Ġincluidas":12786,"Ġmigra":12787,"Ġsemejante":12788,"Ġadecuadas":12789,"Ġcomprado":12790,"Ġfortaleza":12791,"ĠAde":12792,"ĠTeresa":12793,"Ġsuelos":12794,"ENA":12795,"Ġespectaculares":12796,"ĠWe":12797,"Ġclasific":12798,"ĠexÃ¡menes":12799,"Ġrecip":12800,"rÃ¡s":12801,"Puedes":12802,"Ġtablas":12803,"Ġbil":12804,"Ġpilotos":12805,"ĠdiseÃ±ada":12806,"Ġuniforme":12807,"Ġpreca":12808,"ĠDentro":12809,"Ġdesempleo":12810,"Ġguardia":12811,"ĠmarÃŃ":12812,"Ġhabiendo":12813,"Ġcorresponden":12814,"Ġinsec":12815,"ĠVideo":12816,"ionista":12817,"Ġverificar":12818,"ĠadopciÃ³n":12819,"Ġpotenciales":12820,"ĠmecÃ¡nica":12821,"Ġdobl":12822,"Ġvenga":12823,"Ġnervios":12824,"ĠDVD":12825,"Ġqueridos":12826,"Ġmostrando":12827,"Ġvegetales":12828,"Ġ1993":12829,"Ġsolicita":12830,"uelto":12831,"Ġpresta":12832,"mplemente":12833,"Ġaviones":12834,"ĠredacciÃ³n":12835,"Ġextraordinario":12836,"Ġjab":12837,"Ġdeportistas":12838,"sey":12839,"gol":12840,"Ġsustent":12841,"caden":12842,"Ġsillas":12843,"ĠFOR":12844,"ĠParece":12845,"Ġcierra":12846,"Ġira":12847,"Ġrelojes":12848,"Ġproceder":12849,"ĠMach":12850,"Ġhuesos":12851,"Ġinvis":12852,"ĠPacÃŃfico":12853,"Ġisrael":12854,"Ġdisfrutando":12855,"Ġpropuesto":12856,"Ġcerrada":12857,"Ġreservar":12858,"ĠjudÃŃos":12859,"ĠHijo":12860,"ĠSuiza":12861,"Ġoliva":12862,"Ġcomedia":12863,"elli":12864,"illera":12865,"Ġcomunicar":12866,"vecha":12867,"ĠterapÃ©ut":12868,"Ġlimita":12869,"Ġhigiene":12870,"unidad":12871,"EF":12872,"ĠBale":12873,"ush":12874,"ĠIra":12875,"Ġempezaron":12876,"Ġcomprende":12877,"video":12878,"ĠantigÃ¼edad":12879,"rich":12880,"venta":12881,"usal":12882,"ĠEstudio":12883,"Ġexteriores":12884,"Ġfidel":12885,"Ġabar":12886,"Ġactitudes":12887,"82":12888,"ĠuÃ±as":12889,"ĠdetecciÃ³n":12890,"ĠfantÃ¡stico":12891,"Ġvariar":12892,"zi":12893,"Ġuniversitaria":12894,"produc":12895,"Ġaparentemente":12896,"Ġaco":12897,"Ã¡ut":12898,"Ġdinam":12899,"Ġ(âĢľ":12900,"Ġquita":12901,"irchner":12902,"ĠMaria":12903,"Ġfuga":12904,"________":12905,"Ġhallar":12906,"ions":12907,"Ġber":12908,"ĠpÃŃ":12909,"Ġaverigu":12910,"Ġnuclear":12911,"ĠUs":12912,"Ġmur":12913,"Ġfoc":12914,"desde":12915,"Recuer":12916,"gÃº":12917,"Ġintenciones":12918,"Ġinvent":12919,"Ġexportaciones":12920,"ĠClaro":12921,"restre":12922,"Ġesqu":12923,"Ġdecirle":12924,"Ġrazonable":12925,"ĠGÃ©n":12926,"Ġfeder":12927,"Inter":12928,"Ġaccesible":12929,"Ġunido":12930,"Ġmasculino":12931,"ĠHombres":12932,"],":12933,"Ġcostado":12934,"Ġtenis":12935,"ĠIngenier":12936,"Ġseca":12937,"Ġcentra":12938,"Ġrivales":12939,"pers":12940,"Ġdolores":12941,"Ġoperar":12942,"ĠSum":12943,"Ġcogn":12944,"Ġatravi":12945,"Ġgrabado":12946,"Ġdecorar":12947,"Madrid":12948,"ast":12949,"Ġperdon":12950,"oni":12951,"Ġcoj":12952,"Ġinvestiga":12953,"Ġsignificativo":12954,"ĠAnal":12955,"Ġfavorecer":12956,"Ġgole":12957,"Ġitiner":12958,"ĠconcepciÃ³n":12959,"Ġramas":12960,"Ġmeteor":12961,"Ġanfitri":12962,"Ġflexible":12963,"iko":12964,"ĠcaÃŃdo":12965,"Ã©ndole":12966,"Ġlap":12967,"72":12968,"ĠInnovaciÃ³n":12969,"ĠrecibirÃ¡":12970,"ĠÃºnicas":12971,"Ġextender":12972,"Ġ900":12973,"Ġclaros":12974,"lywood":12975,"querÃŃa":12976,"Ġlocura":12977,"ĠSanidad":12978,"omen":12979,"Ġmapas":12980,"Ġtraspas":12981,"ĠPeter":12982,"Ġxxx":12983,"Ġeuropeas":12984,"Ġdata":12985,"Ġbanc":12986,"mann":12987,"eÃ±as":12988,"Ġsube":12989,"Ġcriminal":12990,"Ġincidente":12991,"Ġcopias":12992,"VO":12993,"ĠMark":12994,"ĠenergÃ©tico":12995,"Ġneur":12996,"Ġparto":12997,"Ġjajaja":12998,"tabria":12999,"ocen":13000,"Ġodi":13001,"Ġconcretamente":13002,"Ã©ctor":13003,"Ġapel":13004,"Ġmail":13005,"Ġconcluir":13006,"Ġsofist":13007,"Ġconcreta":13008,"intendo":13009,"ĠMarzo":13010,"Ġhermanas":13011,"Ġdecirlo":13012,"Ġroca":13013,"Ġoch":13014,"ĠBomb":13015,"ĠintentÃ³":13016,"ĠLim":13017,"ĠIntegr":13018,"ĠSuÃ¡rez":13019,"ĠclÃ¡us":13020,"Ġplay":13021,"Quieres":13022,"Ġpotenciar":13023,"ĠreseÃ±a":13024,"miten":13025,"Ġentusiasmo":13026,"Ġmejorando":13027,"ĠRoja":13028,"Ġcompl":13029,"81":13030,"Ġnariz":13031,"ĠHabÃŃa":13032,"ĠVeracruz":13033,"Ġentregado":13034,"Ġeditor":13035,"stal":13036,"Ġdenominada":13037,"Ġcertamen":13038,"ases":13039,"ayo":13040,"ĠHerrera":13041,"iciar":13042,"tit":13043,"54":13044,"ĠfantasÃŃa":13045,"dre":13046,"contra":13047,"Ġcorrientes":13048,"ĠrecomendaciÃ³n":13049,"grafos":13050,"Ġalturas":13051,"Ġteclado":13052,"Ġang":13053,"Ġcocinar":13054,"ĠMÃ¡r":13055,"ĠComercial":13056,"ĠproporciÃ³n":13057,"Her":13058,"ĠverÃ¡s":13059,"ĠEditorial":13060,"ĠForma":13061,"ĠaficiÃ³n":13062,"tariado":13063,"Ġ69":13064,"Ġ66":13065,"osidad":13066,"Ġresultan":13067,"Ġsupervis":13068,"ĠPost":13069,"abuena":13070,"ament":13071,"Ġrequerimientos":13072,"Ġpsi":13073,"Ġfavorable":13074,"Ġgolf":13075,"iÃ©ndo":13076,"Ġtirar":13077,"ĠdecidÃŃ":13078,"Ġsumamente":13079,"Ġpoemas":13080,"Ġrespir":13081,"ĠRepres":13082,"tez":13083,"Ġfalso":13084,"tamentos":13085,"Ġdesplie":13086,"iete":13087,"utado":13088,"Muchos":13089,"Ġbloques":13090,"Ġanaliza":13091,"ĠPersonas":13092,"recha":13093,"xis":13094,"ĠÂ°":13095,"@@@@@@@@":13096,"ĠNike":13097,"ĠRojo":13098,"Ġvimos":13099,"ĠmÃŃnimos":13100,"Ġcompetente":13101,"Ġtatu":13102,"Ġgases":13103,"Ġnoble":13104,"ĠRioja":13105,"ÃŃgeno":13106,"PP":13107,"lara":13108,"ĠBill":13109,"tÃ¡neamente":13110,"ĠIslas":13111,"Ġcodi":13112,"Ġfiltro":13113,"Ġdefinitivo":13114,"Buenas":13115,"Ġcardio":13116,"ĠIntroducciÃ³n":13117,"%),":13118,"Ġaumentando":13119,"Ġgoma":13120,"Ġcultivos":13121,"ĠMora":13122,"ciende":13123,"Ġprocur":13124,"Ġsuman":13125,"Ġpuertos":13126,"Ġcircunstancia":13127,"ĠoÃŃr":13128,"ĠtÃºn":13129,"inoso":13130,"Ġdroga":13131,"Ġbatal":13132,"Ġpreval":13133,"ĠorÃŃgenes":13134,"ĠProces":13135,"Ġatractivos":13136,"ĠAvenida":13137,"Ġsegmento":13138,"Â²":13139,"Ġrestaurar":13140,"Ġpantalones":13141,"SC":13142,"Ġimperial":13143,"ĠÃ©pocas":13144,"ganda":13145,"quera":13146,"Ġpoema":13147,"politana":13148,"Ġfachada":13149,"ĠGonzalo":13150,"Vamos":13151,"ĠRela":13152,"Ġperiodismo":13153,"Ġsabores":13154,"Ġgui":13155,"DUC":13156,"izador":13157,"Ġmega":13158,"Ġfallecido":13159,"Ġneuro":13160,"ĠcancelaciÃ³n":13161,"Ġreunir":13162,"parse":13163,"itch":13164,"Ġconstantes":13165,"Ġoscura":13166,"Ġbodas":13167,"Ġpermanece":13168,"Ġpeces":13169,"ĠValent":13170,"ilado":13171,"83":13172,"ĠNombre":13173,"ĠBaja":13174,"Ġmaestra":13175,"ĠAtlÃ¡n":13176,"vena":13177,"ĠtamaÃ±os":13178,"Ġcarpeta":13179,"Ġfraude":13180,"Ġapoya":13181,"Ġgriego":13182,"dul":13183,"Serv":13184,"Ġplac":13185,"Ġnutrientes":13186,"Ġgala":13187,"Ġfijar":13188,"Ġdecimos":13189,"Ġhiciera":13190,"INE":13191,"ĠBerlÃŃn":13192,"Ġdesvi":13193,"ĠextracciÃ³n":13194,"Ġembarazada":13195,"ĠvergÃ¼enza":13196,"ĠRodrigo":13197,"ĠguiÃ³n":13198,"Ġpolla":13199,"ĠKing":13200,"Ġencam":13201,"Ġhech":13202,"ĠCI":13203,"itz":13204,"gase":13205,"Ġjusta":13206,"Ġsoportar":13207,"icto":13208,"Tiene":13209,"Fel":13210,"Ġmigrantes":13211,"ĠMallorca":13212,"ĠGlobal":13213,"ĠCentros":13214,"ONA":13215,"52":13216,"Ġ1992":13217,"Ġtalentos":13218,"iense":13219,"Ġformando":13220,"ĠIVA":13221,"Ġmide":13222,"Ġmagnitud":13223,"ingos":13224,"Pon":13225,"Ġconsola":13226,"ĠFol":13227,"ĠsustituciÃ³n":13228,"Ġaprovechando":13229,"Ġelevada":13230,"luten":13231,"Ã±ones":13232,"ĠQuiero":13233,"ĠGor":13234,"74":13235,"ocimiento":13236,"Ġretor":13237,"Ġsupervivencia":13238,"Ġhombros":13239,"Ġsacerdote":13240,"Ġconlleva":13241,"kia":13242,"ĠvolverÃ¡":13243,"Ġrefugio":13244,"ĠMens":13245,"hacer":13246,"Ġsanitario":13247,"Ġarbi":13248,"MC":13249,"Ġbox":13250,"Ġreporte":13251,"Ġconvencional":13252,"Ġcorrup":13253,"ĠfarmacÃ©ut":13254,"Ġnor":13255,"Ġministra":13256,"unos":13257,"ĠhipÃ³tesis":13258,"Ġhablaba":13259,"Ġplus":13260,"Ġconmem":13261,"ĠAlfredo":13262,"ĠCenter":13263,"Ġimpu":13264,"Ġdecep":13265,"Ġmensaj":13266,"Ġtrabajamos":13267,"Ġdensidad":13268,"Ġhamb":13269,"Ġalb":13270,"Ġreparar":13271,"Ġcomparar":13272,"ĠcÃ³n":13273,"ĠIndi":13274,"ĠacadÃ©micos":13275,"ĠFra":13276,"Ġcontemplar":13277,"Ġutilizadas":13278,"Ġvolar":13279,"ĠAU":13280,"Ġpudimos":13281,"Ġcompetitividad":13282,"ĠVillar":13283,"Ġdeterioro":13284,"Ġsustituir":13285,"Ġmobil":13286,"ĠTomÃ¡s":13287,"uevas":13288,"Ġmuertes":13289,"ĠPER":13290,"urado":13291,"Ġmediano":13292,"ĠbrasileÃ±o":13293,"Ġchileno":13294,"ĠlimÃ³n":13295,"iebre":13296,"ĠfalleciÃ³":13297,"tibles":13298,"ĠdedicaciÃ³n":13299,"Ġsanitaria":13300,"Ġempezando":13301,"Ġincumplimiento":13302,"Ġherencia":13303,"ĠMargar":13304,"Ġsepara":13305,"Ã¡ser":13306,"Ġfina":13307,"ĠExtra":13308,"ĠHy":13309,"ĠCaball":13310,"Ġpinturas":13311,"Ġdebidamente":13312,"naval":13313,"Ġinfecciones":13314,"Ġempezado":13315,"ĠdarÃ¡n":13316,"Ġnubes":13317,"ĠdiÃ¡metro":13318,"Ġconcil":13319,"ĠfenÃ³menos":13320,"Ġexplicaciones":13321,"Ġnatal":13322,"Ġmensuales":13323,"ĠADN":13324,"junto":13325,"Ġmonte":13326,"Ġdesaparecido":13327,"LC":13328,"Ġmolinos":13329,"ĠCateg":13330,"ĠObras":13331,"ĠmatemÃ¡ticas":13332,"ĠsurgiÃ³":13333,"Ġdemo":13334,"Ġcomplementos":13335,"ĠÂĵ":13336,"600":13337,"Ġelectr":13338,"Ġbotones":13339,"Ġperegr":13340,"ilados":13341,"ĠCatalunya":13342,"dario":13343,"ĠGalax":13344,"Ġafirmar":13345,"Plan":13346,"gob":13347,"ĠPay":13348,"Ġabandono":13349,"ĠONG":13350,"Ã©ndolo":13351,"Ġplacas":13352,"Ġmodifica":13353,"Ġsobretodo":13354,"paraciÃ³n":13355,"Ġasientos":13356,"Ġsanto":13357,"Solo":13358,"Ġencargada":13359,"Ġhabitualmente":13360,"ĠDIS":13361,"Ġespada":13362,"Ġobligados":13363,"Ġsolitario":13364,"Ġpav":13365,"cuando":13366,"Foto":13367,"Ã¡til":13368,"Ġabundante":13369,"Ġinterv":13370,"Ġparal":13371,"ĠVargas":13372,"Ġhero":13373,"ĠmarcÃ³":13374,"Ġinicialmente":13375,"Ġdisponen":13376,"ĠsubiÃ³":13377,"mith":13378,"Ġentendido":13379,"Ġampliamente":13380,"ĠPilar":13381,"Ġadministrador":13382,"iemb":13383,"Ġaportan":13384,"Ġgem":13385,"ĠjugÃ³":13386,"Ġidentificado":13387,"key":13388,"Ġdesastre":13389,"Ġcoordinador":13390,"ĠRoy":13391,"Ġretiro":13392,"ĠobstÃ¡culos":13393,"ĠsofÃ¡":13394,"Ġhidro":13395,"ĠpapÃ¡":13396,"ĠElena":13397,"ĠHaz":13398,"Ġcercanas":13399,"vÃ¡":13400,"Ġencuentren":13401,"ĠcomenzarÃ¡":13402,"Ġsaludables":13403,"ĠPlus":13404,"ĠINTER":13405,"Ġinmuebles":13406,"ĠTotal":13407,"ĠmenciÃ³n":13408,"Ġlenguas":13409,"Ġreligioso":13410,"claje":13411,"Ġintermedi":13412,"omÃ©tr":13413,"ĠCOR":13414,"Ġevitando":13415,"cientos":13416,"tag":13417,"back":13418,"Ġbasados":13419,"ĠPatr":13420,"Ġ360":13421,"inares":13422,"Ġprimas":13423,"Ġindustrias":13424,"2009":13425,"Ġcandidatura":13426,"Ġllenar":13427,"Ġgustaba":13428,"Ġsumerg":13429,"ĠGEN":13430,"ĠIncluye":13431,"Ġadaptarse":13432,"ruecos":13433,"ĠlingÃ¼":13434,"acos":13435,"Ġsiglas":13436,"Ġcompleja":13437,"Ġfotograf":13438,"ĠNadie":13439,"Ġtard":13440,"Ġpierdas":13441,"Ġejemplar":13442,"illado":13443,"Ġpromesa":13444,"lamos":13445,"Ġrara":13446,"ĠcrÃŃticos":13447,"Ġarmado":13448,"ĠExisten":13449,"53":13450,"landia":13451,"Ġtuyo":13452,"ĠBoca":13453,"Ġbello":13454,"ĠEquipo":13455,"73":13456,"fr":13457,"Ġchu":13458,"Ġacercarse":13459,"ĠIden":13460,"Ġcanto":13461,"ĠCamino":13462,"Ġpredomin":13463,"Ġuniversitario":13464,"ĠquirÃºrg":13465,"Ġanunciar":13466,"Ġrecicl":13467,"ĠID":13468,"rudencia":13469,"Ġdirectos":13470,"Ġlentamente":13471,"Ġoperativos":13472,"Ġnombrado":13473,"ampl":13474,"Ġexcusa":13475,"ĠexportaciÃ³n":13476,"Ciudad":13477,"Ġcorona":13478,"Ġreglamento":13479,"Neces":13480,"Ġnegativos":13481,"Ġgab":13482,"Ġllego":13483,"Ġranking":13484,"uega":13485,"Ã©ndez":13486,"ĠFuerzas":13487,"Ġfilas":13488,"OG":13489,"ĠproblemÃ¡tica":13490,"Ġexager":13491,"Ġapuestas":13492,"Ġcore":13493,"ebra":13494,"Ġpeores":13495,"Ġllamo":13496,"ĠCocina":13497,"ĠAten":13498,"ĠSw":13499,"Ġpp":13500,"Ġlema":13501,"Ġsemb":13502,"Ġenfermos":13503,"Ġmanchas":13504,"ĠSilva":13505,"Ġrealizamos":13506,"buses":13507,"trados":13508,"ĠinalÃ¡mb":13509,"Ġimagenes":13510,"ĠSEO":13511,"ĠsoÃ±":13512,"ĠfusiÃ³n":13513,"Ġtribunales":13514,"Ġalumnado":13515,"ĠseÃ±ores":13516,"Ġsexy":13517,"Ġperteneciente":13518,"ĠtecnolÃ³gicos":13519,"ĠXVIII":13520,"Ġcontento":13521,"Ġgastar":13522,"Ġrestring":13523,"clas":13524,"sec":13525,"ĠJal":13526,"ĠpasarÃ¡":13527,"ĠintÃ©rpre":13528,"atÃŃa":13529,"Ġrodeado":13530,"ĠNieto":13531,"51":13532,"Ġhumo":13533,"Ãºmenes":13534,"ĠPala":13535,"cionista":13536,"ĠOrgÃ¡nica":13537,"rÃ¡ul":13538,"ĠConf":13539,"Ġtuber":13540,"Ġespacial":13541,"Pla":13542,"Ġdefinido":13543,"Ġsaca":13544,"lom":13545,"ĠFÃ¡":13546,"Ġacaban":13547,"ĠlocalizaciÃ³n":13548,"Ã©p":13549,"Ġcongreso":13550,"arones":13551,"Ġremun":13552,"ĠsacÃ³":13553,"ĠJuventud":13554,"ĠCartagena":13555,"ĠFecha":13556,"ĠGuad":13557,"Ġoperador":13558,"acen":13559,"ikipe":13560,"Ġgramos":13561,"grÃ¡ficas":13562,"Ġcolombiana":13563,"Ġtira":13564,"Ġdiarias":13565,"ĠpensiÃ³n":13566,"ĠEvangel":13567,"ĠJean":13568,"Ġfuncionalidad":13569,"ĠadvirtiÃ³":13570,"ĠconociÃ³":13571,"ĠestÃ³ma":13572,"ĠelÃ©ctricas":13573,"Ġperspectivas":13574,"ĠBru":13575,"Ġaceites":13576,"Ġida":13577,"Ġganando":13578,"bita":13579,"Ġ68":13580,"ĠÃģlvaro":13581,"Ġpregunto":13582,"ĠperiÃ³dicos":13583,"Ġintegrar":13584,"ĠISO":13585,"Ġelectrodom":13586,"http":13587,"ĠBolÃŃvar":13588,"Ġcad":13589,"Ġcomponen":13590,"Ġacaso":13591,"Ġafectada":13592,"ĠprovocÃ³":13593,"Ġintentado":13594,"cilla":13595,"Ġfaltan":13596,"Ġchi":13597,"ĠTrabajadores":13598,"ĠpartÃŃculas":13599,"Ġcompromete":13600,"ĠAsuntos":13601,"Ġlegado":13602,"ĠSS":13603,"Ġconstancia":13604,"ĠcrÃŃmenes":13605,"Ġconsiderando":13606,"Ġservido":13607,"Ġsubje":13608,"Ġdirectiva":13609,"Ġdeudas":13610,"ĠlÃ¡grimas":13611,"Ġbacterias":13612,"ĠEstÃ¡n":13613,"ĠPrimaria":13614,"eis":13615,"jados":13616,"ĠRuta":13617,"ĠGri":13618,"Ġbancaria":13619,"Ġfinca":13620,"aming":13621,"Incl":13622,"az":13623,"Ġprovocado":13624,"Ġarranque":13625,"ĠMunicipio":13626,"ĠMarcelo":13627,"quicia":13628,"istros":13629,"Ġrusa":13630,"Ġjefes":13631,"istÃ¡n":13632,"xima":13633,"amba":13634,"???":13635,"ĠmanipulaciÃ³n":13636,"Ġdren":13637,"ĠarquitectÃ³n":13638,"ivar":13639,"fasis":13640,"Cabe":13641,"Ã¡ndoles":13642,"Ġsabiendo":13643,"Ġsuperado":13644,"ĠInstal":13645,"Ġsorpresas":13646,"diera":13647,"Ġcables":13648,"Esc":13649,"Ġpidiendo":13650,"ĠQuizÃ¡s":13651,"Ã¡ndote":13652,"GE":13653,"ĠDebido":13654,"Ã¡zar":13655,"Ġcondenado":13656,"Ġinferiores":13657,"Ġbotas":13658,"Ġpierna":13659,"dula":13660,"Ġespectador":13661,"ĠChan":13662,"58":13663,"ĠagrÃŃcola":13664,"Ġautorizado":13665,"ĠReserva":13666,"ĠrepresiÃ³n":13667,"Ġfacultad":13668,"uenca":13669,"Ġextiende":13670,"Ġremi":13671,"Ġestaremos":13672,"Ġcabec":13673,"Ġtron":13674,"ĠMedel":13675,"Ġconfiar":13676,"Ġsanta":13677,"Ġpresion":13678,"ĠÃļl":13679,"Ġsep":13680,"Ġjustific":13681,"Ġobs":13682,"ĠConsultado":13683,"Ġsaliendo":13684,"Ġadministrar":13685,"Ġsuperficies":13686,"Ġhistori":13687,"Ġalegre":13688,"br":13689,"Ġcomplicaciones":13690,"gante":13691,"ĠAce":13692,"Ġdiariamente":13693,"chado":13694,"Ġstock":13695,"Ġpagan":13696,"CIONAL":13697,"yentes":13698,"ĠmÃ³dulos":13699,"Ġexpuesto":13700,"Ġaparcamiento":13701,"Ġtib":13702,"Ġdioses":13703,"Ġcolegas":13704,"ĠmÃºsico":13705,"ridas":13706,"Ġmodernas":13707,"Ġsacrificio":13708,"tenimiento":13709,"ĠbritÃ¡nica":13710,"Ġvitaminas":13711,"ĠRel":13712,"63":13713,"ĠcomitÃ©":13714,"Ġine":13715,"ĠOtras":13716,"Ġprohibido":13717,"Ġenfa":13718,"Ġpatas":13719,"ĠdemocrÃ¡tica":13720,"Ġtrib":13721,"ĠGeo":13722,"Ġnervioso":13723,"PF":13724,"71":13725,"ĠOR":13726,"allas":13727,"ek":13728,"Ġajustes":13729,"Ġcebolla":13730,"Ġimprovis":13731,"ĠRena":13732,"Ġdirigidos":13733,"ĠRA":13734,"Ġchor":13735,"Ġhermosas":13736,"ĠimplantaciÃ³n":13737,"ĠPsicologÃŃa":13738,"Ġnecesite":13739,"ĠpondrÃ¡":13740,"Ġsuponer":13741,"Ġemig":13742,"ĠIglesias":13743,"Ġlucro":13744,"opol":13745,"ikipedia":13746,"ĠTRA":13747,"Ġdiagnostic":13748,"Ġconsidero":13749,"ĠTru":13750,"Ġcerteza":13751,"Ġdarles":13752,"ĠmaÃŃz":13753,"ĠValenciana":13754,"ĠestÃŃm":13755,"Ġbuscamos":13756,"ĠSuc":13757,"ath":13758,"Ġactualizaciones":13759,"tigu":13760,"Ġvictorias":13761,"Ġhueco":13762,"ĠJosep":13763,"ĠdiscÃŃp":13764,"Ġagrega":13765,"Reci":13766,"anta":13767,"Ġsalvaje":13768,"Ġagricul":13769,"tades":13770,"ĠCompaÃ±ÃŃa":13771,"ĠAgustÃŃn":13772,"ximo":13773,"Ġproviene":13774,"Ġdelegado":13775,"ĠRog":13776,"Ġseno":13777,"ote":13778,"ĠFÃŃsica":13779,"itim":13780,"Ġrestricciones":13781,"ĠmediodÃŃa":13782,"tona":13783,"><":13784,"ĠÃ©n":13785,"ĠcalorÃŃas":13786,"Ġcompone":13787,"Ġadecuadamente":13788,"Ġactivar":13789,"ĠleÃŃ":13790,"Ġexponer":13791,"Ġpalacio":13792,"Ġmotoci":13793,"Ġespecific":13794,"ĠcÃ³mp":13795,"tiemp":13796,"ĠiOS":13797,".),":13798,"Ġvean":13799,"Ġobede":13800,"Ġcompletos":13801,"ĠAgosto":13802,"ĠSeÃ±ora":13803,"lego":13804,
[...]
