#version: 0.2 - Trained by `huggingface/tokenizers`
d e
Ġ e
Ġ de
Ġ l
o s
Ġ p
Ġ c
a r
e n
e r
Ġ a
e s
a s
Ġ s
o n
c i
o r
u e
a n
Ġ m
a d
a l
Ġl a
q ue
Ġe n
u n
Ã ³
i n
Ġ t
r e
Ġ y
s t
Ġ que
en t
Ġe l
Ã Ń
i c
Ġc on
Ã³ n
Ã ¡
Ġ n
Ġ un
Ġ h
o m
r a
d o
r o
d i
t i
Ġs e
Ġ f
ci Ã³n
Ġ v
a m
Ġe s
Ġl os
Ġp ar
t e
Ġe st
Ġ o
l e
t a
r i
Ġ in
Ġ re
Ã ©
t o
Ġs u
Ġde l
ad o
o l
i d
Ġc om
Ġ C
r es
a b
Ġ E
Ġa l
Ġp or
e c
Ġ b
Ġ d
Ġl as
Ġpar a
Ġ g
ent e
m p
Ã ±
Ġ A
i s
a ciÃ³n
Ġ P
Ġun a
Ġ S
i l
ci on
ÃŃ a
Ġ di
Ġn o
u l
â Ģ
q u
Ġ M
Ġp ro
t u
a c
Ġs i
Ã¡ s
Ġp er
Ġc u
Ġ L
t er
i en
t r
l o
l a
ad a
Ġm e
i o
d a
Ġl o
m a
u c
i st
i r
Ã º
Ġde s
ic a
i a
e l
ci a
g u
Ġ D
Ġa c
t os
u s
g o
i z
i er
i ent
r an
ti v
i t
Ġ 1
Ġcom o
Ġ (
al es
an do
Ġt o
Ġe x
Ġ i
id ad
Ġ 2
. .
u es
cion es
Ġ T
Ġh a
Ġm Ã¡s
m o
i ci
m os
a j
s e
b re
ad os
t or
ic o
Ġ R
c u
p a
i e
Ã¡ n
Ġs er
d ad
Ġ B
Ġ j
Ġp o
de n
i v
Ġs o
Ġa n
t ra
Ġ G
t es
de s
Ġ N
Ġ I
b i
t en
er a
t ro
Ġ F
t ar
Ġt ra
Ġ res
Ġ âĢ
id a
Ġa p
i Ã³n
r as
i g
c o
i b
er o
Ġl e
i m
c h
Ġt e
or m
c a
ad or
d os
Ġp ue
ient o
Ġcom p
u m
Ġ qu
Ġm u
Ġp re
Ġsu s
p er
i os
c e
an te
Ġm a
Ġt en
p o
0 0
r u
t as
de r
Ã© n
âĢ Ŀ
e z
Ġa s
Ġ H
Ġp r
am os
Ġ V
am ente
Ġp a
p e
t re
Ġ ar
Ġest e
uc h
Ġ J
b l
Ġa Ã±
Ġh ac
Ġh ab
Ġ U
m ente
Ġc a
ar a
u er
Ġm an
Ġi mp
c on
g un
en cia
ĠâĢ ľ
g ar
i on
ĠE l
Ġp res
s on
i do
ri m
u r
Ġper o
Ġs in
al iz
ĠL a
n a
g a
am bi
ad as
Ġc as
tr os
d uc
Ġest a
Ġt ien
u st
Ã© s
ent o
E l
ue v
l es
in a
Ġs on
v er
z a
f er
Ġv er
Ġ O
l os
Ġp as
Ġ r
d as
j e
Ġm o
or es
Ġin ter
Ġdi s
an a
en s
Ãº n
0 1
ĠE n
.. .
or a
Ġper son
Ġso bre
c es
l as
c ul
Ġc ar
c l
Ġc o
ar io
Ġ Â
Ġen tre
n o
ic os
ent es
l an
ĠE st
Ġl le
t al
Ġ or
Ġm is
Ġcon s
Ġo b
Ġs ol
p or
Ġe mp
ic as
Ġn ues
b aj
Ġa m
Ġt u
p on
Ġn os
Ġin f
Ġm uch
ĠI n
ĠE s
Ġy a
ec h
e mos
ci as
Ġmu y
pa Ã±
ci al
ent a
e m
Ġs al
Ġc re
ambi Ã©n
Ġto do
Ġme di
o y
Ġ 3
L a
j o
ec es
Ġc or
Ġp os
Ġ "
d r
i f
p ar
Ġa b
Ġ2 01
Ġes c
ab le
Ġp rim
Ġn uev
ĠC on
Ġm i
Ġme j
Ġde b
tiv o
Ġf in
an o
Ġt an
re c
g ra
cion al
o c
ÃŃ as
en do
m in
ab a
ÃŃ n
Ġm ar
or ma
v e
Ġc am
ci o
Ã± o
ti l
i ta
m e
Ġtra baj
u di
tu ra
ÃŃ s
Ġest Ã¡
i as
p os
u en
b le
f ici
b a
Ġ Y
ĠaÃ± os
r en
e b
Ġp e
es ti
Ġg ran
E n
Ġt ambiÃ©n
Ġc al
l ar
Ġd u
as ta
ist a
Ġf ue
m as
v en
an tes
Ġdes de
Ġpue de
ida des
Ġha y
Ġ us
am iento
Ġn i
g an
r os
Ġn a
ar ios
ci p
Ġpar ti
u t
j er
ĠR e
Ġc ol
Ġd os
Ġcu ando
Ġ -
Ġhac er
o ci
Ġcu al
ĠS e
in o
f ec
c ar
or t
Ġ u
Ġtien e
Ġto dos
Ġd on
u d
ĠU n
qu i
ie mp
) .
ÃŃ t
Ġse gu
Ġre g
Ġm en
Ġm un
l ic
ar on
Ġh asta
g en
m b
Ġn eces
Ġt er
Ġpro p
p ec
Ġc os
Ġ Ã©
Ġl u
Ġh an
Ġmej or
Ġma y
Ġ 4
ĠA l
en er
in g
v i
qu ier
tiv a
on es
o g
ent os
Ġb ien
ar Ã¡
Ġt iemp
Ġde ci
Ġdon de
Ġc an
tr as
m i
Ġpar te
) ,
Ġal gun
Ġpro duc
s o
a y
al mente
ter i
i tu
Ġa d
Ġex p
Ġf un
Ġc h
g r
ion es
Ġg ra
m Ã¡s
ador es
o b
tu r
Ġ 5
Ġv ez
ĠD e
Ġinf orm
m an
ue l
c an
Ġm il
Ġp ol
ri b
Ġc ada
Ġd a
z o
Ġb uen
Ġas ÃŃ
Ġre aliz
id os
Ġpor que
Ġf orma
j a
e t
Ġl l
ar se
t ado
st e
i u
ran te
Ġp u
Ġser v
Ġtiemp o
Ġ do
ĠC om
i de
ÃŃ cul
er v
Ġv e
ro l
ci l
on a
Ġs ab
Ġt i
ĠM ar
ĠN o
e mp
âĢ ¦
er os
p u
Ġt ran
Ġes pe
cu r
Ġd ÃŃa
Ġ1 9
ul ar
un to
c om
n os
g os
a v
ĠaÃ± o
Ġn e
ĠÂ ¿
Ġun o
e d
ÃŃ an
m iento
Ġc er
Ã© r
Ġcon tra
Ġc l
Ġa de
Ġin st
Ġcon t
Ġcon f
Ġv ida
it ar
Ã± os
Ãº l
i den
Ġa h
ic aciÃ³n
Ġemp res
i to
Ġin v
Ġd ic
Ġ W
v o
ib le
Ġa u
ĠS an
al idad
Ġin cl
il idad
Ġo p
ĠA n
Ġf u
e a
tiv os
Ġf uer
Ġlle v
om b
iu dad
ar rol
Ġperson as
a ciones
ti r
Ãº bl
Ãºl ti
Ġpro f
le c
u b
Ġhac e
Ġl ib
Ġmis mo
Ġ ro
Ġa y
Ġ ra
Ġe v
er s
Ġg ener
Ġlu gar
Ġo f
ĠC h
a t
ci os
g Ãºn
Ġcom un
Ġserv ici
Ġmay or
d u
Ġpa ÃŃs
c as
ĠL os
Ġo tros
Ġb as
c or
âĢĿ ,
Ġre ci
ue go
i ciÃ³n
Ġj u
en a
Ġcon st
Ġdi rec
Ã¡ t
Ġtran s
y ec
an os
p ues
Ġp la
ient os
Ġse c
Ġpo dr
Ġe ra
Ġm in
Ġ 6
Ġm om
d ic
Ã± a
in cip
Ġac tu
mp l
Ġm as
Ġp lan
Ġimp ort
Ġmun do
j os
ech o
Ġde n
ien do
Ġdi st
u y
Ġre p
ĠP or
Ġv al
ver s
ra ciÃ³n
Ġsi g
Ġdi fer
Ġf orm
Ã© c
Ġ Ãºlti
Ġm es
cu ent
Ġtan to
Ġest Ã¡n
Ġv is
Ã³ lo
Ġdes arrol
Ġ K
Ġmuch o
Ġv iv
Ġpr incip
in e
ĠA r
t on
Ġen con
âĢĿ .
aj e
Ġdu rante
Ġ w
Ġu til
Ġl i
Ġs ent
om bre
Ġsol o
Ġsi emp
Ġsiemp re
t ic
Ġtrabaj o
en di
un que
v is
Ġe qui
pu Ã©s
am il
is mo
Ġten er
Ġp ues
Ġc ent
Ġh ist
Ġp on
Ġh er
Ġcu enta
Ġqu ien
r ar
Ġde st
Ġc ab
ĠL e
Ġl es
or ia
Ġb aj
Ġes o
Ġp es
tr ar
Ġde j
Ġest udi
c er
r uc
ist as
ces o
Ġcas o
Ġcual quier
Ġc iudad
se gu
te l
Ġ Ã¡
ĠP ro
Ġqu ier
ta ciÃ³n
Ġal go
tor es
Ġt ras
i ente
f ic
Ġes e
Ġt ar
re ch
ent ar
Ġo tro
st a
Ġv ol
ar go
Ġmen os
da des
d ar
Ġres ul
i mo
Ġre f
Ġcomp le
Ġ ri
Ġll am
Ġen cuent
Ġb us
Ġmu jer
Ġc Ã³
ĠM e
z ar
Ġh or
Ā Ā
Ġsi do
Ġex per
Ġpo co
Ġt om
Ġnues tro
en e
Ġutil iz
ĠS i
u ciÃ³n
e o
h o
c al
Ġv en
te g
Ġp l
Ġto da
Ãº s
Ġmom ento
gu a
an cia
it al
ier no
Ġsu per
ĠC ar
Ġre la
Ġm on
Ġf al
Ġ 7
Ġap ar
Ġest os
Ġ2 00
ec e
paÃ± a
Ġpue den
Ġinform aciÃ³n
Ġse a
Ġde f
al a
Ġh i
Ã³ m
Ġto das
om o
Ġg ust
ĠA s
ol a
Ġf amil
Ġpro yec
c el
Ġ 8
iv ers
ci ales
Ġm er
Ġprof es
ri s
ĠD E
Ġnues tra
Ġnuev o
t an
Ġor gan
Ġpo der
Ġy o
L os
Ġpro ble
Ġ Q
Ġti po
t Ã³
ÃŃ st
Ġpol ÃŃt
Ġac tiv
Ġp Ãºbl
Ġt r
c re
C I
Ġtra v
Ġca p
Ġc ul
Ġde rech
Ġhab ÃŃa
Ġ z
us o
Ġe mb
Ġv a
Ġd ÃŃas
Ġest ar
u ro
Ġan tes
v il
Ġf i
ti s
ÃŃ o
Ġman era
Ġob je
Ġh um
g res
g e
que l
Ġel ec
Ġ1 0
Ġpu bl
Ġprim er
ol og
Ġh e
Ġt al
Ġt res
Ġprim era
E S
im iento
Ġes p
i ma
er on
Ġdes puÃ©s
Ġah ora
Ġi de
Ġtrav Ã©s
Ġ 9
Ġo tra
Ã¡ c
Ġg ru
om in
Ġtien en
Ġsi gu
ce p
ĠD es
Ġd ar
Ġh echo
Ġs Ã³lo
te c
Ġest o
Ġv ar
t amente
ch e
Ġa f
Ġqu Ã©
Ġse gun
ob ierno
ĠN a
c os
ab an
qu ÃŃ
ĠL as
t ados
iv el
u al
ĠS u
s iÃ³n
t ica
Ġdeci r
E R
Ġ ir
er g
Ġes a
Ã³ g
om e
Ġf o
v a
Ġo tras
Ġb a
Ġ Ã
tiv as
Ġg u
er ÃŃa
Ġh oy
a p
Ġun os
Ġcon oci
Ġcas a
Ġel los
ient es
Ġin s
Ġg an
ient ras
Ġf r
Ġpro gra
Ġsi tu
le g
v an
Ġe fec
Ġm al
Ġp el
Ġsu b
id as
ci dad
Ġp ens
tur al
Ġpe que
Ġa unque
Ġex ist
Ġen tr
Ã³ r
i ar
Ġespe cial
di do
Ġn ada
z as
Ġa quel
i Ã³
! !
Ġ ,
di a
" ,
am a
Ġres pon
Ġper mi
Ġcont in
Ġn ivel
Ġan te
ri dad
i or
ien cia
Ġre l
ĠC u
Ġe con
c ado
en o
Ġest ado
Ġorgan iz
du ci
Ġ k
in as
s a
g as
Ġ .
Ġap ro
ĠcÃ³ mo
Ġpres ent
Ġse Ã±
âĢ ľ
r ado
ĠÃ© l
Ã¡ g
A R
Ġb o
Ġmil l
ri l
in ar
ri st
O S
er n
Ġe di
Ġc ier
ĠP ar
Ã¡ l
Ġp ri
Ġe je
min ist
00 0
Ġest as
Ġsin o
E N
os o
Ġar t
ste ma
Ġp al
Ġsi stema
Ġte mp
Ġade mÃ¡s
Ġau tor
Ġda tos
S e
Ġdeb e
Ġp i
e ci
ĠM a
Ġb ar
or d
Ġ Ãºn
l ica
Ġse m
Ġdi se
Ġmedi o
Ãº m
Ġser Ã¡
e le
ten er
Ġcom er
ĠC o
Ġpas ado
i al
C on
P or
Ġ X
Ġa g
Ġmuch os
ez a
Ġ Z
Ġc ambi
m ar
i mos
ĠP ara
Ġcos as
Ġca pa
l or
Ġequi po
if ic
Ġs an
teri or
Ã©c n
iden te
qu il
ador a
ĠP ero
O N
Ġw eb
s os
Ġ os
Ġh o
N o
i cia
Ġs ÃŃ
Ġinter es
Ġeje mp
cion ales
E s
ĠT o
t am
Ġb an
Ġalgun os
Ġimport ante
un tos
ÃŃcul o
" .
ch a
ĠEs paÃ±a
h e
f ica
Ġlle g
A S
Ġhist oria
oc er
ten ciÃ³n
ul o
Ġempres a
y a
Ġto tal
Ġmill ones
Ġ1 5
ri g
Ġest able
ti do
em bre
Ġ2 0
Ġnues tros
Ġrep res
Ġel la
Ġcal idad
h a
ar an
ab les
in os
Ġnuev a
ĠÂ ¡
an za
i tos
Ġcomp ar
c ri
ĠâĢ ĵ
Ġhor as
Ġes per
t ad
b o
e p
Ġm ientras
Ġservici os
e x
Ġfin al
m ent
d an
ad re
Ġel e
u ra
or n
A N
ier on
i p
Ġre con
Ġv ia
Ġap lic
Ġus o
Ġcon tro
olog ÃŃa
ri r
Ġin ici
ĠIn ter
Ġha cia
Ġinv esti
de mos
b io
por t
Ġre cu
Ġprofes ion
Ġdifer entes
Ġc r
Â »
lo g
Ġv eces
Ġservici o
Ġg ente
or te
Ġden tro
gu al
Ġes pa
A L
Ġest aba
ti dad
Ġdi jo
Ġus u
ĠL o
Ġn Ãºm
av or
ab or
ci miento
ec n
Ġa gua
Ġ1 2
ta c
il o
Ã³ x
Ġac uer
on o
ĠC as
ci e
Ġof re
Ġin d
Ġse gÃºn
ue la
Ġdis pon
S i
Ġre v
Ġmuch as
o k
di o
Ġes paÃ±
al l
Ġa ut
Ġcom paÃ±
en cias
ĠB ar
Ġso cial
ri d
Ġfun cion
Ġ1 8
Ġmis ma
Ġel lo
ar d
Ġperson a
an d
Ġproduc tos
ĠS al
Ġre cor
Ġan ti
Ġp an
Ġ ru
es ta
Ġ ...
ul a
Ġi ma
Ġemb argo
mp le
Ġo fici
Ġdist in
Ġt us
Ġgru po
de mÃ¡s
Ġcontin u
Ġlle gar
Ġpos ible
Ġa quÃŃ
r al
âĢ Ļ
a tro
g n
Ġdis f
ci n
O R
u da
Ġesc ri
p i
Ġm Ã¡
ĠJ u
il la
Ġle y
r Ã¡
ar ia
ri a
Ġpro ceso
Ġor ig
Ġs ue
Ġam b
Ġse x
Ġhab er
Ġcon v
Ġc las
Ġf avor
Ġpro v
ol Ã³g
om a
ici p
Ġv i
Ġmujer es
Ġt Ã©cn
il l
ĠM ad
e ta
b ol
Ġv o
Ġm Ã©
st itu
L as
Ġgener al
Ġp ie
ti o
t ante
Ġju g
ĠP er
tor io
Ġcu er
Ġejemp lo
di da
Ġpre gun
Ġcu r
Ġes pec
z Ã³n
Ġdesarrol lo
gra f
f orm
b er
d or
bi do
tu ras
Ġencon trar
Ġay ud
is o
ĠD i
un ca
it as
Ġgran des
Ġnos o
t amiento
ĠG u
Ġfuer on
ac h
Ġmo de
Ġreci b
Ġproyec to
Â ¿
Ġcon di
esti Ã³n
j as
ĠP a
Ġbaj o
Ġl uego
ter a
Ġpr Ã³x
ĠE x
Ġle g
p en
Ġp unto
ci endo
Ġf Ã¡
ĠNa cional
ac e
Ã¡ m
g aciÃ³n
Ġparti cip
ĠM Ã©
Ġpo d
Ġ 0
Ġqu er
Ġin t
Ġin di
Ġc in
Ġperson al
Ġt ri
Ġcomp r
Ġe duc
pec to
Ġen f
Ġpos ib
Ġg as
r ic
Ġcas i
Ġsem ana
Ġd in
ec u
E st
t ico
ĠÂ «
por te
Ġcon ten
ĠUn ivers
un ci
ele b
Ġni Ã±os
Ġno v
ĠR o
Ġs ac
Ġcon ocer
Ġnoso tros
Ġf or
Â Ń
Ġecon Ã³m
Ġtr ad
Ġa mpl
A D
Ġacuer do
Ġdisf ru
Ġcol or
Ġn ombre
er as
Ġc lar
Ġval or
Ġmin u
Ġmu er
Ġap oy
aj es
re a
ĠP o
Ġempres as
ton ces
x ico
Ġexper iencia
Ġv uel
Ġbuen a
Ġinter na
I C
di Ã³
Ġor den
Ġdes cu
Ġz ona
ĠC ol
Ġrespon s
ĀĀ ĀĀ
Ġm ie
ĠM an
p re
ĠA m
Ġinst al
Ġmej ores
Ġgra cias
Ġsegu ridad
Ġi gual
ens a
Ġne go
Ġsal ud
Ġc eleb
ĠnÃºm ero
ues tra
Ġp Ã¡g
i te
ac ter
ĠS in
Ġex tra
is iÃ³n
t Ã¡
Ġe t
ci na
os a
ien e
den cia
ĠC a
Ġten dr
Ġt ecn
ab ilidad
ech a
ĠEst e
c tu
f ico
Ġca us
Ġre com
Ġpal ab
Ã ĥ
Ã¡ p
ĠV al
ĠS o
Ġcons i
Ġrealiz ar
v id
Ġcu an
Ġla b
n e
Ġa um
iz aciÃ³n
Ġmes es
pos iciÃ³n
Ġl ado
Ġal l
2 01
Ġter min
Ġa segu
Ġexp res
ra m
Ġque d
Ġ /
D es
ir m
Ġs a
Ã± as
Ġfamil ia
tor ia
Ġdi f
ĠM o
A l
Ġap ren
Ġ on
Ġtra ta
Ġ |
Ġl ÃŃ
Ġpre v
Ġh ombre
Ġcent ro
omb res
Ġna tural
Ġf a
b an
ĠU na
Ġin te
iv o
Ġ1 1
l am
Ġ #
Ġc ir
Ġlib ro
Ġcu mpl
P ara
D e
i re
Ġl ÃŃn
ĠF ran
Ġv ent
Ġfu era
ol es
de ra
ci s
pues to
Ġre cur
p ti
g ent
iz o
Ġpue des
an ci
Ġn unca
Ġincl uso
Ġmer cado
dos e
ĠEst a
Ġ3 0
Ġj uego
Ġpr Ã¡c
ĠMad rid
Ġten emos
Ġh emos
Ġj ue
Ġam ig
Ġdeb er
Ġ201 8
Ġpres idente
ĠEst ado
ĠM un
i es
port un
Ġma teri
Ġemp le
Ġ [
ist o
Ġam or
Ġun as
ar es
ec er
Ġper fec
ic amente
Ġal im
Ġac er
Ġpar ece
b ar
Ġproble mas
Ġdest ac
Ġcam bio
Ġal can
Ġreg ist
Ġincl uy
Ġs en
ol uciÃ³n
Ġten go
n et
Ġa le
Ġj ust
Ã ĵ
Ġcom en
den te
Ġa Ãºn
Ġh ora
Ġ ust
ĠC ent
ur os
Ġsegu ir
Ġre fer
un d
ti tu
Ġj unto
Ġprogra ma
Ġsab er
ti fic
Ġalgun a
Ġrel aciÃ³n
ic ado
bl es
en d
i le
a f
ter min
ri o
Ġcon tac
l u
ĠE uro
re g
t ando
Ġo portun
Ġa fec
Ġm os
Ġsol ici
Ġpon er
aliz aciÃ³n
res pon
ĠMÃ© xico
ĠC or
y o
Ġdef in
Ġsig n
Ġalgun as
ĠL u
Ġet c
Ġd omin
Ġcu atro
ĠM on
Ġf ac
Ġfo to
Q u
Ġre d
Ġte ma
I N
ĠD ios
t ada
Ġcuer po
Ġpre cio
us iÃ³n
ci do
er ic
ier a
Ġsitu aciÃ³n
Ġparti r
in aciÃ³n
Ġan im
Â ¡
Ġp uer
Ġn orm
Ġna cional
ĠJ os
Ġdo cu
Ġcom ent
Ġg obierno
ï ¿
Ġe m
Ġfr ente
Ġg en
ï¿ ½
Ġe jer
Ġdi vers
Ġcomp e
Ġproble ma
Ġdi rig
Ġo l
ici o
Ġ1 4
ie dad
if ica
Ġcar acter
Ġse lec
Ġb ene
Ġm Ãºs
ĠO r
z os
Ġlo gr
Ġencuent ra
Ġso cie
Ġdes p
Ġcontro l
t in
ĠpÃºbl ico
aj a
bl ig
Ġo cas
ĠQ u
Ġver dad
Ġv arios
1 9
di r
Ġdic e
b lo
ist er
Ġf il
Ġofre ce
j ar
Ġminu tos
. -
Ġl argo
Ġpo demos
Ġcon segu
ĠÃºlti mo
di al
Ġe j
Ġest u
Ġlo c
ist e
ĠC an
Ġen fer
g er
p el
Â º
Ġad minist
g ado
Ġpas o
Ġr Ã¡p
m ento
Ġmo v
Ġsi endo
ĠC am
Ġlib er
iv a
m bre
ier ra
Ġ1 6
Ã© is
ar ÃŃa
an as
ĠG obierno
qu es
v es
Ġman o
Ġm or
Ġobje tivo
Ġpel ÃŃcul
r Ã³
e f
Ġre alidad
ĠfÃ¡ cil
Ġpre par
Ġ1 3
Ġp in
Ġactiv idades
ĠEst ados
Ġv ÃŃ
Ġde tal
Ġsec tor
Ġp untos
re o
Ġcons ide
Ġo blig
Ġen tonces
Ġparti do
Ġte le
r on
Ġfun d
Ġi den
n as
Ġcor respon
Ġa tra
ar lo
om ÃŃa
ĠpolÃŃt ica
rib u
duci r
s erv
Ġno che
Ġ2 5
Ġu b
Ġser ie
Ġde cl
ĠM in
Ġbene fici
Ġsu r
Ġbas e
Ġob ra
Ġderech o
Ġen erg
Ġele g
Ġso ciales
Ġg aran
Ã¡t ica
p ciÃ³n
Ġv ide
g on
Ġart ÃŃculo
Ġmun icip
I n
ar e
Ġa t
ĠpaÃŃs es
z ado
Ġj un
m ientos
p as
om os
Ġa tenciÃ³n
m it
C u
Ġfal ta
Ġespa cio
Ġtemp or
Ġten ÃŃa
tr Ã³n
ent al
g re
Ġsi tio
Ġrepres ent
U n
ĠÃ ģ
Ġpre cios
ĠA demÃ¡s
Ġm ens
Ġpr ue
v al
Ġre al
ĠâĢ ĺ
i ado
ra c
v ar
Ġdin ero
Ġv an
ic h
Ġde termin
Ġmedi ante
r era
e as
ĠP ol
Ġpermi te
ol u
el l
Ġpodr ÃŃa
Ġin dic
n es
Ġt or
Ġ '
Ãĵ N
Ġinst itu
g les
ch o
en as
Ġin de
Ġal ta
g el
ruc ciÃ³n
ĠA d
ar Ã¡n
le x
Ġfin anci
c ent
Ġemp ez
b ado
m on
Ġexp lic
Ġpro ce
Ġh izo
ĠP re
Ġb lan
Ġm us
g ro
Ġ1 7
ri Ã³
Ġ :
ĠUnivers idad
Ġo cur
Ġen can
Ġte x
g ue
vis iÃ³n
pos i
Ġsegun do
ĠUn idos
Ġcondi ciones
E ste
Ġsigu iente
tar io
Ġnuev os
Ġau to
ĠseÃ± al
st as
Ġre un
Ġmayor ÃŃa
cion ar
Ġcons ul
Ġsent ido
ĠG ener
Ġpar e
Ġal gÃºn
un a
Ġb ol
Ġ201 7
Ġespe ci
a te
Ġdise Ã±o
aliz ar
d al
Ġm ir
Ġsu f
Ġ il
ul io
Ġof rec
tr an
Ġper io
Ġmo do
Ġnuev as
Ġsocie dad
I S
Ġderech os
Ġactiv idad
Ġac om
Ġcas os
t s
or ÃŃa
T A
Ġal um
ues ta
Ġconf i
ĠmÃ¡ x
Ġcon j
Ġay uda
ti on
Ġima gen
Ġcer ca
Ġproduc to
Ġs os
Ġquien es
ib les
Ġpro ces
ĠJu an
p endi
baj o
Ġlab or
Ġ1 00
Ġa van
in al
Ġencon tr
Ġcu b
Ġresul tados
Ġ2 4
cu p
Ġs ens
Ã± ana
Ġre co
s i
Ġpr omo
Ġas ist
Ġel em
Ã¡t ico
Ġf on
Ġrela cion
Ġco lec
Ġneces ario
Ġtar de
Ġac ceso
Ġvi ol
Ġcon ven
ÃŃt ulo
i k
Ġcon ver
ĠB o
Ġj o
v ÃŃa
Ġest amos
Ġsegun da
I I
Ġind ust
Ġe uros
ti en
ĠP res
am b
Ġust ed
Ġdi g
ĠT ambiÃ©n
in gun
Ġs or
u ales
l ine
ĠlÃŃn ea
p ular
pues ta
Ġide a
Ġes os
Ġres pecto
t Ã³n
Ġdej ar
Ġprincip al
v ent
Ġr ad
Ġpos i
.. ..
Ã¡n do
Ġpres ente
U na
ÃŃcul os
Ġac ep
t h
ĠP e
ĠN e
p res
1 0
Ġac ab
ech os
Ġm ul
ti ene
Ġpas ar
Ġcre o
Ġsi mple
d ico
Ġest ra
un ta
ĠJos Ã©
ÃŃst icas
em as
Ġestudi o
Ġl uch
Ã¡ r
z Ã³
u rante
tic ular
Ġcuan to
Ġpue blo
r ero
i go
g l
Ġnues tras
Ġin cre
Ġ ur
3 0
Ġri es
Ġimp res
ĠR es
ita ciÃ³n
tu ro
tec ciÃ³n
ri do
ĠG ran
Ġl ec
Ġcom b
Ġcl ientes
ie mbre
ctu bre
ĠpÃ¡g ina
Ġhay a
Ġv ac
l ado
Ġen ten
Ġl an
Ġh ombres
ĠLe y
d ica
Ġmie mb
Ġdic ho
ĠA c
Ġtien es
Ġen vi
ĠY o
l er
Ġhac en
Ġen c
ing Ãºn
Ġli bre
Ġllev ar
Ġbas tante
Ġpues to
ol o
ĠespaÃ± ol
Ġamig os
gen es
Ġincl u
ĠC al
Ġas es
per aciÃ³n
Ã©r ica
ad ie
Ġesc uch
ti Ã³
Ġcap ital
ÃŃ amos
gu ien
ĠA p
Ġpa pel
Ġcin co
Ġest oy
Ġusu arios
Ġin vers
ĠÃºn ico
Ġsi m
ĠT ra
Ã³ s
Ġdes e
I D
Ġ19 9
r ados
Ġfa cil
on e
ram ient
Ġdescu b
Ġmode lo
ic e
Ġan terior
il lo
Ġacom paÃ±
ci Ã³
Ġpri v
Ġrecon oci
u g
Ġprop io
2 0
Ã³ vil
Ġclar o
ter o
duc ciÃ³n
Ġvar ias
Ġcon te
Ġn ingun
T E
ente mente
Ġma Ã±ana
Ġ201 6
Ġf ab
f o
Ġli mp
Ġe r
i ra
Ġmar ca
Ġpa ci
Ġg ol
Ġa do
ad amente
r or
Ġin m
gres o
pti embre
Ġn ingÃºn
Ġdeb en
ĠP la
Ġcapa cidad
Ġmedi os
Ġf ÃŃs
il ar
Ġman ten
Ġcan tidad
Ġparti ci
iz a
Ġproduc ciÃ³n
Ġprim ero
ĠRe g
t ri
Ġv ista
i an
Ġesc rib
ĠÃºlti mos
Ġf el
i Ã©n
Ġt el
il idades
Ġen car
Ġdo c
Ġpue da
ĠCom o
Ġlu z
Ġf ran
Ġpro por
Ġcam ino
Ġdes car
Ġel las
ti z
Ġcier to
Ġres ta
Ġgust a
R O
h ora
Ġma ter
Ġconsi der
Ġ5 0
tam ento
r in
Ġpo bl
Ġpubl ic
Ġac ciones
Ġhab lar
Ġh ub
Ġquier e
gent ina
ĠV er
de z
Ġcab o
ĠGener al
Ġcre ar
qu is
w w
iv il
Ġlo cal
iz ar
Ġcu ar
Ġob serv
Ġinvesti gaciÃ³n
Ġpalab ras
se Ã±
CI ÃĵN
Ġpar ticular
if icaciÃ³n
ĠmÃºs ica
Ġelec trÃ³n
Ġpi el
ac k
R A
Ġman if
Ġdisfru tar
Ġv ir
on os
Ġtom ar
Ġha ciendo
ĠC l
Ġun ivers
ĠI s
ad res
Ġconst itu
Ġ x
Ġa gu
ister io
is is
Ġdi ci
bi Ã³
Ġdes a
ĠDi rec
ĠD is
Ġprov in
Ġde mÃ¡s
Ġpo ten
ul os
Ġejer ci
m entos
Ġf echa
ec re
o ce
tiv idad
Ġab ier
Ġb log
t icas
p le
l ante
Ġl im
ac er
Ġper man
Ġal to
E sta
da p
ĠAs ÃŃ
Ġdirec tor
b e
Ġde dic
Ġher ramient
t Ã¡n
as e
Ġb eb
Ġc ri
Ġade cu
Ġc la
Ġr om
Ġaplic aciÃ³n
Ġprop ia
ven es
Ġrecu er
M e
Ġactu al
Ġrecur sos
al o
Ġno ti
Ġcos a
Ġo fer
Ġsen cil
Ġfund am
Ġcu ales
Ġtra tamiento
om as
5 0
Ġpes ar
tu al
Ġman tener
Ġi m
am ientos
ĠF e
uer ra
Ġin ten
ig n
Ġbuen o
f t
ien da
tal la
Ġcal le
Ġes f
Ġv ig
Ġres to
cul o
Ġresul tado
m ac
Ġal guien
Ġev itar
Ġal ter
Ġconst ru
tur ales
Ġprofesion ales
Ġde bido
ar ias
Ġo ctubre
Ã ¼
Ġgra tis
de dor
Ġex cl
Ġdif ÃŃ
Ġfamil iar
re z
Ġe dad
Ġfu turo
c ÃŃa
Ġprofesion al
Ġest ilo
Ġab s
ĠÃºlti ma
Ġconsegu ir
R E
on as
Ġnov iembre
Ġenfer me
Ġdici embre
Ġe mo
Ã© f
Ġcol abor
Ġb al
j ust
iv os
ĠSe gu
Ġentr ada
Ġde por
Ġvol ver
Ġt Ã©r
ec en
Ġdu da
Ġcon cep
Ġcon tar
Ġt it
Ġm ÃŃ
Ġgran de
Ġmo der
graf ÃŃa
Ġsegu ro
s iones
de ro
Ġcon ci
ĠÃ© x
Ġsign ifica
en ci
ĠCu ando
Ġser ÃŃa
Ġ2 1
Ġform aciÃ³n
it or
Ġ201 5
Ġpro b
Ġpr on
Ġayud ar
Ġbus c
ac ciÃ³n
bi ente
Ġen v
Ġve h
Ġ is
Ġmedi da
Ġtu vo
cel ona
ĠN uev
j es
ĠâĢ Ķ
Ã³ venes
Ġn adie
Ġa dap
ĠT e
p ara
Ġjo ven
Ġa gr
Ġv enta
Ġa z
i ano
Ġar ti
Ġproyec tos
Ġt a
ĠG ra
Ġa ire
Ġsig ue
f icaciÃ³n
Ġcomun icaciÃ³n
Ġinter ior
âĢ Ķ
T I
Ġop era
Ġso y
Ġf re
ĠprÃ³x imo
tiv amente
Ġg estiÃ³n
Ġse ptiembre
Ġest ruc
Ġinterna cional
to do
Ġm ol
Ġd ado
Ġenf r
Ã¡l isis
Ġcom ien
t ÃŃn
ĠG o
Ġt ur
Ġmuer te
Ġsec re
ador as
Ġprof un
tr Ã¡s
Ġter ri
t ina
Ġhi jos
Ġf e
Ġaquel los
Ġapoy o
ul aciÃ³n
ĠA b
L o
Ãºbl ica
ici os
Ã³ p
Ġcomun idad
Ġfo tos
Ġprincip ales
es a
Ġoportun idad
Ġah ÃŃ
Ġtrabaj ar
Ġop in
Ġest Ã©
Ġdirec ciÃ³n
f orma
Ġter c
re l
Ġex cel
lar es
Ġv isto
ĠJ o
Ġres pe
ul s
Ġse an
ĠG ar
ta ciones
t t
Ġman os
ĠH a
ĠQ ue
t icos
il las
Ġe ran
Ġmejor ar
Ġf an
ĠP ue
Ġm adre
Ġac ciÃ³n
Ġa ta
Ġinter Ã©s
Ġindi vid
an cias
T o
Ġpla ta
p s
Ġdis posi
Ġllev a
Ġcomp rar
ÃŃst ica
Ġcu ad
Ġp udi
Ġmo di
Ġcor rec
Ġes as
Ġvide o
a u
ĠpelÃŃcul a
Ġf ir
Ġinte gr
ĠL A
C omo
Ġde mas
ĠM or
ac to
Ġbus car
u mo
r ada
b as
Ġpodr Ã¡
os p
ien cias
Ġcam po
Ã³ mo
Ã© l
Ġpo pular
ĠCom un
Ġ2 2
A s
Ġpre o
m en
p ro
Ġcon tr
Ġus ar
Ġm uestra
Ġj ulio
ÃŃ f
r ÃŃa
Ġob ras
Ġcab eza
ib ilidad
Ġj Ã³venes
Ġsig lo
Ġv amos
ven ciÃ³n
am po
tor no
Ġhab l
Ġc ora
Ġpas a
Ġle er
Ġl ig
t Ã©
Ġimport antes
ĠO b
ĠCent ro
Ġcu id
Ġtempor ada
Ġjun io
Ġno ve
Ġel im
ta gon
Ġre des
Ġenerg ÃŃa
T O
Ġin cor
se jo
Ġusu ario
ĠS erv
il a
ran tes
Ġdi o
ĠcompaÃ± ÃŃa
ĠA y
Ã¡ genes
Ġl ar
Ġob tener
st ico
rim on
Ġca teg
ĠR ec
2 00
Ġdecl ar
Ġutiliz ar
Ġdise Ã±
Ġex ig
Ġcontac to
Ġsi st
ru z
al u
Ġall ÃŃ
Ġten ido
Ġfuer te
fici ente
Ġc ara
Qu Ã©
Ġg ob
Ġcon duc
ĀĀĀĀ ĀĀĀĀ
l io
ent as
Ġmay o
Ġpobl aciÃ³n
Ġneces idad
Ġvia je
Ġdes con
ici dad
cion ado
Ġprim eros
Ã¡n dose
Ġa udi
Ġcur so
Ġde r
Ġre almente
ĠInter na
Ġen seÃ±
b u
Ġcar rera
Ġtrad i
Ġpue do
tar on
Ġequi pos
Ġfuer za
Ġres erv
Ġan unci
ĠEs c
Ġl en
ĠJ es
Ġque da
ĠtÃ©r min
Ġv iene
O M
Ġon line
Ġb el
Ġres puesta
Ġmis mos
Ġ201 4
Ġpos t
Ġpeque Ã±o
cul ar
gos to
Ġeduc aciÃ³n
Ġposib ilidad
re mos
pon e
Ġte mas
Ġv as
r ad
p ren
Ġconten ido
Ġex ten
Ġb Ã¡s
ĠB uen
ĠEst o
b al
Ġt ierra
orm e
es iÃ³n
x ic
Ġentr en
it an
ĠBar celona
Ġpl ante
Ġorganiz aciÃ³n
Ġconst rucciÃ³n
u do
Ġpres encia
Ġal re
Ġf is
Ġo jos
ĠIn stitu
ĠÃ¡ rea
Ġconj unto
d ra
ir se
ĠI N
am eric
ĠF ac
ion al
A M
1 1
Ġtecn ologÃŃa
A n
P ero
Ġv ic
Ġmuch a
ĠB an
Ġde man
Ġmedi a
l i
Ġries go
ir Ã¡
al e
x im
ĠÃ©x ito
Ġho tel
Ġdi a
gles ia
ti m
Ġser Ã¡n
Ġcon cre
es t
or o
ĠE duc
ĠdifÃŃ cil
Ġneces ita
oci aciÃ³n
Ġse man
im ientos
Ġs Ã©
ĠEuro pa
Ġin me
ĠMar ÃŃa
Ġver da
Ġgru pos
- -
ar i
Ġfi gu
Ġin gres
ĠH o
Ġd Ã³
c en
me tros
cur so
teri ores
Ġespecial mente
Ġpre m
lica ciones
ĠAr gentina
Ġm ÃŃn
ĠM i
Ġcons um
ampo co
Ġhist Ã³r
v ech
Ġprincip io
Ġhi jo
Ġp adre
Ġedi ciÃ³n
Ġpla zo
Ġmateri al
ic ÃŃa
Ġelem entos
Ġ4 0
Ġmedi das
ĠaÃ± ad
Ġencuent ro
Ġsi r
ĠC rist
Ġim Ã¡genes
ĠLu is
Ġsuper ior
Ġen ero
Ġsal ir
ĠA le
E L
Ã© m
Ġmar zo
ier nes
Ġtel Ã©f
Ġneces idades
Ġen ci
Ġfun ciÃ³n
Ġm ad
t adas
Ġtoda vÃŃa
Ġop ciÃ³n
Ġamb os
uer to
Ġ $
ĠSan ta
ti endo
e te
ent an
d ÃŃa
Ġpro tagon
Ġcar go
Ġningun a
h i
Ġin icia
f a
E C
Ġre par
Ġlib ros
ĠCar los
h er
Ġver siÃ³n
Ġar te
gl Ã©s
Ġme tros
Ġesf uer
aliz ado
re as
Ġb on
O L
Ã į
it ado
ues to
eb rero
Ġsigu ientes
k e
Ġt ama
b il
ĠÃ© po
Ġparticip aciÃ³n
Ġde mos
ul as
Ġ2 3
Ġpue dan
Ġexist e
Ġl ista
ĠM u
Ġclas e
Ġp adres
de o
Ġcl iente
Ġbus ca
Ġm Ã³vil
1 2
ĠC iudad
Ġac on
Ġpar tes
Ġa gra
Ġconoci miento
Ġsu ce
Ġpartici par
Ġhacer lo
in es
Ġab ril
Ġestudi os
ist ro
Ġf ru
Ġf ra
Ġofrec er
. ,
Ġsol u
Ġcambi os
Ġra zÃ³n
p ir
Ġpres enta
v ia
Ġe uro
f il
de l
un es
Ġc ine
di endo
ent aciÃ³n
Ġquier o
Ġofici al
Ġjue gos
Ġp ier
ti a
Ġsab e
Ġefec to
Ġco cina
ĠS on
Ġel abor
f i
Ġmiemb ros
no v
cri pciÃ³n
Ġconside ra
ĠÃºn ica
Ġam biente
ĠS a
R e
p l
ÃŃ do
es e
in ado
Ġ â
Ġar ch
Ġcon ec
ĠH ay
Ġre c
ĠT er
Ġs Ã¡
ac a
ĠP r
r um
Ã© di
mo c
I A
fer encia
Ġju gar
Ġcambi ar
tor a
w are
E D
Ġcom Ãºn
Ġcre a
Ã©c tr
Ġna ve
Ĥ ¬
den tes
Ġtendr Ã¡
Ġgra tu
Ġh ici
Ġcomp ra
Ġmen or
Ġviv ir
Ġima g
Ġj orn
Ġn um
id ores
f e
ic al
Ġgu ar
ĠV en
t ino
Ġcre cimiento
ĠCon s
r ica
k et
ch es
ie za
Ġestra teg
tar se
Ġcon cl
Ġpro teg
Ġpare ja
Ġp s
Ġcora zÃ³n
Ġb or
Ġ201 3
Ġp en
Ġcol oc
Ġsex o
ĠT en
Ġnego cio
ac es
ĠS er
Ġcons erv
Ġd om
1 5
en da
ĠpÃºbl ica
Ġv in
Ġc iento
ita ciones
Ġse is
ran do
Ġme z
Ġpre ten
par tamento
tis f
Ġh as
Ġprue ba
o o
Ġpa go
ÃŃt ica
Ġa di
omb ia
Ġde pen
Ġac ce
Ġl in
Ġimport ancia
ĠS ol
Ġefec tos
Ã¡m ara
ue lo
s u
Ġcul tura
es te
it ario
Ġa gosto
titu d
ĠP lan
Ġc rist
di z
Ġmay ores
H ola
Ġper ten
ÃŃ os
Ġcor reo
Ġpro tecciÃ³n
Ġcomple to
Ġre quier
Ġpr os
Ġeduc a
Ġrecib ir
n er
it antes
ĠM er
Ġlugar es
Ġap or
âĢ ĵ
Ġtrabaj adores
Ġc ient
ĠE S
Ġv oy
Ġdes c
Ġapro vech
Ġg al
Ġv iernes
ter ÃŃa
Ġcan dida
Cu ando
Ġte m
t amos
v ieron
Ġev ento
Ġtotal mente
Ã³ l
Ġsist emas
ol ver
ar do
c k
Ġform as
ĠB ol
ĠMin isterio
Ġk il
ris is
di go
Ġpens ar
Ġd an
Ġfre cu
ris mo
Ġg ri
g ada
ed or
Ġ2 8
Ġten ga
ier e
Ġve lo
Ġacer ca
Ġan Ã¡lisis
Ġsu st
Ġestudi antes
o p
Ġalre dedor
Ġreg iÃ³n
eb o
Ġencon tra
Ġ201 2
Ġinter pre
ĠF ern
ri tu
ĠDes de
Ġg o
Ã¡c ter
Ġcaracter ÃŃsticas
ta ble
ĠInter net
Ġpes o
Ġman e
Ġ q
t rimon
Ġhab ÃŃan
Ġreg res
Ġedi fici
Ġcar Ã¡cter
mi te
Ãº a
or k
Ġmater ia
ica ciones
Ġdesarrol lar
tu d
Ġc el
tel ig
A C
ues tas
Ġcol ores
v in
Ġrecom end
Ġexcl us
Ġpr ome
Ġd orm
Ġdifer encia
Ġpel ig
Ġcompr om
Ġdeci siÃ³n
Ġcaus a
Ġbaj a
ĠY a
1 8
Ġmov imiento
Ġ2 6
orm ente
Ġres ist
Ġv esti
Ġ2 7
Ġmom entos
Ġnatural eza
ĠP as
Ġh on
Ġt ÃŃtulo
cion a
ĠÃ©po ca
Ġg uerra
Ġhum anos
ta ba
Ġop ciones
Ã¡t icos
ti da
Ġpermi tir
r y
Ġf ebrero
Ġpres u
Ġob st
Ġn orte
Ġdo lor
t ales
Ġp is
Ġencuent ran
er ia
es tr
Â ³
Ġa just
ig a
ĠD er
um en
Ġex tre
Ġev alu
Ġni Ã±o
Ġpeque Ã±a
Ġide as
Ġdemas iado
Ġentre ga
z an
Ġp ien
w s
ĠT or
Ġsa tisf
Ġn ar
og le
Ġpa gar
ĠE N
Ġall Ã¡
Ġre cl
ĠH er
til la
ÃŃ m
ĠB a
Ġa ten
Ġvis ita
ĠâĢ ¦
ÃŃ fico
ĠdÃ³ lares
ri os
Ġrela ciones
Ġc risis
Ġin tro
Ġmun dial
Ġfab ric
e ar
Ġm ara
Ġliber tad
Ġtama Ã±o
Ġm ec
ti dades
Ġj ur
Ġvar i
ĠE mp
ay a
Ġorig inal
Ġsor pren
Ġfon do
Ġcompar tir
ĠmÃ¡x imo
Ġs omos
Ġcons ecu
Ġper der
Ġcompe ten
ĠAd minist
Des de
ul tura
Ġaut om
Ġra z
Ġ +
Ġorig en
es o
Ġvol un
Ġin glÃ©s
Ġ iz
Ġcam paÃ±a
Ġor ient
Ġsu m
Ġper s
Ġay er
Ġme m
di ente
Ġmateri ales
m bi
qu ina
ĠprÃ¡c tica
ĠInterna cional
Ġmos tr
c ti
Ġesp era
ul ta
Ġver ano
Ġt ampoco
Ġtex to
Ġan d
Ġdistin tos
Ġimp or
ĠT u
Ġlle ga
Ġpeque Ã±os
Ġdomin go
Ġsu puesto
Ġautor idades
Ġincor por
Ġs il
Ġexper im
Ġcre aciÃ³n
ĠN av
e tas
Ġcom ida
Ġanti gu
e e
tar ia
cep ciÃ³n
Ġe qu
Ġe ta
Ġdesarrol l
Ġz onas
Ġprop ie
on g
Ġprogra mas
/ /
Ġbien es
Ġmon ta
Ġenten der
ĠCh ile
Ġ19 8
i ana
form aciÃ³n
Ġd Ã©
Ġe vi
Ġsal ida
Ġse par
ĠRe al
Ġar ri
Ġincluy e
Ġs uel
ĠCol ombia
aliz ada
Ġpan talla
ĠSu per
Ãºs que
Ġdirec tamente
Ġseman as
Ġper mit
Ġpos iciÃ³n
cul os
Ġho gar
h u
Ġrel ig
ti les
Ġiz quier
Ġb lo
Ġcon ce
ĠtelÃ©f ono
esti on
Ġproces os
Ġprovin cia
Ġt ab
Ġdesa par
Ġcons umo
olÃ³g ico
r Ã¡n
ĠT he
ren o
Ġv ie
ab il
Ġejerci cio
ues tro
ĠEduc aciÃ³n
ĠU S
Ġquier es
Ġ6 0
Ġenci ma
Ġalum nos
r er
Ġc ivil
t bol
ĠJes Ãºs
Ġt ro
Ġpod ÃŃa
ĠAn ton
osp ital
id or
e dad
Ġiden tific
Ġde ja
Ġest aban
Ġel Ã©ctr
C om
Ġllam ado
Ġher m
R I
vo ca
teri ormente
Ġval ores
ĠRe p
Ġco che
Ġcomp ren
ti os
ĠÃ¡ mbi
Ġtrabaj os
Ġg lo
ĠCon sejo
un tamiento
Ġde v
Ġb rin
Ġcontinu aciÃ³n
Ġhum ano
Ã© st
Ġconver tir
Ġp ul
ĠsÃ¡ bado
Ġac e
as a
Ġpalab ra
Ġp un
Ġlleg Ã³
Ġi ba
p ero
i el
Ġle van
able mente
p ut
Ġmar co
ĠP al
ci to
ib er
Ġinf orma
A demÃ¡s
ti dos
Ã© tica
Ġdefin i
Ġlogr ar
di s
ĠP u
ac o
Ġcontr ario
Ġgaran ti
d ores
di entes
t ÃŃa
ri to
Ġprov oc
uy e
di miento
d on
Ġblan co
tar ÃŃa
Ġplan ta
Ġexist en
ĠpolÃŃt icas
Ġsol uciÃ³n
tor ial
Ġdistin tas
Ġimp os
ĠD el
ci dos
Ġeuro pe
ĠP rim
Ġide al
Ġparti dos
rib un
Ġpodr Ã¡n
ĠSo cial
gen ier
Ġvo z
en os
Ġindust ri
Ġnivel es
Ġm ic
Ġc ic
le v
U N
ebo ok
Ġmil itar
Ġdis co
ĠAm Ã©rica
Ġrefer encia
M A
Ġsu je
Ġrespons abilidad
Ã¡t icas
Ġade lante
Ġab and
Ġtiemp os
er to
Ġr endi
Ġne gro
Ġmens aje
Ġcompe ti
ĠvÃŃ cti
er te
Ġcl ub
qui tec
p h
Ãº tbol
ĠMar tÃŃn
ĠFran cis
ĠC ON
Ġdo ble
f es
Ġt ir
Ġgan ar
Ġpo cos
uev es
Ġf amos
Ġan un
Ġrecu per
e Ã±o
Ġluch a
ab lo
Ġ201 1
Ġh u
Ġb Ãºsque
Ġob ten
ĠR a
Ġh om
Ġtar je
ĠA u
Ġcor ri
Ġfamil ias
ar la
Ġap re
Ġsimple mente
Ġjug adores
d icos
Ġllam a
Ġme xic
c ados
ar te
qu Ã©
Ġapren der
Ġin nov
Ġdetal les
ĠeconÃ³m ica
c le
Ġdifer ente
k a
u ri
den a
Ġl unes
Ġo per
Ġcl Ã¡s
ĠM ay
ĠÃ ī
Ġen torno
Ġqu iz
Ġalter na
Ġt Ãº
y e
Ġest rel
ĠInstitu to
Ġn orma
tar Ã¡
Ġr en
: //
Ġrespons able
Ġecon omÃŃa
im as
A r
p an
ĠMun dial
m er
ĠelectrÃ³n ico
Ġsue lo
Ġcomer cial
Ġba Ã±o
is l
Ġloc ales
log ÃŃa
Ġesc en
Ġac to
Ġti pos
Ġmara vil
Ġin telig
a pa
ĠE L
S in
Ġen l
ÃŃst ico
ĠF in
ment aciÃ³n
Ġmo tivo
ĠpolÃŃt ico
Ġest ad
ra ciones
ent ado
Ġentre v
Ġtemp era
c la
Ġapro xim
âĢ¦ ]
Ġhist or
Ġrealiz ado
Ġsuper fici
ens iÃ³n
ĠC os
Ġconoci do
Ġher mos
ĠH ab
f f
Ġej ecu
Ġperson ales
Ġinvers iÃ³n
Ġpresent aciÃ³n
Ġocas iÃ³n
is mos
la z
id amente
ÃŃ p
ĠS oci
pec tos
ĠD a
Ġmar cha
Ġperson ajes
Ã³n ica
di das
Ġviol encia
Ġdi ver
Ġde c
i ro
itar ia
ĠM ig
ĠC ap
gr Ã¡
_ _
Ġdis posiciÃ³n
Ġac ces
Ġg Ã©n
ĠRep Ãºblica
Â» .
ti que
ĠA hora
Ġpuer ta
Ġprop iedad
Ġad qui
Ġpregun ta
1 6
Ġdi bu
v ado
Ġr Ã©
Ġinici o
Ġr os
!! !
Ġpres iden
Ġpar eci
ĠM as
Ġen trar
Ġinde pendi
Ġ201 0
w it
aj as
s as
Ġh echos
Ġinteres ante
Ġ2 9
Ġah or
Ġhab itu
Ġtrans porte
E x
Ġocas iones
Ġherramient as
Ġobje to
di os
en cial
Ġve ci
Ġam igo
Ġenferme dad
Ġselec ciÃ³n
Ġpodr Ã¡s
es tiv
Ġ ÃŃn
Ġcom e
CI ON
j u
Ġpres entar
Ġagra de
rib uciÃ³n
Ġart ÃŃculos
Ġde m
Ġ %
ĠeconÃ³m ico
Ġm it
Ġin ver
Ġen s
Ġcon oce
Ġalim entos
Ġar m
Ġbuen as
Ġde moc
Ġj ef
Ġatra c
1 4
Ġtien da
ĠS ecre
Ġexcel ente
j ero
ie lo
Ġex tran
am e
Ġcon vers
Ġp Ã©r
Ġin ci
Ġprop uesta
Ġjorn ada
Ġrepres enta
Ġvuel ta
ĠTo do
Ġam ena
Ġespa cios
ĠG al
Ġcon cent
Ġdes emp
iv er
Ġpe lo
ĠÃ© ste
Ġas i
Ġal mac
lo go
leg io
tar ios
Ġdispon ible
ĠCom isiÃ³n
Y o
ĠJ a
Ġso b
im en
2 5
Ġcateg orÃŃa
ĠMun icip
ez uela
Ġac us
ar o
Ġcomprom iso
el lo
ĠAnton io
ĠNuev a
l ores
ra g
ed ro
ĠSal ud
ĠEn tre
o z
olÃ³g ica
ul tad
ent ales
ĠR os
Ġd Ã©c
ĠM us
ĠJ ust
Ġindust ria
Ġconf orm
Ġ za
o j
Ġvelo cidad
Ġgob ern
un iden
i res
Ġma es
ci ente
Ġpron to
Ġtra tar
ĠFrancis co
Ġfun ciones
Ġtal ler
on ia
Ġf ras
iu dades
Ġinter net
ĠI mp
Ġre ce
Ġcla ve
Ġopin iÃ³n
im ismo
i x
Ġes ca
Ġpr ensa
Ġobje tivos
or ÃŃas
dr Ã¡
Ġpre cis
Ġcent ros
ic es
iz ado
Ġc ru
ĠH um
Ġesc uela
inar ia
Ġmul ti
it ales
Ġban da
Ġ Ã³r
am p
Ġcapa z
ter as
c oles
qu er
Ġpon e
Ġ &
ĠM Ã¡s
ĠEuro pe
Ġrep ro
Ġconten idos
Ġinstal aciones
Ġeleg ir
Ġres pec
ens o
Ġtit ular
Ġos cu
Ġas pectos
z ada
Ġbenefici os
T U
Ġmes a
Ġpaci entes
u ras
b ia
Ġaum ento
1 3
Ã³n de
Ġcr Ã©di
ĠrÃ¡p ido
1 7
Ġin teg
ific ar
Ġcoment arios
ĠtÃ©cn ica
Ġfr on
Ġdi ario
Ġofer ta
Ġpre ci
Ġco b
ran s
Ġcapa ci
ÃŃ r
Ġf em
Ġdis c
Ġnorm al
Ġsu erte
ĠAn d
Ġanim ales
Ġv ÃŃa
an til
Ġh id
Ġper m
Ġmode los
Ġcomple ta
Ġac ci
Ġcumpl ir
Ġ19 7
Ġpreo cup
Ġcomp on
Ġref le
p al
aliz a
irm Ã³
Ġp ena
ĠSe Ã±
Ġsent ir
Ġquer emos
ĠespaÃ± ola
Ġj a
ĠbÃºsque da
Ġ Ãº
? ?
Ġo cup
ĠA unque
Ġad ul
ÃŃ ritu
Ġinform e
ĠP an
Ġj ueves
Ġmit ad
ĠGo ogle
Ġtom a
Ġdi ez
Ġcent ral
ĠU N
Ġab rir
v iv
or ge
ĠO l
P ro
ĠtÃ©cn icas
Ġma gn
ĠD ÃŃa
trimon io
Ġest im
S u
Ġapro b
Ã ģ
Ġco ord
Ġa un
Ġde cor
Ġconf lic
on z
Ġe res
Ġdeber Ã¡
m entar
Ġdi fic
ri que
Ġprue bas
Ġresul ta
Ġestruc tura
Se gÃºn
Ġol vid
Ġsu ficiente
Ġcuid ado
Ġo tor
Ġlabor al
Ġap licaciones
ific ado
Ġkil Ã³
un o
Ġconst ante
p ia
Ġo c
Ã¡n dez
ru mp
l ad
Ã³s ito
Ġqu iÃ©n
6 0
Ġprincip ios
Ġc iudades
Â °
ĠpolÃŃt icos
jer os
vi Ã³
I L
Ġ[ âĢ¦]
di l
Ġmanif es
Ġcu yo
Ġest Ã¡s
Ã©r coles
Ġex terior
com o
Ġinf l
Ġdest ino
ft ware
ĠS h
Ġqu in
Ġescrib ir
Ġub ic
Ġsegu ra
ues tos
tia go
Ġb ril
c ol
ra mos
ien en
Ġsan gre
e os
Ġl ic
Ġ8 0
Ġinst rum
ier to
Ġas oci
Ġt re
Ġdic ha
Ġacce der
ĠS us
Ġdivers os
Ġampl ia
ĠAy untamiento
Ġperfec to
tor ios
Ġpro ve
Ġest arÃ¡
b amos
Ġal cal
ÃŃs imo
Ġbusc ando
les c
Ġcomp ro
Ġin con
Ġor g
ÃŃ fica
Ġher man
der al
j ado
tor al
Ġestu vo
Ġciudad anos
y as
ĠM ic
Ġmie do
ĠMig uel
Ġadminist raciÃ³n
Ġp rac
tu vo
ĠpÃ¡g inas
Ġdig ital
Ġestado uniden
ĠD o
Ġr eno
ĠCon greso
oso tros
a g
ĠD an
p es
Q ue
ĠV ic
U E
ĠAs ociaciÃ³n
Ġb ra
Ġconfi gu
Ġdist ancia
le z
Ġc lic
ab e
Ġconfi anza
Ġinstitu ciones
S O
Ġrealiz a
Ġcon se
Ġconcep to
Ġdef ensa
ma il
Ġbuen os
Ġconv ier
d ado
te les
ru po
ĠÃ¡ reas
Ġemple o
ĠVen ezuela
Ġclas es
Ġm ente
ĠMan uel
Ġm ues
ĠE j
quier a
Ġmil es
Ġpa z
Ã ī
Ġesfuer zo
ĠtÃ©cn ico
Ġde ri
ĠlÃŃ der
Ġor o
Ġhab la
Ġaz ul
E M
Ġt he
gu ay
Ġcir c
ĠmÃ© dico
Ġe p
ar emos
ĠP edro
I O
ue gos
ech as
cion ados
L e
4 0
k i
Ġc if
Ġa trÃ¡s
gra ma
ĠCas a
di eron
ĠGar cÃŃa
Ġinterna cionales
el as
c Ã³
Ġcu estiÃ³n
Ã¡ st
ig ue
Ġpla ya
Ġpes os
Ġro pa
ti ficaciÃ³n
Ġdi v
Ġreun iÃ³n
ĠGra cias
Ġcon ex
Ġ3 1
T ambiÃ©n
t antes
Ġgol pe
ĠseÃ± or
Ġactu almente
di dos
Ġcam pe
Ġf ol
Ġna turales
ut ri
Ġmo da
ĠM al
Ġam ar
Ġinme dia
Ġque dar
te ca
Ġlan z
Ġfi esta
Ġma dera
ĠDes arrol
ĠÃ¡mbi to
Ġ Ã³
im e
Ġquier en
Ġma g
ĠSegu ridad
Ġdeb emos
Ġconsi gu
Ġpa is
Ġal tura
ĠRe y
Ġorig in
ras il
tr on
Ġref lex
Ġprop ios
Ġcom ba
t ador
Ã© tico
Ġno ta
ue las
ĠL i
Ġmunicip io
Ġcolabor aciÃ³n
ios o
Ġden omin
ĠC er
Ġdis min
itu d
ĠpÃºbl icos
Ġh tt
Ġtran quil
Ġf res
Ġdivers as
an ÃŃa
âĢ ĭ
g Ã³
Ġes pos
Ġa v
ul l
ÃŃf icos
Ġ *
Ġvis itar
b ilidad
am o
Ġs ÃŃn
ð Ł
Ġnum eros
cri p
x to
Ġfu ente
Ġap enas
Ġne ga
Ġempez ar
Ġimp le
Ġnego cios
ĠI I
Ġemp ren
Ġfuncion amiento
Ġaf ir
Ġ ul
ĠÃ¡ r
Ġsac ar
ĠtÃ©rmin os
Ġescri to
Ġlo g
Ġcar re
ĠG onz
de m
Ġperio di
Ġmem oria
Ġprogra m
Ġsi ete
Ġgust o
Ġen tidad
ĠF o
Ġeta pa
Ġllam ada
Ġfor tal
Ġcontra to
ĠI glesia
ad Ã©m
den cias
pues tos
Ġun idad
C Ã³mo
Ġdu ra
Ġtradi cional
Ġt orn
Ġdeb erÃŃa
Ġes co
Ġper fil
Ġesc ol
ĠCon stitu
ros o
Ġej ec
ĠO s
ĠP os
Ġhub iera
Ġutiliz a
Ġvis iÃ³n
ĠÂ ·
Ġtr Ã¡
Ġas um
Ġhab itaciones
Ġplata forma
IC A
Ġcomen zÃ³
Ġtele visiÃ³n
Ġperio do
ket ing
Ġmi Ã©rcoles
Ġha ga
Ġinvesti g
lam ento
Ġsal a
Ġj ard
it es
estiv al
Ġcomple tamente
Ġrad io
it y
p ol
ĠgÃ©n ero
Ġmo tor
ĠW eb
Ġterri torio
ĠH e
Ġhab rÃ¡
iste ma
wit ter
Ġv ino
ĠE con
Ġt on
Ġmar tes
Ġimp acto
Ġsos ten
Ġdes can
Ġcul tural
2 4
Ġcu ya
Ġpu do
Ġres iden
Ġf Ãºtbol
Ġev entos
L A
Ġpre fer
i ales
Ġe ch
in ci
Ġarri ba
Ġter cer
Ġpro duci
Ġpubl icaciÃ³n
ĠkilÃ³ metros
Ġderech a
Ġt esti
ĠB en
gu st
g Ã¼
ĠB el
Ġ9 0
Ġdispon ibles
tri z
Ġcuar to
tro l
Ġactu alidad
Ġre cha
C A
Ġdar le
quil ib
p era
Ġfigu ra
Ġpres iÃ³n
Ġf lu
ĠV e
ĠCa tal
Ġequ iv
I T
Ġcal les
ic k
Ġcualquier a
ca pa
Ġmar cas
Ġd ando
Ġsi tios
T e
Ġdeman da
Ġin fer
ĠX X
ĠEs paÃ±
en se
Ġa vent
Ġcomun ic
ĠTo dos
is a
de res
di dad
M Ã¡s
Ġizquier da
ĠpelÃŃcul as
ter os
Ġfue go
om bi
Ġan teriores
Ġinicia tiva
Ġlen gu
le o
â Ĥ¬
Ġorganiz aciones
mi tir
gue z
Ġar quitec
ĠS ur
Ġhab itaciÃ³n
an ce
Ġgan as
Ġpregun tas
Ġconte mp
ĠSan tiago
Ġalmac en
ĠT rans
Ġre vis
ĠM uch
ar ca
ĠE di
Ġelec ciones
ec ÃŃa
Ġdocu mento
Ġfundam ental
Ã³p ez
Ġc m
Ġint ent
Ġmos trar
Ġequi p
Ġmis mas
Ġ200 9
Ġcor re
ĠF und
ribun al
Ġlleg ado
Ġinteres es
ĠA t
As ÃŃ
H ay
Ġza pa
Ġas pecto
ib lio
Ġcirc un
tien en
Ġcar ga
Ġar ro
Ġpor no
ri endo
ĠâĢ ¢
p ora
Ġalcan zar
Ġten iendo
Ġgra ve
ĠE E
Ġn ie
estr uc
i ados
Ġace ite
Ġo cu
Â» ,
j an
Ġ Ã¡n
y os
U S
2 2
Ġc e
le za
Ġgen era
Ġjur ÃŃ
an to
ru p
it ados
Ġde ten
Ġpe dir
Ġgener aciÃ³n
Ġac og
Ġle jos
Ġestrateg ia
ĠD on
Ġps ic
Ġper ÃŃo
d Ã³
in s
Ġapar ece
Ġprimer as
Ġg rado
ĠP at
Ġt ales
Ġconoci mientos
Ġsolu ciones
Ġ ras
Ġaband on
Ġado lesc
g imen
Ġdic en
Ġprofes or
Ġvac aciones
Ġg rÃ¡
Ġre pe
Ġconv ir
Ġb ur
ĠS E
Ġder ro
Ġamb ient
Ġado p
Ġedifici o
Ġde tec
ĠBuen os
Ġblo que
ĠA ut
Ġro de
us a
Ġperson aje
h t
Ġplan tas
pon er
l y
Ġjust icia
Ġar gu
Ġsitu aciones
ĠA ires
ul ado
ĠmÃŃn imo
Ġesper ar
ĠP ablo
v as
ĠFran cia
Ġ7 0
Ġpros titu
ĠMe di
Ġimp er
ĠÃ© sta
Ġtrabaj ando
olog ÃŃas
Ġk m
Ġmanten imiento
Ġjust o
m Ã¡n
Ġch ica
ĠC ab
Ġfamiliar es
ĠCu ba
Ġch icas
diz aje
Ġre quis
ĠvÃŃ deo
Ġhi ja
Ġf er
Ġterc era
Ġre ducir
Ġalgun o
Ġpie zas
Ġpa g
Ġrequier e
P A
in ario
ĠL Ã³pez
bl os
Ġmodi fic
ci ar
ĠMu jer
vil la
Ġdi Ã¡
r Ã³n
Ġen orme
ed ores
ac ho
en der
ĠÂ »
ĠCh ina
Ġsol a
Ġfin ales
ĠO fici
Y a
g al
Ġnorm as
Ġan al
ĠDes puÃ©s
ĠR ob
d ÃŃ
Ġf irm
Ġveh ÃŃculos
Ġ3 5
ĠDesarrol lo
Ġqu erÃŃa
ĠIn v
Ġadminist ra
Ġespe ciales
Ġvar iedad
ĠH oy
udi cial
r ador
cip l
ĠCom er
am or
ĠÃºlti mas
Ġinstal aciÃ³n
til las
Ġveci nos
ĠFac ebook
Ġten gan
ÃŃt ulos
Ġse l
s an
Ġpe or
i amente
Ġherramient a
Ġimp uls
til lo
Ġb ara
u ta
Ġlar ga
Ġcomen z
Ġnoti cias
Ġin c
Ġcompeten cia
ĠR am
ĠT h
Ġaquel la
T en
Ġdu das
Ġsol amente
Ġsab emos
Ġcompr ome
Ġindivid u
a ve
Ġmej ora
Ġvent as
Ġcar ta
on d
Ġdej Ã³
Ġmon e
ĠF u
Ġd Ã³nde
ĠG rupo
Ġpas os
B uen
U U
Ġl uc
Ġal quil
Ġposib ilidades
ĠEst udi
Ġviv ienda
Ġter ror
us e
y Ã³
Ġab og
Ġd ue
Ġcomp ort
ĠH ist
Ġac um
iv as
Ġdeci siones
ci mientos
U R
Ġ200 8
i ores
il los
Ġs esiÃ³n
ĀĀĀĀĀĀĀĀ ĀĀĀĀĀĀĀĀ
tr Ã³
Ġsex ual
Ġsue Ã±o
Ġbo ca
Ġpresu puesto
Ġreg al
Ġtri un
il es
Ġdes pe
ĠCl ub
Ġhum an
Ġb re
Ġpuer tas
Ġfuer zas
Ġconsecu encia
s es
Ġexp lica
Ġcomp lic
Ġexist encia
ĠB rasil
Ġdirec to
ĠB lan
m ina
ĠUn iÃ³n
Ġlec tura
R es
ĠlÃŃn eas
Ġo cho
Ġsu stitu
ĠN os
Ġhici eron
Ġcu entas
Ġo cul
tic amente
Ġcas as
Ġpubl icado
ÃŃ da
Ġri t
ĠB er
Ġrecor dar
Ã¡ is
Ġexp lo
Ġal oj
Ġdescar gar
Ġf as
ĠPres idente
Ġjug ador
Ġveh ÃŃculo
Ġa vis
Ġcr ÃŃt
v el
2 3
Ġt amb
Ġfin es
Ì ģ
aliz ados
ar nos
Ġe fica
c am
Ġvin cul
an g
Ġobst ante
Ġm ala
tu s
Ġca tal
iemp re
Ġen tra
L O
Ġab or
Ġsal v
it amos
ĠcompaÃ± eros
Ġviv o
V A
Ġpie dra
Ġposib les
Ġencan ta
Ġp ris
Ġbar rio
h n
Ġso ftware
Ġfu entes
Ġrespe to
ĠDirec ciÃ³n
Ġsec tores
Ġfir ma
Ġll u
ĠfÃŃs ica
ĠÃģ n
f re
Ġjef e
ch as
P o
Ġaquel las
Ġregist ro
8 0
Ġesc al
H oy
Ġdic h
Ġestable cer
man ia
ĠVal encia
Ġrev el
Ġse de
Ġl ech
Ġqued Ã³
Ġmic ro
p les
Ġfis cal
Ġen tidades
Ġmen ores
Ġcon oc
Ġex posiciÃ³n
Ġfin almente
ĠB l
Ġpo bre
Ġi di
ĠC re
Ġm am
Ġre lev
ti g
Ġi do
t y
Ġmin istro
Ġex ter
Ġnove la
Ġpodr ÃŃan
f on
Ġescen ario
Ġs ome
k er
Ġrendi miento
ĠPer Ãº
ru pciÃ³n
ĠEs o
ĠEmp res
ĠC ruz
ic ciÃ³n
Ġsuperfici e
Ġun idades
Ġre quer
Ġ ran
Ġprop ias
D urante
Ġopera ciones
ch ez
Ġt es
Ġme ta
Ġcu mple
Ġver de
Ġcam a
ĠmÃ¡x ima
ĠJ av
Ġan o
Ġresta u
ĠAdminist raciÃ³n
Ġpr om
@ @
Ġlleg ada
Ġdocu mentos
Ġest an
Ġac adÃ©m
ci da
ie go
c Ã©s
ios a
Ġgener ar
Ġex ac
b la
Ġap un
d Ã³n
Ġg ras
Ġ >
Ġre tir
Ġm ent
ĠF er
un cia
Ġdom ici
Ġenfr ent
Ġpeque Ã±as
Ġres olver
fica ciones
el es
Ġhac ÃŃa
in do
Ġp ec
Ġres oluciÃ³n
Ġsec ciÃ³n
ue bles
Ġex cep
ĠprÃ¡c ticas
ĠD av
Ġc ita
) :
Ġde p
ier o
an zas
Ġar gent
ven ida
am ble
Ġo peraciÃ³n
ĠT a
Ġincre ÃŃ
f in
k o
Ġc Ã¡n
ĠDE L
Ġespe cie
ĠE lec
) ;
Ġcer c
ga ciones
p lic
Ġg es
A T
Ġemb ara
or g
ĠE m
Ġtempera tura
f ÃŃa
C O
Ġhab rÃŃa
ĠRe v
Ġh arÃ¡
Ġar tes
Ġpla za
Ġag reg
Ġre ac
an da
Ġg a
on da
ĠPol icÃŃa
ĠF ue
Ġcri ter
Ġsencil lo
ĠN orte
d ust
f Ã©
ero p
ĠA g
ĠY ork
Ġdi go
iv e
ĠOr gan
de raciÃ³n
Ġf en
tu mb
por tes
Ġsu pone
Ġpe dido
Ġa bajo
Ġvide os
us ia
Ġreg ular
Ġc Ã¡mara
Ġa st
ĠpÃ©r dida
ĠF is
Ġenferme dades
ĠEst os
ĠB e
Ġleg al
Ġcomer ciales
Ġmaravil los
Ġint entar
ĠB us
Ġm Ãºlti
der os
Ġs omb
ra cia
Ġprincip almente
ĠD u
Ġbel leza
Ġabier to
Ġproduc e
Ġpermit en
Ġsue le
Ġcolec ciÃ³n
ona to
Ġingres os
k y
er an
Ġpas Ã³
Ġrealiz Ã³
Ġhum ana
Ġtien das
ier an
it Ã©
tis mo
tor ias
Ġpol icÃŃa
9 9
uen cias
ĠseÃ±al Ã³
ĠEs pe
Ġpo dido
ok ies
j or
Ġcal or
ĠM ac
ĠD omin
Ġsim ilar
Ġmec an
Ġdi put
ĠC ada
Ġh Ã¡
Ġag re
Ġexper iencias
Ġescuch ar
ĠR om
pues tas
Ġagr ad
Ġis la
ĠH u
ĠSeÃ± or
* *
Ġfel iz
Ġcor te
Ġcorrespon diente
ĠV ir
ĠPro fes
ĠFund aciÃ³n
it ada
Ġc iencia
Ġtrans form
Ġprem io
e des
Ġvic toria
Ġna cionales
Ġamb as
Ġcircun st
Ġtras lad
Ġincluy endo
ĠJust icia
Ġj am
te m
Ġcons ol
Ġsal e
ĠÃ¡r bol
Ġte j
âĢ ¢
Ġve o
Ġde porte
is iones
Ġer ror
Ġru ta
Ġgas tos
ĠC ivil
I M
Ġtrad uc
Ġabs olu
Ġdes af
Ġelec ciÃ³n
Ġloc alidad
Ġsigu en
Ġco inci
r ales
Ġfac tores
il ares
r eras
it arios
l en
Ġapren dizaje
u das
ĠPre m
Ġre y
Ġtri tur
ĠN i
Ġimpos ible
ĠperÃŃo do
Ġcer eb
Ġ =
Ġh ar
Ġcomun idades
ĠP Ãºbl
in ados
E T
Ġdes eo
ÃŃ guez
ĠT ri
e Ã±
ĠpÃºbl icas
Ġcumpl imiento
Ġdeb es
Ġofrec en
id ar
Ġparticip antes
Ġfal le
i aciÃ³n
Ġconsul ta
Ġcomen zar
Ġcomer cio
Ġrecor rido
Ġg e
Ġp iso
Ġ Ġ
quil la
Ġdi vi
T ras
Ġfuncion a
Ġman da
Ġpue blos
Ġde trÃ¡s
ĠT ele
ier ta
b ra
Ġexper tos
ĠB al
ĠServ icio
Ġn omb
dr ÃŃguez
Ã¡n ica
Ġcomer ci
vi amente
Ġap er
Ġpriv ado
Ġur b
v era
ar le
Ġraz ones
Ġreco g
i gu
Ġpro bar
ĠPer son
ĠcÃ³ digo
Ġr ue
Ġaum entar
Ġf ase
Ġinform Ã³
Ġhub o
Ġr ÃŃo
Ġe quilib
k s
Â ª
me tro
Ã¡n d
u f
Ġvuel ve
m isiÃ³n
ĠC ur
Ġverda dera
iv amente
h ib
am ento
. âĢĿ
Ġllev Ã³
ar ial
ĠrÃ© gimen
Ġdisposi tivos
ad io
g ados
Ġf ar
ĠS ec
in t
Ġ ital
Ġtarje ta
Ġsor pres
Ġhay an
Ġgaranti zar
Ġten ÃŃan
Ġcor to
Ġsens aciÃ³n
Ġforma to
u Ã±a
Ã¡n chez
d s
Ġs es
Ġcondi ciÃ³n
Ġprop uestas
o que
ĠP P
Ġsi quiera
Ġdist ribuciÃ³n
Ġc rim
i anos
ra z
Ġest Ã©n
ĠSe gÃºn
l ÃŃ
Ġreconoci miento
ĠU r
Ġson ido
tal ia
ide z
C h
Ġcomien za
olÃ³g icos
Ġrev ista
Ġd ul
Ġdeb ate
Ġdes per
Ġconstru ir
Ġa us
in ta
ĠPro vin
Ġata que
graf ÃŃas
Ġesp ero
ĠT ras
ĠEsc uela
ar me
Ġpres entes
ien das
Ġofer tas
es tre
Ġden unci
Ġcomp os
Ġcur sos
Ġiden tidad
Ġdis par
is la
Ġinten s
ĠN O
Ġnoti cia
Ġman tiene
Ġfon dos
ĠcrÃ©di to
c rib
ra estruc
p r
Ġe c
Ġenl ace
Ġplan es
k ing
cion amiento
st ru
Ġac re
Ã©n dose
ĠÃģn gel
ez ol
or e
Ġdecl ara
am entos
ti go
au gu
Ġpar que
Ġrelacion ados
ĠvÃŃcti mas
Ġen em
Ġaproxim adamente
ĠP l
Ġmunicip al
ĠF el
Ġre mo
ĠRo drÃŃguez
Ġpar ecer
ven ir
Ġmar c
ĠrÃ¡p ida
rib uy
ĠP RO
w n
ĠIn f
g amos
Ġh al
Ġexplic Ã³
Ġexpres iÃ³n
fici encia
ĠJ orge
Ġform ul
ĠP uerto
u p
ĠServ icios
Ġind ica
A P
gen cias
Ġesp ÃŃritu
V I
Ġviv e
Ġin augu
Ġdescub rir
Ġele v
u de
Ġarti stas
Ġglo bal
4 5
Ġcan ciones
en es
Ġdel ante
ĠRe d
] âĢĭ
Ġcoment ario
Ġdisposi tivo
Ġj untos
Ã¡ lez
Ġpri or
En tre
ĠmÃ© todo
Ġcon tras
ra el
A hora
Ġb io
Ġadul tos
ÃŃ gen
e Ã±a
uc ÃŃa
Ã¡m ica
ac as
Ġherm ano
EN T
Ġtar ea
ĠJ un
Ġconver tido
Â «
Ġdej ado
Ġgust arÃŃa
ĠtÃ©rmin o
Ġconex iÃ³n
Ġt ren
Ġcons ec
to dos
ti ma
Ã©n do
Ġ5 00
Ġc ielo
Ġcos to
pa ti
Ġoportun idades
Ġc aja
Ġil um
Ġhab itantes
Ġentrev ista
Ġfor o
Ġdist ribu
Ġencontra mos
ti sta
Ġb omb
Ġrit mo
Ġn utri
Ġfem en
ĠS Ã¡nchez
ĠespaÃ± oles
Ġestadouniden se
ec a
Ġ200 7
ĠO n
ĠN ic
G ra
yec to
Ġin tenciÃ³n
Ġoblig a
Ġconte xto
Ġtermin ar
Ġemple ados
L E
Ġac tos
ĠPor que
Ġpi es
or ios
ĠT V
Ġcir cul
ĠM il
Ġreci bido
Ġpaci ente
Ġcar ne
Ġju icio
Ġmiemb ro
Ġinf lu
cia ciones
Ġsir ve
Ġar mas
Ġper iÃ³
Ġdu ro
A unque
ĠLe Ã³n
Ġal ma
ar los
i ri
ĠComun idad
Ġampl io
Ġreno v
Ġpoten cial
Ġpubl icidad
ar ra
Ġ4 5
Ġdetal le
c Ã³n
olu cion
Ġsil en
Ġac os
t ÃŃculo
Ġcre ado
Ġcon tiene
Ġde bajo
ĠIn cl
Ġvol umen
de ras
Ġter reno
Ġproteg er
Ġr um
Ġg ama
Ġobje tos
ol uc
Ġinstitu ciÃ³n
ĠAl gun
Ġi gu
ĠAle mania
B A
tera tura
Ġpas ando
Ġarti sta
Ġc Ã¡l
Ġdirec ta
Ġmir ada
Ġhistor ias
ĠprÃ³x ima
Ġley es
Ġocur re
ĠS il
Ġley endo
Ġsur g
ĠhistÃ³r ico
Ġade lan
ĠJ unta
Ġ19 6
ti cias
as h
Ġrecuer do
Ġcon den
ĠFern ando
AR A
i pe
tr ado
Ġespec ta
Ġm ig
ĠSe villa
Ġelim inar
ĠAn dal
p ens
Ġser es
ĠGonz Ã¡lez
Ġpreo cu
ulta des
Ġme dic
uch a
Ġconf irm
Ġca dena
2 1
ĠBan co
Ġleg isl
Ġcer tific
Ġp uso
Ġen ter
ĠA z
Ġli ter
Ġrecl am
Ġpas ada
Ġpers pec
Ġinter venciÃ³n
201 8
Ġcol ombi
r adas
Ġlimp ieza
Ġofici na
Ġneces aria
Ġcon voca
le ta
ĠL ib
ti mos
Ġcier re
Ġt ÃŃp
de os
Ġust edes
Ġprome dio
Ġil ust
Ġasegu rÃ³
ĠT ecn
P re
ĠDav id
Ġproce dimiento
ber to
Ġprac tic
Ġmens ajes
Ġv oc
Ġvolun tad
R ES
us iones
Ġmez cla
ĠO ri
Ġpri ma
r ores
lan o
Ġde partamento
Ġ @
ti mo
Ġa gres
ĠV illa
ut bol
Ġcl ÃŃn
Ġprop Ã³sito
2 6
Ġrequis itos
C E
ĠP en
ĠCrist o
Ġcan ciÃ³n
2 7
es tas
Ġten dencia
Ġresist encia
Ġque dan
ular es
Ġest ren
indo ws
u dos
ti das
Ġp ic
I F
ran o
Ġcan al
tam ientos
gra m
Ġsolici tud
Ġdi m
ĠT al
Ġub icaciÃ³n
a de
Ġa se
Ġlech e
ien es
Ġre por
Ġp endi
Ġda Ã±o
el la
Ġpas e
ĠS em
Ġimpres ion
Ġtar eas
Ġpa t
Ġd ro
Ġven der
Ġinte gra
de dores
Ġac udi
ĠmÃºlti ples
Ġem erg
Ġcic lo
Ġh ospital
Ġvia jes
ĠP on
ÃŃ z
Ġco ti
Ġneces arios
Ġcl ima
Ġvis it
ci Ãĥ
Ġesc ena
erop uerto
ĠC ultura
er do
ww w
Ġ rol
t adores
Ġreci ente
le y
Ġarch ivos
Ġpro ducir
Ġinf ec
dic e
Ġtor no
Ġhabitu al
Ġex pe
ĠS istema
Ġref orma
Ġsu ma
Ġro jo
Ġw ww
Ġbenefici o
ĠPar tido
Ġorgan ismo
r arse
Ġv istas
Ġb i
Ġsab or
Ġmus ical
gr ÃŃa
esti ones
Ġherman os
ĠcÃ¡n cer
Ġdu raciÃ³n
3 5
Ġllev an
ĠInv esti
Ġperman ente
Ã© rez
ĠG er
Ġpre f
Ã³lo go
Des puÃ©s
Ġpromo ciÃ³n
ĠL uego
Ġbre ve
% .
Ġb os
ue los
lec ciÃ³n
Ġconci encia
Ġt era
Ġsu pon
Ġtendr Ã¡n
Ġperfec ta
Ġsu minist
Ġar ran
Ġmov imientos
Ġgu ÃŃa
P S
Ġex am
tien de
os os
Ġref iere
Ġpo cas
ĠS am
Ġpoten cia
tÃ© g
Ġev oluciÃ³n
Ġre duci
Ġv ul
Ġasist encia
ĠA D
in ada
g adas
Ġlengu aje
Ġcontro lar
Ġh ier
Ġpues tos
. )
ĠA quÃŃ
Ġreserv a
iz ada
Ã©r cito
amble a
Ġtamb ien
Ġencontr ado
Ġb ici
Ġcre e
Ġhon or
Ġi glesia
jer on
qu inas
Ġplan eta
Ġdesc rib
ĠIn dust
Ġub icado
Ġprecis amente
ĠD urante
j al
Ġresta urante
Ġinfer ior
Ġagu as
ĠÃº til
2 8
Ġpos e
Ġconoci da
Ġcon curso
âĢĻ ,
Ġmen cion
ĠV I
ÃŃ c
Ġper dido
ĠEurope a
Ġl Ã³g
ĠDer echo
Ġde pendi
ues tros
ĠR E
Ġtecn ologÃŃas
Ġsuel en
ĠfÃŃs ico
duc e
ĠT ierra
Ġaplic ar
genier ÃŃa
Ġsab en
Ġquiz Ã¡s
Ġrealiz aciÃ³n
ru guay
Ġn ombres
Ġrecon ocer
Ġar reg
ĠA L
Ġhi po
ĠF or
Ġop tim
qu en
Ġespec tÃ¡
ri tÃ¡n
Ġrecuer da
Ġfrecu encia
ĠrÃ¡p idamente
Ġpresent ado
ID AD
on do
Ġsu ave
ĠR usia
3 3
Ġhtt p
Ġasegu ra
Ġinf antil
Ġreci biÃ³
Ã ĳ
ĠS ub
Ġhac emos
Ġpro du
Ġ3 00
ĠA na
z z
Ġefec tu
ĠM Ã¡
un g
Ġag entes
Ġpu tas
Ġsolici tar
M i
Ġpe le
Ġcons iste
Ġlen gua
Ġ Ð
ĠC iencias
Ġases or
Ġv endi
ĠT Ã©cn
Ġform ar
Ġven ezol
ĠP ri
m m
an e
Ġdomici lio
Ġmer cados
M ar
le t
qu ia
Ġpl acer
Ġsub ir
Ġv emos
eci Ã³
Ġg l
Ġinte lec
Ġcier ta
ĠCo pa
ĠA st
Ġsegun dos
Ġmis iÃ³n
Ġh os
ĠH ar
Ġpor ta
Ġcu entan
Ġmo tiv
ruc ciones
a a
pi ra
ĠMunicip al
9 0
Ġcomport amiento
ci les
Ġdeber Ã¡n
Ġqu is
Ġrepresent antes
Ġas c
Ġpresent Ã³
Ġaudi o
Ġapar tado
Ġimp lic
Ġalim entaciÃ³n
O D
ol ina
Ġadecu ado
Ġg ana
Ġasegu rar
Ġac aba
Ġevalu aciÃ³n
ÃŃst icos
Ġv io
Ġpriv ada
Ġsi ento
h at
Ġentre gar
Ġpor cent
Ġgratu ita
ĠT witter
Ġcontinu ar
Ġdorm itor
Ġalcan ce
Ġsi mp
pi raciÃ³n
Ġb ru
Ġutiliz ando
h or
Ġindustri al
ĠP Ã©rez
D is
Ġf om
ĠG re
Ġactu aciÃ³n
Ġal co
Ġtan tos
vi mos
rim iento
Ġfran cÃ©s
ĠCent ral
Ġenv ÃŃo
Ġexp an
ĠB as
Ġgra b
w e
ĠR u
Ġries gos
Ġ3 6
in i
s en
Ġpa que
Ġpro tes
Ġfen Ã³m
ĠEs p
Ġpreten de
Ġantigu o
Ġrespons ables
Ġconcre to
Ġelem ento
ĠprÃ³x imos
Ġch icos
% ,
Ġsu ces
Ġll eno
Ġer rores
ĠH ol
ÃŃs ima
ĠD ist
ĠF orm
ĠPla za
Ġneces itan
i i
Ġconsec uencias
t ing
ĠEst as
Ġpro gres
Ġex pec
ĠS te
ĠT ribunal
Ġco okies
Ġqu ÃŃm
Ġcomun es
Ġinf raestruc
Ġcarre tera
v iera
Ġpis cina
Ġesp al
Ġabier ta
Ġe tique
gu ar
Ġll en
Ġ )
Ġval e
Ġcl ara
ĠDe partamento
Ġpues ta
ĠL in
Ġni Ã±a
Ġco cin
R ec
ort s
Ġejec uciÃ³n
Ġg estion
ig na
Ġca fÃ©
Ġg ar
Ġarch ivo
Ġdi eron
Ġam ist
Ġmas a
r ÃŃ
Ġalcal de
Ġad j
tiz aciÃ³n
Ġtrabaj a
Ġest aciÃ³n
U C
Ġter ra
ĠS ala
Ġas unto
uev e
Ġrespon der
Ġcer can
Ġh uel
Ġincluy en
ces a
Ġestable ce
Ġv aya
Ġutiliz ado
Ġo posiciÃ³n
Ġf lor
Ãº car
U L
ad ura
do ba
Ġde jo
Ġsitu ado
ĠCos ta
es ÃŃa
ĠPue de
Ġne g
ci r
Ġf ich
Ġconv oc
ĠD r
ĠPro duc
Ġperfec tamente
Ġdes en
Ġb u
Ġbeb Ã©
Ġespos a
Ġpropor cion
Ġau tores
Ġf lo
Ġsencil la
Ġtrans par
Ġpens amiento
ĠmÃ© dicos
Ġexp lor
Gra cias
ĠO N
Ġcontac tos
M uch
s al
Ġso porte
Ġfoto grafÃŃa
tu ales
ĠestÃ¡n dar
? ,
Ġp ilo
Ġes con
ab ora
ro id
Ġceleb raciÃ³n
r ue
Ġpelig ro
gr ado
ĠA udi
iver so
eci do
ri da
am Ã©rica
Ġinv oluc
ĠnÃºm eros
Ġconse jos
Ġacci dente
Ġimpor ta
' ,
Ġmin er
ĠZ apa
Ġhabl ando
Ġdest ru
af a
t om
Ġlu jo
uev a
Ġcab al
Ġextra ord
ri eron
pen dencia
Ġmen udo
ĠsÃŃn t
Ġconflic to
ĠV ol
Ġdescon oci
Ġf lex
Ġafir ma
ĠTra bajo
Ġmo tivos
ĠT rump
T ER
b os
ĠFe deral
Ġl ist
7 0
ĠJav ier
ĠincreÃŃ ble
Ġda Ã±os
Ġdes ea
Ġdes ay
Ġrece ta
l in
Ġfuer tes
u almente
ĠÃī l
Ġfuncion arios
Ġsab es
ĠT om
Ġcon tes
Ġbas es
Ã³ stico
Ġcomun icado
Ġab ra
Ġconvier te
Ġagrad able
Ġverda dero
Ġam eric
ier nos
Ġdocu ment
A B
ĠA mb
y s
2 9
es per
Ġpro te
Ġhab ilidades
Ġdef ens
ĠPro grama
ti eron
Ġindependi ente
Ġco leg
Ġre m
Ġcal iente
in te
Ġaut Ã©n
ĠtÃ©cn icos
Ġserv ir
P ue
Ġcar b
Ġactu ales
Ġnave g
di mientos
ĠA gu
Ġca er
ĠC orte
Ġautor idad
Ġ ..
Ġal ar
Ġdis cipl
Ġre lo
Ġaper tura
ĠmÃ¡ quina
ĠConstitu ciÃ³n
ion ales
Ġg er
Ġac lar
ic ales
que z
ĠC la
ĠFern Ã¡ndez
ĠC ul
ĠSecre tarÃŃa
Ġaum ent
n i
h ol
Ġrecib e
Ġanunci Ã³
Ġreci Ã©n
Ġde uda
Ġ200 6
Ġjue z
Ġaut on
Ġestrel las
Ġtu rismo
Ġcab ello
H ace
ĠG a
Ġcont ribu
ĠJo hn
Ġhacer se
Ġv it
ala cio
Ġmar keting
v os
p in
Ġto que
Ġqued ado
Ġpos terior
Ġde leg
Ġres ca
ĠA C
Ġper ro
ĠdÃ©c ada
Ġmi ra
ĠF uer
Ġpe ti
Ġcont am
Ġin gre
Ġsecre tario
ĠM at
ĠL iga
te o
ĠD eb
ĠEj ecu
Ġimp on
ris a
ad Ã¡
3 6
ĠDe f
b um
x o
Ġmo d
ĠM ientras
Ġde cÃŃa
Ġenvi ar
Ġgener ales
americ ana
Q U
il os
en das
ub e
ĠÃºn icamente
Ã¡ stico
Ġcos ta
ĠG uerra
Ġcu idad
Ġllev ado
Ġ ðŁ
Ġanim al
ĠtrÃ¡ fico
ĠI talia
I V
Ġch ico
Ġi leg
ĠMartÃŃn ez
Ġsu p
Ġar tic
gu en
Ġestable cido
Ġfacil itar
Ġch oc
Ġro bo
Ġac cion
- ,
capa cidad
Ġca ÃŃda
Ġn erv
I B
Ġcu Ã¡n
ĠIn formaciÃ³n
Ġprotagon ista
5 00
Ġderi v
Ġfan tas
ĠT iene
Ġrecu peraciÃ³n
Ġprostitu tas
Ġre ca
Ġaf irmÃ³
z ca
Ġv ienen
Ġalquil er
Ġt asa
r ente
Ġindic Ã³
Ġintegr al
aj o
bi os
Ġdes n
Ġprem ios
Ġv idas
Ġb ritÃ¡n
ti stas
Ġpens ando
Ġac titud
ĠGu ar
olÃ³g icas
ĠC Ã¡mara
Ġsab ÃŃa
ent ro
Ã± ar
Ġvis itas
Ġinici al
or ar
Ġfr ÃŃo
ĠA N
ĠW indows
P er
Ġv iendo
du ras
or as
ĠprÃ¡c ticamente
Ġf utbol
mar t
Ġdeci diÃ³
ÃŃf icas
Ġdefini tiva
Ġvia jar
ĠeconÃ³m icos
Ġc uel
Ġen amor
Ġref orm
Ġcos tos
Ġte atro
z on
ig os
ĠmÃ³vil es
Ġdis puesto
Ġins pir
ist en
Ġadecu ada
Ġll ena
u ma
Ġban co
Ġes encial
ĠT ar
ĠJ ulio
Ã¡ bamos
Ġimp ar
Ġofici ales
Â ´
Ġâ Ĥ¬
Ġneces arias
I G
ĠT ur
Ġas ign
Ġcandida to
Ġr in
Ġimp lica
Ġbus can
ic ultura
ĠHo tel
Ġemp ieza
Ġrecuper ar
Ġc ruz
ecre to
Ġcam p
b res
ĠA ma
Ġsu fici
Ġtar if
af as
ĠG e
Ġconsul tar
ĠC Ã¡
Ġelec toral
Ġsim ilares
Ġt ier
S S
ĠMus eo
ĠO c
Ġcon cur
Ġur g
i j
ĠF lor
ĠP D
ĠA ctu
as o
ĠMun do
Ġrepresent aciÃ³n
ĠH ern
Ġreg alo
Ġpr Ã©st
ĠP ues
S o
Ġma trimonio
Ġpin tura
l ada
il le
Ġdepen de
Ġindivid ual
Ġha go
Ġap ara
Ġa bre
ĠSan to
Ġterc eros
it ando
. [
Ġdispon e
Ġap ort
Ġcaus as
CI A
Ġmane jo
P ar
Ġinver tir
ĠRe ino
ĠaÃ±ad ir
Ġdel an
Ġestrateg ias
ĠfÃ¡cil mente
oso fÃŃa
ter n
Ġros tro
Ġh uev
f icos
Ġcompren der
Ġsal Ã³n
Ġfi estas
Ġpropie dades
Ġi gn
II I
Ġc Ã©l
Ġaquel lo
Ġso cio
Ġcomp ras
ĠC OM
Ġesper anza
Ġmez cl
t ones
Ġgaran tÃŃa
5 5
Ġdej ando
Ġescri biÃ³
m es
Ġconf ir
Ġinnov aciÃ³n
Ġprofes ores
ĠS ab
Ġre ales
Ġreg ul
Ġpes e
Ġl ide
c ciÃ³n
Ġcircunst ancias
Ġvent aja
t Ãºa
Ġacon te
. "
Ġgen ial
Ġllam ar
Ġlogr Ã³
Ġadqui rir
ĠPar que
Ġco p
Ġpl eno
ĠS en
ĠLa tina
Ġcam is
ĠBol iv
and ro
to l
ĠM en
Ġorg ul
tu des
Ġtrad iciÃ³n
Ġv es
Ġni Ã±as
Ġneces itas
ĠF il
Ġper ci
ist encia
lan d
ĠSal v
Ġres pal
tes is
y endo
Ġsal vo
Ġcap aces
ï¿½ ï¿½
Ġju z
Ġi P
Ġtorn eo
ĠC at
Ġf echas
Ġceleb rar
Ġespeci es
Ã³r m
Ġp echo
Ġcomien zo
ĠC Ã³r
l ando
T R
Ġsal iÃ³
Ġex por
M P
t ÃŃ
Ġcomple jo
Ġdi eta
Ġcre er
ĠMe dio
ĠcompaÃ± ÃŃas
Ġac u
Ġja pon
Ġf lores
id u
Ġt ono
Ġb iblio
Ġfun cional
Ġinclu ir
Ġpue das
Ġempez Ã³
Ġal tos
Ġdestac ar
Ġ3 2
ĠS olo
Ġacre di
r icaciÃ³n
v io
Ġan alizar
Ġa go
Ġpuer to
Ġre to
Ġorden ador
Ġpos ee
C ar
Ġestra tÃ©g
is os
am i
Ġpie za
americ ano
Ġte orÃŃa
Ġmo vil
Ġaz Ãºcar
Ġestudi ar
u alidad
ap Ã³n
9 5
D E
ĠFis cal
Ġpar ecÃŃa
h abil
Ġprob ablemente
ĠSoci edad
Ġpri va
Ġus a
ĠlÃŃ qu
ĠAn dr
Ġv iento
el er
ĠP Ãºblica
Ġtu vieron
Ġdetermin ar
Ġadi cional
ĠG estiÃ³n
Ġre ducciÃ³n
ĠLe er
Ġcorrespon de
Ġest ados
ĠF re
to logÃŃa
Ġutiliz an
ste d
d remos
Ġc Ã¡
Ġcon ta
H a
Ġac or
qu ÃŃa
Ġcomp ut
N os
Ġtex tos
Ġnuev e
ĠMa g
Ġanti gua
ĠP C
Ġcu ch
Ġdifer encias
ĠhÃ¡ bi
ĠComer cio
Ġinv ierno
tr ic
o peraciÃ³n
Ġcon oz
Ġcu Ã¡l
Ġsi ente
Ġpresent an
h am
mit es
Ġjard ÃŃn
Ġdomin io
if e
I P
ond res
Ġconvertir se
Ġcir cu
Ġdestac a
Ġdeclar aciÃ³n
Ġviv en
Ġcul turales
ĠEst Ã¡
u ir
mar as
Ġt ÃŃtulos
Ġdemoc racia
ĠÃ¡ l
r arÃ¡
Ġrestau rantes
o t
Ġnuev amente
Ġexpec ta
or Ã¡n
ĠG ab
ĠR ÃŃo
tura ciÃ³n
Ġ200 0
e la
Ã³ d
o ta
Ġto car
ĠAndal ucÃŃa
ĠseÃ± ala
ĠH ospital
ĠenseÃ± anza
I EN
ĠFe deraciÃ³n
ri dos
Ġreci entemente
Ġentr adas
ĠNuev o
-- --
Ġesc uelas
Ġfoto grafÃŃas
Ġg uer
Ġad mi
ĠJ ul
Ġjam Ã¡s
Ġinme di
inar ias
Ġhi per
tr al
Ġm m
b el
Ġutiliz aciÃ³n
Ġcon qu
h an
Ġquer ido
Ġimp uestos
ĠE d
Ġpermitir Ã¡
Ġan ual
3 4
ĠEn tonces
Ġli teratura
Ġde cre
Ġsent encia
l on
Ġen ga
Ġlle gan
Ġcor rupciÃ³n
di mos
Ġentren amiento
f rica
Ġfin alidad
Ġas ociaciÃ³n
Ġdef ender
Ġraz on
ter s
Ġcuad ro
Ġescol ar
d y
Ġdis curso
Ġd or
Ġcompon entes
Ġpan tal
dr ÃŃa
Ġminu to
Ġt um
ĠD iv
Ġbol sa
ĠD ec
Ġaten der
To dos
Ġinter ac
Ġcr ÃŃtica
Ġens ay
M a
Ġrealiz an
To do
Ġsegu ros
Ġtan tas
ĠclÃ¡s ico
Ġl um
Ġpopular es
Ġf ib
ĠNo ticias
Ġvol viÃ³
com un
Ġan s
ĠPro tecciÃ³n
Ġman ual
d ados
il aciÃ³n
Ġsuper ar
Ġj udicial
Ġincre mento
ill er
ĠL iber
Ġrealiz ada
ĠB ur
Ġllu via
d om
Ġdesarrol lado
Ġcier tos
ĠPar ÃŃs
f as
p p
m al
ĠHist oria
ĠD ecreto
ĠR afa
D O
Ġacep tar
AD O
Ġc erv
m enta
rist as
ĠPla ta
ĠC Ã³
ĠdiÃ¡ logo
ĠD oc
Ġr ent
Ġg r
Ġpelig ros
den tal
Ã¡n ico
Ġna cimiento
Ġapar ecen
Ġconf orme
!! !!
mi go
Ġesper ando
ion ar
e v
ĠM ur
ĠPa z
Ġd ur
Ġac tivos
Ġargent ino
Ġdeci dido
Ġac tores
Ġreg las
Ġa j
ĠA ust
Ġale grÃŃa
ic en
Ġad v
Ġdecor aciÃ³n
Ġrecur so
Ġaut Ã³n
an t
un dar
Ġcos te
iz on
Ġac ero
ĠF estival
Ġp ide
D A
ĠT ea
x il
Ġac tor
Ġres al
ier en
Ġcu rios
ara go
Ġperiodi sta
in ter
le tas
Ġ3 4
Ġg ig
Ġmo to
Ġap os
Ġch il
Ġesc ala
Ġso f
Ġt ribu
s ar
Ġh orm
Ã¡ndo le
ĠNe w
Ġcam pos
Ġalterna tiva
par tam
j era
Ġdescu ento
un da
Ġs Ã³l
Ġparti da
Ġsorpres a
t Ãº
Ġvis itantes
ĠJ er
Ġprev ia
Ġvent ajas
Ġdis pu
Ġvig il
Est o
Ġcor rer
ĠA P
Ġbienes tar
e go
t res
la ciones
Ġevi dente
Ġdoc tor
3 9
Ġres puestas
r aron
Ġviv iendas
Ġactu ar
Ġconsegu ido
Ġzapa tos
Ġv Ã¡l
Ġh ice
Ġcu estiones
Ġrelacion adas
ĠA R
Ġquier a
Ġper ros
ĠdÃ©c adas
Ġpro to
7 5
Ġhor ario
Ġperson alidad
ĠVal le
la ga
Ã ł
Ġnego ci
en aje
Ġdel ito
u bl
ĠPol ÃŃtica
Ġdi je
Ġsegu imiento
Ġmer can
ĠsÃŃnt omas
ĠPrem io
Ġal er
ĠAnd roid
vent ud
cin di
Ġh el
Ġparticular es
Ġprepar aciÃ³n
Ġcorri ente
w a
Ġsilen cio
Ġpudi era
ĠCÃ³r doba
Ġceleb ra
Ġconv iv
st er
Ġtaller es
ĠmÃ© todos
Ãį A
Ġvul ner
Ġprev isto
Ġba talla
Ġefec tivo
Ġfras e
ent en
Ġmo ver
Ġdeclara ciones
ĠlÃŃ deres
ter rÃ¡n
g or
am bre
Ġe mi
Ġus ando
c ra
Ġfras es
ĠDer echos
Ġrecor d
Ġep iso
Ġcan tante
id aciÃ³n
Ġa ma
Ġpromo ver
ĠFac ultad
ĠG ol
Ġdirig ido
Ġa leg
iz ados
Ġcomb inaciÃ³n
G O
y en
ĠL ondres
Ġint ento
Ġg ir
z ando
Ġofrece mos
Ġs ho
Ġra to
ĠS Ã³lo
ĠU no
Ã³n ico
âĢ¦ .
Ġplan o
ĠA M
Ġcu estion
der ÃŃa
Ġho teles
Ġanun cios
ĠEspaÃ± ola
Ġhuman idad
ez ca
Ġbaj ar
P ues
Ġunivers idad
? .
am es
Ġperspec tiva
ĠIn g
aliz adas
Ġvesti do
Ġcoti di
Ġal m
Ġexplic ar
Ġtradi cionales
Ġg ira
Ġpar ecen
ific ados
Ġest ancia
ĠE ra
Ġacab ar
ĠV il
Ġdia gn
u x
as te
Ġra p
Ġcont ribuy
al d
Ġc Ã¡r
Ġref ug
i ada
Ġinclu ido
Ġhum or
ci das
Ġtele f
Ġorganiz ado
Ġd arÃ¡
Ġdes ign
Ġpro pon
ep res
Ġso cios
Ġcereb ro
Ã¡ les
Ġca tÃ¡
Ġ200 5
Ġintelig encia
Ġsos p
Ġacer car
Ġinflu encia
Ġinteres antes
Ġde fec
Ġcu esta
Ġ15 0
ĠJ uegos
Ġindi s
Ð ¾
Ġsu ger
ĠIn st
Ġpen al
ĠJ e
o x
Ã³m ico
ĠNav idad
ĠI b
Ġfra cas
ez as
us os
Ġacon di
Â ®
i ciones
Ġlanz amiento
Ġesfuer zos
Ġform an
Ġreg ional
Ġescri tor
Ġas o
Ġre pu
ĠSe gun
Ġtritur adora
Ġdific ultades
Ġme ter
Ġco legio
Ġpre venciÃ³n
Ġin greso
Ġedifici os
Ġcol um
Ġa tre
ort un
ar t
Ġimpres iÃ³n
ĠS ÃŃ
Ġtra yec
ĠCas tilla
at amente
ĠEn cuent
Ġopin iones
Ġlo gra
ĠDan iel
ĠAle j
i jo
C o
p ul
ĠcompaÃ± ero
Ġestable cimiento
ĠLa tino
Ġbo tÃ³n
Ã³m ica
ĠIn form
Ġefica z
Ġconsider ar
ĠH asta
am an
Ġdescan so
Ġv ay
ĠD ig
fer encias
en ciales
ĠE r
Ġco ber
Ġal tas
ĠCatal uÃ±a
Ġinici ar
Ġlogr ado
u a
os as
d icas
Ġt ec
Ġcier tas
Ġpri vi
4 8
ĠOr den
Ġdemoc r
u aciÃ³n
ĠEn rique
i anza
Ġ4 8
3 8
in ando
Ġcu ento
Ġcar i
ĠCons ul
Ġmal o
as ti
ĠPu bl
Ġcer rar
Ġdes ac
Ġgan ado
Ġc ruc
Ġprepar ar
Ġna ciÃ³
Ġar re
Ġcre cer
Ġpol ici
Ã© ut
ĠC O
ĠM os
Ġpartici pa
ing ton
e y
Ġa ver
Ġselec cion
l Ã³
Ġcorrespon dientes
der Ã¡
Ġmues tran
Ġgas tron
dem ia
Ġconci erto
oc k
ad al
arago za
Ġconvoca toria
Ġso le
Ġcorrec ta
Ġv osotros
Ġf ren
Ġdis cu
Ġpl ena
Ġcorrec to
Ġamig a
Ġprob able
Ġh in
ivers ario
Ġa eropuerto
Ġblan ca
a que
gu es
ĠM es
Ġpres tig
Ġsobre viv
Ġingre dientes
Ġcompro bar
Ġre tro
Ġestar Ã¡n
ĠU su
Ġpa de
Ġpo ca
Ġconcep tos
Ġpos teriormente
it Ã³
ĠÃ¡l bum
cri to
Ġ19 5
__ __
Ġpropor ciona
Ġdesp laz
ĠIs rael
Ġdeb a
Ġafec ta
ari amente
ĠR adio
Ġavent ura
Ġesta tal
Ġb ro
Ġfac tor
IC O
SO E
Ġb r
Ġp ene
Ġ3 8
Ġejerci cios
ĠSuper ior
ib e
Ġherm ana
Ġapar ecer
ÃŃ na
C H
Ġmonta Ã±a
Ġcolec tivo
Ġag encia
ĠE cu
or io
Ġcomb ust
f icas
ĠAr m
Ġmuer tos
Ġg rad
Ġsent imientos
Ġcom isiÃ³n
ĠM ed
Ġman ip
Ġden uncia
Ġaprovech ar
Ġvie jo
Ġdos is
ios os
Ġidi oma
Ġf l
c ada
ĠAs amblea
Ġest rech
ĠlÃŃ mites
ĠD os
Ġpas iÃ³n
ĠI II
oo d
ĠA ca
Ġac tivo
Ġco ches
ĠCom itÃ©
i que
Ġempres arial
Ġmaes tro
p la
Ġtu ve
ĠDirec tor
Ġgu itar
Ġacos tumb
aj aj
Ġelabor aciÃ³n
Ġimp ac
Ġar ena
Ġestrel la
Ġdif un
Ġcor ta
Ġvo tos
cam bio
Ġcor por
Ġfinanci era
Ġinmedia to
Ġrealiz arÃ¡
Ġpa trimonio
Ġposi tivo
ĠG as
Ġinvestig adores
Ġlab ora
Ġdestac Ã³
Ġm uebles
Ġimp ul
ĠM is
S on
r g
Ġmir ar
ĠvÃŃcti ma
tor nos
Ġ id
Ġ ic
A c
Ġencontra ba
ter al
ĠN Âº
dr Ã¡n
e di
Ġme tal
ik e
ĠEjecu tivo
Ġcan cel
hi bi
Ġfi j
ĠAp ple
Ġc ientos
s er
Ġac tiva
ĠPa ÃŃs
Ġno ches
Ġporcent aje
ic ha
3 7
Ġbon ito
ĠSalv ador
ĠD iego
Ġnorma tiva
qu ie
Ġentre ten
P E
Ġhab il
Ġenf oc
Ġmunicip ios
Ġleg ales
Ġlic encia
ĠM ir
Ġb es
ĠV is
Ġdemos trar
Ġdi ciendo
Ġcap ÃŃtulo
ĠM uy
b ur
ĠJ apÃ³n
Ġdorm ir
w er
ens iones
ĠeconÃ³m icas
ĠespectÃ¡ culo
Ġpar cial
Ġpo t
op era
ĠAut Ã³n
Ġacces orios
Ġgob iernos
Ġobserv ar
Ġcuel lo
Ã© ro
ĠL ic
ĠV iv
s in
ĠL or
Ġtriun fo
Ġtra to
ig ht
qui to
Ġidentific ar
ĠMo v
Ġmilitar es
Ġcub rir
Ġdi os
ĠPo pular
Ġme todo
Ġintegra ciÃ³n
Ġespal da
Ġa pa
Ġdedic ado
ci enda
Ġsegura mente
Ġcerc ano
ĠAp ren
Ġho jas
Ġconvir tiÃ³
it s
in ten
ĠUn idad
Ġpor tal
Ġeleg ido
ab el
g et
Ġespecta cular
h one
ne y
Ġquiz Ã¡
Ġc able
Ġcontin Ãºa
ĠAndr Ã©s
S E
Ġdi ri
Ġj e
Ġcient ÃŃficos
Ġanun cio
Ġinf in
Ġhu bi
l d
me di
Ġma pa
Ġofici nas
Ġsue Ã±os
Ð °
Ġsuce de
Ġgust an
ci ta
Ġmor al
Ġter mina
Ġnov ia
gen da
Ġproce dimientos
Ġambient al
Ġlib res
Ġpan or
Ġur ban
ĠAl berto
is p
Ġcom pati
ĠI l
Ġmoder no
ĠC E
Ġle tras
Ġeleg ante
b erg
Ġabs or
Ġtier ras
s ion
l ÃŃn
Ġfamos o
Ġan teriormente
Ġhom enaje
Ġvo to
Ġper u
Ġbo da
Ġrela j
Ġcriter ios
Ġigual dad
Ġp ista
Â ©
Ġm ac
Ġinm ig
Ġv uelo
Ġme tro
Ġfab ricaciÃ³n
Ġcateg orÃŃas
ĠlÃŃ mite
Ġapar tamento
ĠcÃ©l ulas
... ]
Ġ3 3
Ġclar amente
Ġases ina
Ġg or
Ġfan tÃ¡
Ġmuer to
Ġsuje to
Ġpareci do
Ġun iverso
Ã¡t icamente
Ġdeci dir
mo bil
ter ra
ĠS iempre
Ġllegar on
Ġp unta
u re
ĠTu rismo
ĠÃģ l
Ġbas ado
Ġorganiz a
if orn
d omin
Ġpas aj
posi ciones
ĠCÃ³ digo
y n
ĠX V
I X
ab ilidades
ĠL oc
Ġespecial istas
Ġel ig
pres iÃ³n
ĠL uc
Ġ4 00
Ġimp lan
F E
Ġcap it
Ġprev io
aliz Ã³
ong itud
Ġamist ad
Ġpris iÃ³n
ide l
Ġcif ra
ĠA gr
Ġgas to
cu ra
Ġvig ente
Ġtan ta
rim ir
Ġcar reras
Ġimpres cindi
Ġban cos
Ġpla tos
Ġe ficiencia
Ġocu pa
Ġalco hol
Ġm ental
Ġla tino
Ġcon migo
Ġorigin ales
Ġtele vis
Ġbra zos
Ġdise Ã±os
ci entes
Ġex itos
Ġemo ciones
Ġmexic ano
Ġsex uales
Ġconst a
ĠTea tro
ĠvÃŃ deos
ĠÃ ļ
Ġsim ul
Ã© ticos
Ġpas an
D I
is h
4 7
Ġdich os
Ġrepar aciÃ³n
ĠP ARA
ĠN uestra
Ġ ;
Ġsecre to
Ġri que
Ġso por
Ġro b
Ġcon ces
ĠCo legio
rag Ã³n
Ġes que
gan os
Ġpro tec
Ġdocu mentaciÃ³n
Ġnove dades
Ġexac tamente
ĠF amil
Ġoblig aciÃ³n
Ġenc ab
Ġinstrum entos
ĠfÃ¡ b
Ġconsider ado
U M
ĠCom p
Ġcar tas
el os
1 00
Ġser io
st os
ĠYo u
Ġestudi ante
ĠUn ido
ĠelÃ©ctr ica
d ri
cul ares
Ġac ord
Ġgan Ã³
Ġsegu idores
f al
Ġapro pi
Ġtra tamientos
Ġmedic amentos
ĠSo bre
Ġar ras
ĠsÃŃ mb
Ġaus encia
an es
er io
Ġlec tor
ĠU ruguay
ĠS ch
Ġver siones
Ġex ces
Ġpron unci
ĠH on
ĠC reo
Ġadolesc entes
Ġpar ed
Ġrepresent ante
des a
Ġcul pa
Ġcab e
Ġo jo
Ġfundam entales
Ġpa tr
Ġpla zas
Ġdibu jos
Ġinfraestruc tura
ĠLe g
Ġprogram aciÃ³n
ĠA ra
Ġalim ent
Ġformul ario
Ġbici cle
v iendo
Ġson risa
Ġtab la
ĠdiseÃ± ado
Ġconfigu raciÃ³n
ĠB ro
Ġinvers iones
uc le
Ġopera tivo
Ġperm ita
Ġsign ificado
Ġac eler
Ġactu aciones
Ġpe da
Ġb ras
Ġad quis
r Ã©s
0 5
form as
Ġmas cul
p Ã³
Ġba terÃŃa
ĠC lar
Ġgratu ito
Ġtesti mon
S an
Ġgener almente
S A
ri el
Ġinc endi
ven ciones
Ġ201 9
Ġfel icidad
Ġpare jas
ĠEcon omÃŃa
Ġgras a
ĠC D
ĠAr te
Ġinterpre taciÃ³n
Ġvent ana
ĠV ie
Ġequilib rio
Ġapar iciÃ³n
Ġpobre za
teri al
ĠP in
ĠOrgan izaciÃ³n
Ġt rim
ĠT i
Ġref or
Ġpi diÃ³
em or
Ġsegu ido
Ġap lica
tar a
ĠNo v
un ciÃ³n
Ġcan ales
Ġin gles
Ġind ÃŃgen
Ġcon ferencia
Ġre visiÃ³n
Ġcompeten cias
Ġl la
ĠfenÃ³m eno
Ġconsum idores
in adas
ĠHum anos
Ġmer ece
Ġgobern ador
Ġpla to
Ġdul ce
Ġinteres a
Ġinvesti gaciones
Ġaf irm
ĠA ir
ĠTra baj
Ġejemp los
Ġequiv al
i esta
Ġfel ici
ti d
Ġprepar ado
ar las
M o
ĠAr tes
Ġf rac
Ġcel ular
ur ÃŃa
ĠAl cal
Ġ200 4
z adas
ĠF al
Ġinmedi atamente
Ġcar gos
Ġle ÃŃdo
ĠR ic
M ientras
b us
r om
ĠP SOE
Ġtrans formaciÃ³n
Ġaf i
ra y
Ġtrabaj an
im nas
Ġavan ce
i mp
Ġven ir
ce dentes
ĠPue des
ion ado
Ġpublic Ã³
ĠAs imismo
am Ã¡
Ġres uel
Ġdej an
ĠT ex
Ġgra ves
Ġha gan
ĠPD F
Ġinteg rantes
it h
un do
Ġaloj amiento
ĠV ide
ic s
Ð µ
Ġre emp
19 9
ĠM el
is co
ĠM c
Ġtrayec toria
Ġllam adas
Ġre cre
Ġj oy
Ã³m ez
Ġsol ar
c amiento
Ġningun o
Ã¡ndo lo
ĠcÃ³mo do
ter na
4 6
ĠC ir
Ġclas ificaciÃ³n
Ġpod remos
Ġnumeros os
Ġl ine
Ġper f
Ġenf oque
d ras
ran a
Ġme t
ĠMÃ¡ laga
Ġ7 5
Ġemo cional
Ġten gas
Ġcon tigo
M an
Ġcontra tos
og rÃ¡
Ġcor pora
it en
Ġcif ras
ĠT el
3 2
Ġdefin iciÃ³n
ĠF ab
Ġdesay uno
Ġfu i
ap ia
Ġaf il
ĠRafa el
Ġpl Ã¡stico
ĠbÃ¡s icos
Ġpol vo
C ada
Ġv ib
T he
z ados
as as
Ġinstal ar
Ġcol on
Ġvuel to
Ã©s pe
Ġecon om
ĠJ ef
Ġten dencias
Ġcandida tos
Ġdirig ida
ĠB os
Ġcontemp orÃ¡n
ĠEspe cial
Ġvir tual
Ġreg iones
Ġtal ento
Ġquer er
Ã± ez
Ġarquitec tura
r Ã©
en de
ĠDÃŃa z
Ġagreg Ã³
Ġubic ada
Ġs Ãº
Ġap uesta
3 1
Ġdefin ir
Ġse g
Ġp Ã¡r
Ġempres arios
P res
Ġque de
7 8
Ġhor izon
in ales
A CIÃĵN
ten cia
Ġtarje tas
x i
t n
Ã §
ĠacompaÃ± ado
Ġbol s
Ġf Ã³rm
ĠTor re
CION ES
cul a
Ĩ Ĵ
ĀĀĀĀĀĀĀĀĀĀĀĀĀĀĀĀ ĀĀĀĀĀĀĀĀĀĀĀĀĀĀĀĀ
ÃŃ mp
te dr
Ġsuf rir
Ġfir me
Ġocur riÃ³
Ġeduca tivo
iz aciones
ĠIn te
Ġtermin Ã³
Ġso ber
u z
ĠCon se
Ã³lo gos
g ano
Ġpon en
Ġlabor ales
Ġreun iones
Ġembara zo
Ġpro pone
roso ft
Ġpregun tar
ĠSu pre
ĠCam pe
ĠEl la
Ġintelec tual
Ġconcent raciÃ³n
Ġterra za
b y
Ġp us
itar ias
ta je
Ġdesarrol la
Ġm Ã¡g
Ġne gra
Ġpun tu
Ġlleg ue
201 7
Ġtrans misiÃ³n
s ic
Ġa Ã©
Ġexpecta tivas
Ġla v
Ġco pia
ĠF a
T ra
ĠA lex
Ġaf ron
Ġacuer dos
in er
ĠhistÃ³r ica
ĠDis eÃ±o
ĠR ub
Ġalterna tivas
Ġcontinu a
Ġhermos a
um bre
Ġcuer pos
l Ã³n
Ġgust ado
Ġcober tura
Ġcons ist
Ġin cu
Ġh omb
Ġpropor cionar
ĠAt l
ĠL es
ĠR oma
O C
ĠS im
Ġdoc entes
H e
m erÃŃa
4 4
Ġpre para
Ġcrist al
Ġprofun do
Ġoc ci
ĠL ima
ent imiento
Ġad ver
Ġata ques
l ia
Ġins cripciÃ³n
AL ES
ĠJ im
Ġm oles
Ġprofun didad
ĠPÃºbl ico
Ġvir us
Ġemerg encia
Ġir re
in d
ĠInvesti gaciÃ³n
Ġno tas
Ġto ca
Ġleg isla
Ġjug ue
Ġf ues
entar ia
Ġmunicip ales
Ġac triz
Ġreco p
ol ut
Ġtendr ÃŃa
dad or
Ġre ti
Est os
Ã ¨
ĠcÃ¡r cel
ar ro
g ando
Ġin quie
ĠS eb
Ġses iones
Ġenfr entar
Ġser ia
Ġfis c
er tos
vo z
Ġconoci dos
Ġri val
Ġactu alizaciÃ³n
Ġlegisl aciÃ³n
Ġg oles
ĠH ace
Ġ3 7
Ġcons igue
Ġsu g
Ġapor tar
ĠEn erg
Ġd ra
Ġprove edores
Ġrecom ienda
an s
Ġac a
f os
F in
Ġinter cambio
Ġ5 5
t z
ĠÃģl var
n y
Ġqu itar
Ġale mÃ¡n
ĠZ aragoza
ĠE du
Ġre in
Ġp ac
Ġpien sa
Ġj ud
Ġ200 3
Ã³ st
Ġdeb ÃŃa
tor ÃŃa
Ġsin g
Ġt ol
ĠAr ch
Ġv ÃŃas
Ġcomplic ado
Ġmon tÃ³n
Ġp las
Ġgaran tiz
ĠP adre
H ab
Ġguar dar
end ario
Ã³ lica
Ġconstitu ye
h ÃŃ
a Ã±os
Ġ ?
ĠB or
Ġdetermin ado
ĠMon te
Ġre tras
Ġlec tores
Ġfigu ras
Ġserv idor
Ġdi vis
Ġfinanci ero
olut amente
m Ã¡tica
Ġllev arÃ¡
As imismo
Ġbas ada
Ġexten siÃ³n
Ġd aba
er ra
Ġcont Ã³
Ġcon m
Ġsig los
Ġan iversario
ĠMuch as
Ġposi ciones
Ġprotagon istas
Ġm ando
Ġapoy ar
Ġciudad anÃŃa
ĠcÃ¡ maras
Ġinde pendencia
Ġpu ente
ic ano
0 6
Ġes cu
Ġsac ri
fic amente
0 8
Ġcre ma
ĠV i
Ġdi jeron
Ġextran jero
Ġdifer enci
ĠAlgun os
Ġpas eo
Ġrev oluciÃ³n
ul ada
Ġsatisf acciÃ³n
Ġun if
Ġcompar aciÃ³n
i ario
Ġorgan ismos
Ġg ris
st o
ic ana
Ġpier nas
Ġg rados
Ã³r ico
Ġtom ando
ĠP el
ĠA cu
Ġmar ido
Ġdig itales
Ġsigu iendo
ĠG Ã³mez
' .
ĠAg encia
Ġdi pl
em ent
ÃŃcul a
Ġve ge
f ru
idu os
Ġab und
um e
Ġacon se
Ġcoloc ar
Ġrecom iendo
Ġreconoci do
Ġnorm almente
Ġsac erdo
Ġchoc ola
Ġr ico
Ġamena za
Ġa mp
Ġtom Ã³
Ġdes h
Ġre per
iforn ia
Ġabog ado
j Ã³
ĠEcu ador
b it
Ġrecon oce
v ie
ĠGran ada
Ġcom edor
ĠW ill
Ġesp iri
ĠS U
0 9
Ġinv itados
Ġle tra
0 7
Ġinform es
Ġpubl ici
Ġdel itos
Ġtej ido
Ġmodific ar
ĠM ario
Ġcomo didad
ĠCar men
ĠMe jor
Ġolvid ar
ug ÃŃa
Ġro ck
Ġcambi ado
Ġtrans por
Ġinter no
ĠHern Ã¡ndez
âĢĻ .
Ġdiagn Ã³stico
Ġti ro
Ġvit am
ĠIn s
ier es
i gual
Ġt ap
Ġpod Ã©is
ti ble
G u
Ġten siÃ³n
v ez
ĠPrim era
ĠM ol
Ġrelacion ado
L uego
Ġfil osofÃŃa
Ġarti fici
ĠF ar
ve la
ĠAlej andro
ĠR iv
Ġar ma
Ġenl aces
Ġmar gen
Ġentren ador
ios as
ĠB r
ĠA S
Ġmor ir
Ġintelig ente
Ġc itas
Ġform ado
Ġâ ĨĴ
c Ã¡n
g na
Ġtra er
Ġe mail
Ġextre mo
Ġf estival
u tas
Ġo x
go tÃ¡
ril la
ril lo
Ġmoder na
Ġimp uesto
or ld
s s
Ġaum enta
grÃ¡ fica
ĠAn ti
la terra
Ġapar te
Ġl ad
Ġrealiz ando
Ġbrin dar
Ġvis ual
all er
Ġro dil
Ġexpres Ã³
am as
l le
Ġrespec tivamente
Ġas pir
T OR
4 9
ter ÃŃas
v ido
Ġres tos
paÃ± as
ĠN aciÃ³n
Ġcri tic
me j
m ica
Ġperiodi stas
Ġcas tel
Ġrealiz adas
Ġv ÃŃn
Ġcomb ina
hu a
Ġcam bia
ci eron
Ġmen Ãº
Ġdepor tivo
ĠÃ¡rbol es
Ġat ribu
Ġn aciÃ³n
ĠMujer es
ĠI P
ĠPres iden
ĠNic ol
Ġin just
Ġregres o
Al gun
Ġl ongitud
ĠCon tra
ar as
@@ @@
Ġconduc tor
endi do
Ġman eras
Ġser ies
qu ilidad
ĠFo to
ĠP alacio
Ġaprob aciÃ³n
Ġemp u
uc a
Ġe ficiente
ĠD ip
ĠT an
Ġcapaci dades
enda ciones
ĠC r
o ca
Ġcont amos
ĠW ar
ĠA f
Ġrecomend able
Ġma tem
cin as
n al
Ġalum no
ĠmÃ¡ quinas
Ġign or
to p
Ġre pos
Ġla ment
Ġexplo taciÃ³n
Ġencontrar Ã¡s
Ġdi entes
Ġv id
i des
Ġdependi endo
U D
Ġmon itor
Ġaudi encia
b es
o d
Ġextran jeros
ĠG ob
ĠB ra
iz an
I R
Ġdisc rim
Ġexp los
in cu
Ġpublic ar
ĠBoliv ia
Ġbras ile
Ġin com
Ġinteres ados
Ġdi aria
ĠPor tu
Ġinstrum ento
Ġcer em
ec o
Ġinici Ã³
Ġpare des
Ġp uls
ing Ã¼
st rucciÃ³n
ĠL OS
Ġs orte
Ġrev olucion
Ã ļ
Ġa den
ĠE se
Ġfinanci eros
in io
tus ias
Ġpens ado
Ġestad io
ĠDe por
U no
Ġ6 5
Ġquier as
Ġoblig aciones
Ġpre venir
un as
Ġreflex iÃ³n
Ġl isto
Ġa qui
Ġacab ado
Ġ om
Ġpublic ada
Ġmedi cina
Ġfinanci aciÃ³n
Ġpo bres
Ġe cu
ĠK a
TI V
Ġplan e
i ter
Ġpar o
Ġequiv oc
Ġponer se
Ġbo tel
Ġm Ã³d
ĠT es
Ġconserv aciÃ³n
Ġautor izaciÃ³n
Ġas untos
ĠIn de
Ġma qu
ĠU E
Ġav iÃ³n
Ġna v
Ġd arse
Ġespiri tual
olu ciones
Ġcircu ito
ic ar
Ġpien so
Ġrefer ente
Ġcon sejo
Ġpre viamente
Ġcient ÃŃfico
g ip
Ġdoc ente
Ġnumeros as
Ġv ital
m ana
Ġma tar
ĠTo das
Ġra ÃŃz
Ġintens idad
Ġdi gn
Ġtom ado
Ġre tra
Ġcorrec tamente
ĠCam p
Ġdivers idad
A d
Ġles iones
hat s
Ġdif usiÃ³n
Ġahor ro
Est amos
Ġfe deral
Ġdedic ada
s ito
Ġdej amos
f era
ĠCas tro
Ġt h
ĠN uestro
Ġprofun da
ĠDa tos
ĠO ro
ent arios
ĠH D
Ġexclus iva
Ġdescar ga
Ġpreocu pa
di ciÃ³n
Ġus ado
in an
ĠelectrÃ³n ica
Ġevi dencia
Ġasist ir
Ġh echa
in to
Ã¡ rez
Ġtendr Ã¡s
idar idad
Ġcl im
Ġt able
Ġgu ard
Ġen tusias
Ġc ero
Ġcampe Ã³n
Ġau tos
Ġpreocup aciÃ³n
Ġlo ok
Ġpa gos
Ġcer rado
Ġdemos trado
ĠmÃŃn ima
Ġperten eci
ur al
S er
Ġtur no
ĠSeb asti
ĠQu Ã©
ĠÃ© stos
Ġproduc tores
ĠBl ack
Ġins pec
S al
Ġinf ancia
Ġpor tÃ¡
Ġv el
ri sta
Ġh ues
ĠEstudi os
all ado
ĠIndust ri
Ġh osp
ĠNe gro
Ġre cepciÃ³n
Ġexclus ivamente
Ġabs olutamente
jer ÃŃa
Ġru ral
Ġinclu idos
Ġhid ra
Ġch at
ĠC las
Ġtotal idad
uri as
Ġinteres ado
trÃ³ leo
Ġfacil idad
Ġencontr Ã³
undar ia
x x
Ġsin c
ici as
om ba
Ġextre m
ĠPo demos
Ġluc es
ĠVir gen
Ġcu ri
Ġca tÃ³
Ġpu de
Ġcomba te
Ġcre en
Ġindivid uales
ĠS O
Ġcomple tar
Ġne u
ist emas
Ġ3 9
Ġcomp uesto
ÃŃn ea
Ġpeti ciÃ³n
Ġper ju
Ð ¸
Ġcom entar
Ġinst rucciones
Ġc ach
Ġa isl
ĠCol or
ĠD ar
Ġhac es
Ġdific ultad
ĠCon tin
graf o
ĠPo der
Ġhor no
Ġco operaciÃ³n
on al
Ġap as
Ġab st
Ã± ado
' s
ĠEspaÃ± ol
Ġex pon
ĠOfici al
ĠiP hone
6 5
Ġsocie dades
ĠComun icaciÃ³n
l ie
Ġpre mi
Ġterc ero
id al
Ġmag ia
Ġtran quilidad
Ġdeclar Ã³
ĠR osa
Ġejer cer
Ġdiver tido
Ġdispon ibilidad
A y
gr ad
Ġsuper iores
Ġba Ã±os
grÃ¡ fico
Ġvis u
ĠP S
N A
Ġrela to
Ġagrade cer
Ġcin ta
ĠN aciones
ĠE qui
ĠCar ta
Ġpaque te
americ anos
Ġefec tiva
ĠEs per
Ġdeber ÃŃan
ĠS oy
Ġhabl amos
Ġavan ces
Ġocur rido
Ġalmacen amiento
Ġbaj os
Ġdro gas
Ġconst ruc
Ġdis cre
me dio
ĠPro yecto
Ġestruc turas
ĠMay or
ĠFel ipe
Buen o
M I
Ġgan ador
B C
dis mo
i am
ÃŃ dos
Ġsi mb
Ġre acciÃ³n
Ġmar car
Ġasist entes
Ġperten ece
Ġrece tas
Ġins u
Ġresiden cia
ĠCal ifornia
Ġco g
Ġad or
ĠMe tro
ĠAn tes
Ġcontac tar
Ġt echo
m ir
Ġs h
Ãº cle
u to
to Ã±o
Ġbril lante
ter apia
Ġital iano
Ġsin dica
Ġmin ist
er t
m ala
Ġhum il
Ġproduci do
Ġh ambre
ĠRic ardo
Ġpar Ã¡
Ġrepe tir
tri cidad
Ġconflic tos
Â¡ Â¡
ĠIn genierÃŃa
ĠC e
Ġapor ta
Est as
ĠI V
Ġluch ar
Ġvideo j
Ġcoment Ã³
Ġan cho
ĠP h
ĠelÃ©ctr ico
Ġintro ducir
ĠcrÃŃt icas
Ġconven io
Ġpriva cidad
Ġrique za
Ġest rÃ©s
Ġar que
Ġc ena
Ġespecial ista
ĠIng laterra
den as
Ġbar ra
ĠCul tural
ent ario
ĠCon trol
Ġafec tados
Ġayud an
Ġex cepciÃ³n
ri tos
Ġtranquil o
Ġcam paÃ±as
c ambi
Ġtrad u
Ġtra e
Ġantigu os
ĠB ern
Ġimp orte
Ġdi as
Ġme te
Ġencar gado
Ġexam en
t ÃŃas
Ġtempor al
ĠmÃ© dica
ash ington
F ue
Ġllev aba
Ġten ia
ĠV an
ĠC el
Ġju ris
Ġexist entes
Ġestar ÃŃa
ig h
Ġfron tera
0 4
ĠReg istro
r ones
Ġextra Ã±o
tiv e
Ġreco ger
Ġpla yas
Ġmecan ismos
Ġper j
Ã©n d
ĠB re
Ġa er
Ġdes gra
ĠEE UU
ĠU sted
Ġcuar ta
Ġex ceso
ĠMic rosoft
Ġdirector a
ĠEdu ardo
den es
cios o
Ġmon um
G A
Ġan aliz
Ġpermi tido
Ġtri ste
erg io
Ġil usiÃ³n
Ġmul titud
ĠForm aciÃ³n
ĠelectrÃ³n icos
Ġconvers aciÃ³n
Ġru ido
Ġh ÃŃ
Ġproduc en
Ġautom Ã³vil
Ġdeci de
ier te
Ġre ma
ĠW al
Ġocu par
ĠT ener
Ġcu mp
ÃŃcul as
Ġadi cionales
Ġca u
ĠBo gotÃ¡
Ġf um
8 8
ĠD ra
Ġconduc ta
Ġ200 2
Ġajust e
ĠE mple
V er
Ġplata formas
Ġsal udo
Ġpl en
Ġl Ã¡
Ġhier ro
ĠC Ã³mo
I CI
Ġ <
st ica
Ġtrabaj ador
Ġeduca tiva
Ġunivers idades
Ġau xil
Ġpendi ente
Ġcan tidades
g in
ĠDomin go
ĠQ uer
Ġcomun icaciones
tam en
tar Ã¡n
Ġcuidad os
Ġes encia
it ores
f un
Ġbar co
Ġchocola te
tr ÃŃa
man es
Ġnar ra
ur ar
Ġg ay
Ġedi torial
tra ciÃ³n
Ġmone da
Ġesper an
j ada
ĠMe xic
b or
Ġton el
Ġ200 1
Ġdistin to
Ġmas co
Ġi ban
Ġescri tura
Ġencab ez
ĠS ud
C U
ĠIn dia
Ġtempera turas
P ubl
vi de
Ġregist rado
Ġoscu ro
Ġatrac tivo
Ġdormitor ios
ĠL an
Ġcam inos
Ġflu jo
ĠSoci ales
ue ble
ĠHa cienda
gles ias
Ġsalud able
Ġmanif ies
ma to
Ġhermos o
u an
sta gram
ĠS tar
Ġha z
Ġmaes tros
Ġven ido
201 6
Ġcla ves
Ġinst ante
ra te
ĠAm biente
tion al
Ġampl iar
ĠEs a
ĠD ic
Ġrom per
Ġprofes iÃ³n
Ġest ric
Ġsal en
a der
Ġrelo j
ĠB il
ĠUn idas
Ġprivi leg
orm es
ĠSan tos
Ġnave gaciÃ³n
Ġposi tiva
Ġc en
Ġsus p
m is
ĠIncl uso
Ġv uestra
Ġcal endario
Ã© tr
l ico
ĠAr t
d f
Ġdi visiÃ³n
Ġcu Ã¡les
Ġint enta
ĠestÃ© tica
Ġcrea tividad
ĠI r
i tivo
ĠNa tural
Ġl lan
Ġab ur
M S
Ġlle vo
Ġpais aje
ĠV ia
S ÃŃ
Ġmol ino
fici o
ven il
b ro
ec as
par te
Ġen tiende
Ã³n imo
Ġrecuer dos
ĠProvin cial
Ġfabric ante
Ġcons ciente
m n
Ġcertific ado
Ġbos que
ĠÃ³r ganos
ĠP R
Ġsomb ra
Ġmanifes tÃ³
Ġsec und
Ġrecom endaciones
Ġurb ano
Ġag ente
ĠPe Ã±a
Ġavis o
Ġinstitu cional
Ġb e
Ġencuent ros
Ġesper aba
Ġdisc usiÃ³n
Ġcu yos
ĠbÃ¡s ico
Ġve ter
Ġun iÃ³n
ER S
tan der
ac u
201 5
di as
Ġinmedia ta
Ġbal ance
Ġcon trar
Ġa genda
- .
4 2
Ġres iduos
ĠÃ¡n imo
Ġpod amos
ĠA do
ĠL en
raz go
Ġde je
Ġpa p
Ġmostr Ã³
s h
Ġest abilidad
Ġpro ven
Ġconcl uy
Ġdim ensiones
ĠRey es
Ġgra cia
Ġc ien
Ġen rique
ĠR io
ĠT emp
Ġar mon
Ġdocument al
Ġimple mentaciÃ³n
Ġpo esÃŃa
Ġr enta
Ġcam inar
Ġfin alizar
Ġeurope o
Ġred ac
ĠS ierra
Ġres umen
c ando
Ġper diÃ³
ĠF ondo
Ġpilo to
Ġbaj as
Ġpasaj eros
Ġquier an
I Z
Ġj er
e ma
ĠDef ensa
ĠI ma
Ġre bel
Ġas igna
Ġay udas
Ġpu ra
ĠC ine
Ġigu almente
Ġdesemp eÃ±
tor iales
6 6
Ġla bios
Ġten dremos
ĠL le
hibi ciÃ³n
a unque
Ġins ul
Ġabsolu to
Ġa gar
Ġcu ero
Ġesc la
Ġre cep
ĠDig ital
Ġunivers al
C a
Ġtrim estre
Ġin ex
Ġtraduc ciÃ³n
Ġpol Ã©m
Ġban das
Ġinicia tivas
Ġmodi ficaciÃ³n
ip s
ĠEst oy
A quÃŃ
Ġru tas
ut ados
titu des
ĠF un
ĠN ie
rib uye
Ġdes as
Ġrelig iÃ³n
il io
T RA
Ġrue da
Ġcient ÃŃfica
ĠMay o
ĠCas tel
Ġcircul aciÃ³n
Ġcontra taciÃ³n
Ġli der
Ġnaveg ador
n ing
Ġh ue
Ġir reg
c ara
me dia
Ġgust e
Ġins ist
Ġse mej
Ġmu riÃ³
ĠH or
ĠÃŃn dice
Ġcoord in
Ġa ust
Se gu
Ġconven iente
Ġlimp iar
Ġincre ment
Ġagre gar
G U
Ġexper to
e da
ient a
Ġneces itamos
ĠPla y
ĠP Ã¡g
cu b
Ġorganiz ar
er aciÃ³n
Ġsitu ada
ĠH ombre
Ġna cido
Ġciudad ano
Con s
Ġorient aciÃ³n
Ġpod ÃŃan
Ġrom Ã¡n
Ġexpres a
ib il
Ġte la
ab as
Ġesta tu
ĠReg ional
ĠB u
Ġcuan tos
AD A
r eros
Ġsal ido
Ġdis capacidad
ÃŃt ico
Ġefica cia
ĠNicol Ã¡s
ist ar
an tiles
Ġus an
Ġdem uestra
Ġcompos iciÃ³n
Ġdesemp eÃ±o
Ġperm iso
Ġver tic
Ġpriv adas
ĠCar ibe
Ġde pos
Ġjue ga
Ġmuch ÃŃsimo
Ġhab lan
Ġcoord inaciÃ³n
u era
ta Ã±a
ĠAm eric
Ġfil m
Ġm ister
habil itaciÃ³n
Ġprima vera
Ġcic l
ĠAutÃ³n oma
uer zo
Ġmill Ã³n
Ġeurope os
Ġtrans mitir
Ġ4 2
Ġl ados
H asta
ĠBlan co
ĠCh ar
Ġimprescindi ble
Ġilum inaciÃ³n
Ġn Ãºcle
Ġin genier
Ġadap taciÃ³n
Ġ !
Ġindividu os
ĠEst amos
B o
Ġal f
Ġconstitu cional
Ġapre ci
Ġsal var
, ...
Ġdo ce
mart ph
Ġespec ÃŃfico
" :
Ġfues e
ĠcrÃ©di tos
Ġcari Ã±o
Ð ½
Ġpier de
Ġes cul
Ġinst ancia
Ġplan tilla
Ġpens amientos
Ġrecor rer
en z
Ġd amos
ate mala
Ġrequier en
ci pe
Ġm adres
Ġconec tar
Ġcomp ens
Ã³s itos
il as
ĠH an
ĠP OR
cor d
ues tras
Ġapro bado
Ġespeci alizada
Ġlimp io
Ġacondi cionado
Ġavan zar
Ġmar ch
ĠO tros
ĠÃ³ pti
Ġjorn adas
ĠOfici na
Ġjug ando
ĠĠ ĠĠ
Ġgaranti za
Ġve inte
M O
B I
Ġho ja
âĢ¦ )
Ġej Ã©rcito
Ġcub ierta
uen a
ĠBuen o
Ġ6 00
Ġutil idad
Ġdue Ã±o
s ula
Ġacep ta
ÃŃ g
Ġn aran
Ġtu ristas
Ã©r ico
um b
Ġabsolu ta
te cas
aliz aciones
Ġbeb idas
P a
Ġ Ã³p
Ġg re
Ġinform ado
ust o
is po
Ġpa tio
Ġcal ent
Ġdis cos
Ġindividu o
ĠDi ario
ĠcatÃ¡ logo
ĠD I
ĠjurÃŃ dica
Ġpe trÃ³leo
Ġpon iendo
0 2
N O
j ando
ĠN et
ĠRam Ã³n
P U
ĠA lic
t le
ĠSan t
Ġbas a
Ġman tienen
Ġsob res
ce mos
Ġar gentina
A ctu
Ġre Ãºn
Ġcolor ear
7 7
Ġconside ran
Ġimpresion ante
Ġest ima
Ġal iv
Ġb l
Ġban car
Ġcan s
ĠK ar
Ġrespon de
Ġlleg ando
Ġvic epres
Ġli qu
ÃŃ ficamente
ĠCan arias
Ġutiliz ados
Ġmod alidad
Ġmater ias
ĠW ashington
E mp
men es
Ãºs ica
Ġaso ciaciones
E A
Ġf ri
Ġenem igo
Ġpres erv
Ġins er
ĠE X
Ġj ub
Ġde partam
Ġesper amos
. âĢĶ
tar ias
Ġconform idad
Ġin mobil
ĠEx per
Ġcriter io
Ġrepresent an
Ġllam Ã³
ĠPa pa
Ġg imnas
0 3
ti po
Ġgestion ar
Ġcumple aÃ±os
Ġsin dic
ĠÃ ĵ
ĠReg lamento
Ġesc as
AR T
ĠTo da
Ġtra tando
Ġex c
Ġfra g
Ġasum ir
. Â»
tr ices
ĠIn stagram
Ġreci entes
ici oso
] .
Ġexcel entes
Ġcontribu ir
Ġfabric antes
i ti
Ġcul tivo
ĠFiscal ÃŃa
ĠMur cia
Ġqu eso
ĠC U
Ġindic ado
Ġr osa
ho p
Ġran go
Ġmoder n
ac ha
Ġrealiz ados
le to
Ġno c
ist os
O b
Ġbon ita
ĠV as
ER O
Ġam able
Ġtermin ado
ĠAl lÃŃ
Ġadj ud
Ġpresiden ta
g ulo
Ġn ucle
C ol
Ġmad ru
Ġanunci ado
Ġcapaci taciÃ³n
Ġcor tes
Ġdepor tes
ĠX IX
ĠMer cado
Ġelec tro
ĠMe dia
Ġqued arse
Ġc es
Ġpropie tario
Ġv uelos
ĠPan amÃ¡
Ġh ol
Ġpar lam
Ġmexic ana
Ġemp ie
Ġlan zar
Ġpa ta
Ġ ÃŃ
Ġfamos a
Ġdistin gu
ĠB on
Ġcompeti ciÃ³n
ĠCan adÃ¡
ĠdÃ© bil
Ġpor tu
ĠQu iz
Ġdestac ado
Ġmet Ã¡l
Ġcaracter ÃŃstica
Ar tÃŃculo
Ġimp e
S ab
ci tos
an al
Ġlabora torio
Ġmov ilidad
Ġiden tificaciÃ³n
ĠS ergio
An tes
ĠB ien
Ġman ga
b ir
Ġreserv as
Ġsu av
ĠprÃ³x imas
Ġsosten ible
ĠBlan ca
Ġc aj
Ġde dos
g ran
ĠAu to
Ġ12 0
Ġb ille
8 5
Ġc eb
O tro
ari ales
ĠÃ³r gano
ĠC A
Ġpu ro
pu taciÃ³n
abe tes
Ñ Ĥ
Ġse t
ba o
Ġalum inio
ĠU l
ĠV ar
Ġsuje tos
Ġabog ados
Ġpo bla
Ġcon ducir
Ġmo dos
Ġdiput ado
Ġglo b
ÃŃc ola
Ġvo ces
ã ģ
ĠR ica
Ġsu mar
Much as
Ġhubi ese
di rec
ĠSegun da
Ġem baj
Ġb ron
Ġfortal ecer
Ġrue das
Ġba ilar
ĠB iblio
Ġab riÃ³
it adas
ĠC N
ĠC uer
v ol
Ġmam Ã¡
Ġprodu jo
Ġcomp et
Ġexpan siÃ³n
Ġcor reg
Ġ25 0
Ġcul p
Ġtre inta
Ġpriv ados
6 4
Ġal ber
Ġperman ecer
gar se
Ġdich as
i adas
ĠhÃ¡bi tos
Ġcompr ensiÃ³n
ĠPar lamento
ĠespaÃ±ol as
Ġda to
Ġindustri ales
Ġcol a
ĠseÃ± ora
N uestro
iz adas
Ġconstante mente
Ġf eria
Ġmus icales
D i
Ġneces itar
Ġv uestro
Ġa ter
Ġexig e
Ġf icciÃ³n
Ġdel incu
ĠSem ana
Ġh arÃ¡n
Ġfuncion ario
de a
Ġmag ist
Ġen tiendo
Ġpro pa
fon so
ĠAl im
ĠB ea
ĠaÃ± ade
So bre
, ,
Ġreemp la
ĠN osotros
Ġvig or
ĠG lo
ĠbÃ¡s ica
ĠdifÃŃ ciles
ĠUsu ario
ĠTen go
T u
Ġevalu ar
Ġdel ic
Ġdes l
am ar
ern am
Ġcampe onato
M E
Ġselec cionar
Ġlo go
Ġre tos
Ġpol ic
ĠAca demia
Ġsent imiento
Ġacudi r
Ġno table
ĠÃģ frica
Ġproduc tor
Ġeta pas
Ġdeten ido
Ġconsum idor
ĠProvin cia
om ina
ĠseÃ± ales
Ġqued aron
Ġcomba tir
ĠEmpres a
ĠclÃŃn ica
Ġca fe
gu Ã©
tran s
Ġgenera ciones
n ado
T OS
Ġemb ar
Ġvir tud
Ġdese os
Ġnoc tur
Ġm ach
Ġpubl icaciones
Ġ it
c olo
Ġdibu jo
f it
Ġha ci
Ġen de
ĠAust ral
ĠTor res
ĠRos ario
Ġenem igos
Ġdepor tiva
te la
w ard
ion a
Ġcerc ana
ĠMar tin
Ã³ cra
Ġmal os
ĠAr tÃŃculo
Ġju ventud
t inas
Ġt asas
te mp
Ġver lo
Ġcontr ad
Ġdist rito
Ãº p
R AN
Ġestu vieron
ĠtelÃ©f onos
Ġap orte
udi o
Ġt orm
C re
Ġt ruc
es as
Ġfi el
Ġinter cambi
Ġdes f
Ġbra zo
Ġnie ve
Ġven de
Ġdirig entes
Ġmaravillos o
ĠTen emos
Ġtonel adas
Ġconf un
Ġregal os
ĠR ico
Ġfal lo
Ġal tamente
Ġdes cripciÃ³n
l ga
Ġadquis iciÃ³n
g ia
ĠS r
... )
Ġ[ ...]
Ġpres taciÃ³n
ĠRob erto
Ġse cu
Ġcons entimiento
Ġmejor as
Ġespec ÃŃficos
p lan
Ġcar ro
Ġidi omas
tr ada
Ġconcl usiÃ³n
Ġdestac an
d icaciÃ³n
tar lo
ri z
Ġhuev os
Ġb eso
Ġpo deres
ĠP i
4 3
Ġsub s
a qu
Ġprob abilidad
Ġeurope a
P D
Ġcuad ros
Ġmecan ismo
Ġcar tel
Ġmane jar
Ġfru tas
Ġdes pues
Ġmues tras
pol it
ĠperiÃ³ dico
e de
Ġad vers
Ġba Ã±
Ġhtt ps
ĠenseÃ± ar
Ġcre ando
Ġcuid ar
Ġes quina
ual quier
en dar
Ġpot ente
Ġconoc en
ĠlÃŃqu ido
Ġpie dras
ĠlÃ³g ica
Ġmonta je
ox id
Ġpermit an
Ġpreci siÃ³n
em b
Ġan tic
Ġtra tado
Ġbara to
Ġhor arios
Ġasoci ados
Ġcomput adora
ĠA v
ita t
Ġimag inar
ĠCo ord
ens es
Ġfu tu
ti to
Ã¡m ico
Ġn ace
ĠEduc a
Ġa val
Ġconsigu iÃ³
Ġimp ro
Ġx D
ĠE v
Ġinf o
ĠcÃ³mo da
tad ura
crip ciones
udi ciales
Ġprovin cial
ĠSebasti Ã¡n
Ġdec ora
ĠgrÃ¡ fico
Ġs at
Ġque m
Ġas al
Ġor al
ĠCur so
Ġpropie tarios
Ġpubl ica
Ġsa ga
or ro
6 8
Â ·
Ġde terior
Ġac Ã¡
b ie
Ġde le
Ġmir ando
ĠJ orn
Ġsu yo
b Ãºs
ĠfÃ³rm ula
ĠacadÃ©m ico
ĠS ar
Ġreg la
Ġmos tra
Ġr onda
Ġfran cesa
O tra
aj aja
Ġdin Ã¡mica
Ġdiv ul
âĢ¦ âĢ¦
ĠAu tor
Ġacep taciÃ³n
ĠA ragÃ³n
Ġpro hib
Ġap unta
Ġc ÃŃr
ĠEs pa
Ġmus eo
Ġen se
Ġrepro duc
gen o
er amente
Ġconci ertos
ala x
Ġmar i
Ġver des
Ġver se
Ã¡nd onos
ĠPa ul
ĠGu atemala
ĠM A
O s
ĠGal icia
Ġlimp ia
Ġpro voca
Ġpermi tiÃ³
Ġahor rar
ĠGob ern
Ġpendi entes
Ġigu ales
Ġreform as
un cios
Ġrevis ar
Ġin n
t inos
Ġprovin cias
Ġvac ÃŃo
Ġfuer an
Ġdiput ados
Ġautom Ã¡ticamente
Ġderro ta
Ġbas ura
Ġaut omo
bo x
Ġanti cip
Ġmem or
Ġcrim en
Ġfan s
l ados
Ġinv ita
Ġade lga
ific ada
Ġminer ales
Ġtrans ferencia
r ÃŃan
tu be
ĠD ol
M uy
Ã©n ez
te d
Ġver emos
Ġexclus ivo
Ġprim aria
Ġpudi eron
Ġpon emos
Ãºm ero
Ġnov io
Ġporta voz
ĠOn line
Ġre iv
Ġsatisf acer
av o
ĠV ida
Ġcre ciente
ĠEs pero
ol la
Ġso ci
v ias
ĠS ue
Ġpro lon
Ġd ucha
Ġg ub
Ãº rg
ER A
Ġob tuvo
Ġapar iencia
Ġbor de
Ġviv iendo
D el
ti fica
di ciones
Ġfru to
Ġobserv a
Ġejecu tivo
ĠfÃ¡b rica
Ġestable cimientos
Ġcos tes
Ġl istas
ĠEj Ã©rcito
Ġren unci
Ġmexic anos
ĠindÃŃgen as
ĠF eria
g es
er ÃŃas
Ġsol idaridad
Ġest ilos
dad as
ĠO f
T S
Ġcir ugÃŃa
w ood
Ġh Ã©ro
Ġplan ificaciÃ³n
T V
til idad
Ġcontin Ãº
Ġda Ã±
al la
Ġcul o
ĠQ UE
Ġfuncion ar
ĠN unca
Ġin oc
quilla je
Ġform al
Ġcent en
re y
ÃŃ ces
Ġrecomend amos
ĠFin anci
Ġesta ciones
Ġemo cion
Ġincu mpl
ĠCrist ina
Ġtra ma
Ñ Ģ
en co
Ġreg lam
Ġinform ar
Ġf ach
Ġca yÃ³
ĠseÃ±al ado
Ġdisposi ciones
Ġdescu entos
ĠP RI
Ġ ï
Ġfemen ino
Ġde tener
Ġdistin ta
tr ina
Ġbol as
ĠCu enta
C reo
c Ã³mo
Ġex tin
ĠS y
4 1
Ġoblig ado
Ġacci dentes
Ġ4 7
6 7
Ġescrib e
ĠÃº tiles
Ġdiscipl ina
a k
Ġam antes
Ġmu Ã±
w ay
Ġcor on
ĠAst urias
Ġllam an
Ġcompro b
Ġan ci
Ġexplic aciÃ³n
iller mo
Fin almente
Ġlide razgo
Ġen tero
Ġbal Ã³n
Ġrecib en
cis mo
Ġsal as
Ġdeb ut
Ġcolum na
ĠMor ales
ĠActu almente
pe ta
Ġvigil ancia
ĠEurope o
Ġdeb o
ĠaÃ±ad iÃ³
Ġdecre to
Ġh ig
ĠVic ente
Ġpro bado
ĠJ ack
is e
AR IO
Ġtrabaj ado
ĠDe portes
Ġarro z
Ġrum bo
an c
Ġsir ven
ĠbÃ¡s icas
Ġtera p
Ġauton omÃŃa
ib lia
ĠCh rist
Ġo lor
Ġa ci
ul aciones
Ġre iter
Ġco opera
Ġestadouniden ses
Ġ4 3
ec on
Ġtrans cur
ient al
r adores
Ġpre dic
Ġpre de
ĠIn terior
Ġban dera
Ġimag inaciÃ³n
Ġcuad rados
Ġescen arios
Ġ 01
Ġmaqu inaria
Ġmanif esta
Ġt os
Ġcerv eza
ĠsÃº per
cri tos
Ġcerem onia
Ġinten so
Ġcon o
Ġle j
ĠAm or
Ġapara to
Ġintegr ado
Ġpar ar
Ġmen cionar
Ġfib ra
ĠL E
Ġadolesc ente
Ġhabl Ã³
Ġcap tur
ĠprÃ©st amo
Ġra za
Ġhab ilidad
Ġexist ir
Ġmedi ados
ĠMuch os
Ġv inos
Ġasesina to
Ġor d
Qu iÃ©n
Ġsuf rido
Ġprev ent
ĠRec uer
tu ario
Ġesc enas
Ã³n icas
ing s
ĠPortu gal
k in
ab o
Ġmedi r
ĠAma zon
ĠH en
Ġsign ific
Ġrespon diÃ³
B L
Ġh ilo
Ġcam pes
Ġ: )
Ġb endi
Ġparticipar on
Ġfi ja
ĠLe on
h ab
ÃŃ metros
Ġr ica
ĠEsp ÃŃritu
Ġcomenz aron
Ġve ÃŃa
ire mos
Ġeduca tivos
ap p
w ork
Ġo ÃŃdo
Ġvalor aciÃ³n
ine te
Ġdes eas
Ġsust ancias
Ġbicicle ta
Ġdo y
Ġcom is
ĠW il
ĠD om
Ġrefer encias
Ġul tra
Ġdef ine
Ġin gen
Ġsi ga
Ġquis iera
ĠCom ple
Ġobten ido
Ġfem in
Ġcontinu idad
Ġfisc ales
ĠMedi cina
Ġemo ciÃ³n
Ġmes as
Ġpo eta
Ġorgul los
Ġpres taciones
ĠM ich
ĠÃ³r denes
ĠMor eno
Est oy
ch os
Ġt rist
Ġres tr
ĠÃºn icos
ĠfÃŃs icas
Ġcivil es
ĠL una
Ñ ģ
ĠpÃ¡r ra
Ġalim ento
Ġtur ÃŃstico
Ġhum edad
Ġgust os
Ġs p
Ġdra ma
Ã³g ico
ÃŃs imas
ĠAn gel
Ġpreci so
Ã¡c tica
Ġescri ta
Ġ4 4
ĠCas tillo
ĠF on
Ġo toÃ±o
or den
ĠN orm
Ġingres ar
las h
Ġsho w
Ġtemp rano
Ġesca par
Ġt Ã©
Ġtr Ã¡n
ĠIs abel
Ġintro duci
Ġsal ario
Ġtro p
Ġsig nos
Ġmodi ficaciones
Ġmal as
Ġfavor itos
E X
ĠT im
ÃŃn as
Ġabra zo
Ġcre ada
as iÃ³n
Ġregres ar
Ġconsidera ble
EN TE
Ġag ro
Ġin yec
Ġcombust ible
ĠA tenciÃ³n
Ġsolu cionar
ici dio
z e
Ġro ja
ĠCon tac
f ar
Ġps ico
Ġregist ros
Ġnegoci aciÃ³n
on so
ti zar
ĠpÃ©r didas
i di
ĠG uer
Ġdirig ir
Ġayud arÃ¡
g ica
Ġcolombi ano
Ġin tim
Ġpis os
Ġileg al
Ġap p
Ġcontra tar
Ġreg ulaciÃ³n
ĠCal le
G T
Ġdic es
tedr al
N uestra
Ġdiri ge
Ġindependi entes
Ġrel l
Ġbien venida
Ġab ri
ĠA Ã±o
Ġvol v
Ġg afas
Ġempres ario
ĠM ana
Ġre duce
ĠjurÃŃ dico
Ġins piraciÃ³n
Ġlevan tar
Ġfom entar
Ġepiso dio
Ġes enciales
Ġqu iso
Ġc ajas
Ġter ren
ter ales
Ġto p
Ġplante a
Ġdefini tivamente
m ol
Ġ4 6
Ġalcan za
Ġele vado
ĠM ul
iemp o
T C
Ġsusp ensiÃ³n
m ano
Ġes pon
Ġmar cado
Ġpanor ama
ĠIs la
Ġ9 5
Ġsu ple
Ġas omb
g Ã©n
ĠPr incip
201 4
Ġinvesti gar
ÃŃ v
Ġmad ri
P O
Ġdepen dencia
ent amente
id ado
Ġespec ÃŃfica
Ġafi cionados
Ġaconte cimientos
in arios
Ġelim inaciÃ³n
Ġo dio
uch o
Ġmo tores
r ico
ĠCap ital
ta b
Ġ4 9
Ġcom idas
Ġsufici entes
Ġans iedad
Ġpag ina
Ġatra ves
Ġpro cl
Ġdescub ierto
f or
je je
Ġpreci sa
ĠProfes ional
rimon io
Ġhogar es
Ġcastel lano
Ġdis put
id ra
Ġocur rir
ĠF rente
Ġpr endas
ta ban
ĠM Ãºsica
ĠS p
Ġrespal do
ĠSi tio
Ġde dica
Ġpa tro
Ġpudi eran
Ġespec ÃŃficas
S omos
rist o
Ġcol abora
ĠHab ana
Ġtol er
Ġa tac
ĠO p
Ġimpul so
Ġem ble
ro car
% )
Ġdev olver
Ġsent ÃŃa
Ġser ÃŃan
Ġc ria
Ġneces ito
Ġmon to
Ġco ger
ĠsÃŃmb olo
ca p
Ġreca ud
Ġestable cidos
on das
ĠEx cel
Ġespeci alizado
Ġsuminist ro
jer as
Ġcabal lo
ĠS omos
con s
Ġn omin
Ġejec ut
c r
Ġr icos
ĠGu adal
Ġlist ado
Ġman d
Ġviv ido
vers iÃ³n
tro p
Ġap la
ven ido
uer ta
Ġprove edor
ĠW orld
car gar
ĠRes pon
l ig
Ġexcel encia
Ġdetermin ados
s ung
! ,
Ġacum ul
ĠclÃ¡s icos
Ġor aciÃ³n
Ġpo quito
uc ar
Ġr aro
Ġequival ente
Ġconoce mos
ĠP A
g i
Ġpareci Ã³
Ġcu entos
Ġobst Ã¡
Ġconviv encia
ĠTecn ologÃŃa
Ġme tas
Ġf es
Ġcontar Ã¡
Ġmadru gada
Ġllev aron
Ġde mon
Ġe co
Ġpa ga
Ġexcep cional
le do
Ġmin im
ue z
ĠB io
Ġfavor ito
Ġpos tura
ĠÃ© stas
ĠN eces
m ico
Ġconstru ido
Ġindis pens
Ġpractic ar
ĠS ER
Ġyo u
ĠC in
Ġev olu
ĠUnivers itario
ĠJ ames
Ġlar gas
Ġintent ando
Ġga to
Ġb asta
m l
Ġdesc enso
Ġreco ge
Ġher idas
Ġcamis eta
An te
Ġcaus ar
ÃŃc tor
Ġba ile
Ġcontin ente
Ġguitar ra
Ġencan to
Ġrealiz aron
Ġen tien
Ġfru st
v ida
Ġrelacion ada
â Ĩ
Ġenvi ado
ren a
guar dia
ĠG ro
Ġesco g
Ġan dal
ĠAn te
Ġresul tar
Ġsol id
Ġun e
Ġla c
ĠDE S
ĠtrÃ¡n sito
Ġtal la
Ġt ribunal
Ġap o
c m
Ġs martph
Ġre ino
Ġconf es
l im
ĠLib ro
Ġpres tar
ĠO ctubre
Ġsufici entemente
ĠLi bre
ĠG ust
Ġhab ido
Ġgr ues
Ġdelan tero
Ġirreg ular
ĠGuar dia
Ġexpres ar
B us
a ta
F OR
Ġcaracter iza
Ġconf irmÃ³
Ġfres co
Ġsal sa
Â ±
Ġfas cin
Ġna ciones
Ġcontam inaciÃ³n
201 3
Ġelec tor
ha el
Ġcu ota
B ar
Ġcab all
Ġrepro ducciÃ³n
lan tes
Ġtras lado
Ġamena zas
Ġtranquil a
da je
Ġs illa
gen a
Ġest amp
Ġimpuls ar
ĠF oro
Ġest ando
Ġpar t
Ġincl usiÃ³n
Ġge ogrÃ¡
Ġmon o
ĠD en
Ã³m icas
AD OR
Ġve a
ĠAl ta
Ġ 00
Ġesp i
um er
Ġin tu
Ã¡ us
Ġcar tera
Ġllev ando
Ġconte mpl
Ġpas ta
eci endo
Ġcon gel
ĠT ro
ĠC iencia
Ġdej aron
ĠAdminist ra
ĠMar keting
Ġg eo
Ġva g
Ġtarif a
Ġh ec
Ġagu an
Ġhu Ã©spe
Q uer
Ġexplic ado
ĠSen ado
con es
in Ã³
Ġinm un
Ġdest inos
ĠPro p
ĠH i
Ã¡ndo la
Ġbrin da
Ġtranspar encia
Ġre ina
Ã³g ica
Ġse co
Ġca e
Ġpl aca
ĠAlic ante
ĠAs ia
Ġoc ta
ĠSan tander
Ġapar eciÃ³
Ġsur ge
Ġb en
A m
Ġa mo
Ġtra mo
Ġlar gos
Ġpolic ÃŃas
Ġa ves
Ġre baj
ÃŃn cipe
Ġceleb rarÃ¡
Ġkil os
Ġ199 9
Ġsent irse
Ġdispon er
in c
Ġb y
es os
Ġdesp ren
Ġfo tÃ³
ĠOs car
Ġelec tricidad
ĠAl to
Ġpin tar
ĠDist rito
ĠEmpres as
de lo
ur s
te ga
ĠaÃ±ad ido
gar on
Ġelabor ado
Ġf este
Ġdi abetes
a ger
Ġabor dar
tÃº an
iÃ©n dose
ol i
Ġllam ados
e jo
Ġh all
Ġfel ices
Ġol vi
Ġrelev ante
d ÃŃan
ĠI S
Ġsel lo
tu mbre
Ġcorpor al
ur sos
Ġpodr ÃŃamos
co p
9 8
ifica ciones
ÃŃ menes
Ġperson almente
Ġrepu bl
ĠC alidad
Ġminer al
Ġn Âº
Ġt onos
Ġt in
Ġofre ciendo
ĠN A
Ġvie ja
iz ando
Ġest reno
Ġgaran tÃŃas
Ġcon ducciÃ³n
Ġpar ada
Ġfracas o
Ġex cur
gna cio
Ġgust Ã³
C ON
S oy
Ġdisfru ta
Ġrenov aciÃ³n
Ġvuel tas
ĠportÃ¡ til
Ġech ar
u ido
ĠHum an
Ġrecha zo
Ġasesor amiento
Ġar co
Ġcre ciendo
Ġbiblio teca
ĠL AS
Ġrev istas
F i
ĠS port
ĠT ab
in cl
Ġma quillaje
ĠC ity
Ã¡m enes
Ġcan cha
tÃ¡n ea
di gos
Ġb omba
Ã¡ vez
ĠÃ¡mbi tos
ĠG ir
z can
ĠReg iÃ³n
Ġveci no
cl ar
ier tas
ĠhistÃ³r icos
Ġcrist ianos
ĠAc ciÃ³n
iz Ã³
ĠO tra
gan cia
Ġcre Ã³
Ġcompe tir
ĠL ea
uy endo
Ġtor re
Ġale j
Ġejecu tar
ĠS ta
Ġcomple mentar
Ġof ens
C as
Ġpro greso
Ġ8 5
Ġprecios o
Ġimpor tar
Ġ4 1
ÃŃs o
en za
Ġparticular mente
ce des
Ġmas aje
ĠRu iz
ĠseÃ±al ar
Ġgal ard
us as
ĠHer man
ĠON U
Ġfar mac
Ġpr Ã³
.... ....
Ġvesti dos
di ales
Ġsol dados
Ġpes ca
ĠNav arra
Ġl una
Ġprovoc ar
eci miento
ĠSecre tario
Ġinfl aciÃ³n
Ġsi go
Ġpatro cin
Ã© ramos
Ġterri ble
E E
Ġdormitor io
ĠGu illermo
Ġad h
Ġsal to
ĠMar co
Ġin cent
z ones
Ġsub si
ac ciones
ĠI de
ĠApren de
Ġreci n
G B
Ġconsul tas
ĠÃ¡ cido
ĠRa Ãºl
EN CIA
ĠC H
ĠNov iembre
ita ble
Ġfac tura
po t
Ġafron tar
Ġfu imos
ĠcrÃŃt ico
F A
Ġdipl om
Ġdign idad
Ġorganiz ada
Ġesco ger
ĠR ol
ĠRev oluciÃ³n
ĠDis pon
ĠN or
Ġargu mento
Ġrefle ja
Ġhaber se
Ġincorpor aciÃ³n
Ġsem illas
ĠPr omo
ĠU til
g nos
ĠEx tre
ĠG en
Ġcuri oso
ĠV o
Ġdetec tar
Ġpar ad
Ġgub ernam
ĠMad uro
l l
Ġv illa
Ġcurios idad
terrÃ¡n eo
fici t
Ġserv idores
Ġhab ia
ĠJ ur
Ġba u
S I
tific ado
B O
ÃŃt icas
C or
Ġper segu
Ġtu vimos
Ġabandon ar
Ġimp re
Ġles iÃ³n
Ġem isiÃ³n
ĠÃ į
Ġra ÃŃces
ĠLoc al
Ġlan zÃ³
Ġlig a
a torio
Ġaut oma
Ġsepar aciÃ³n
Ġnega tiva
Ġpon go
Ġ8 00
Ġcomp ara
ros a
Ġafec tar
Ġproduc tividad
ic ul
val uaciÃ³n
bi mos
Ġfirm ado
Ġdenomin ado
Ġm ÃŃo
ĠAl fonso
C N
ĠZ ona
Ten go
Ġmanifesta ciones
ĠU R
Ġcolec tiva
v ada
Ġsos tuvo
Ġprofun di
ĠW i
Ġsuf riÃ³
ĠAl onso
Ġtera pia
Ġmens ual
al ista
Ġru tina
ĠBil bao
Ġgol pes
Ġfru tos
Ġcul min
endo za
ĠAustral ia
ĠRes erv
Ġdes pre
ĠWill iam
ĠK e
Ġtem or
Ġide ales
ĠSegu ro
ci encia
ĠDiv isiÃ³n
Ġfir mas
aj ara
Ġceleb rado
H emos
P os
Ġnega tivo
Ġimple ment
Ġviv imos
Ġap rue
tu re
Ġneg ros
Ġch arla
Ġcre emos
ĠprÃ©st amos
ie dades
Ġpar ro
. :
Ġar ru
Ġfr ÃŃa
Ġtermin al
it arÃ¡
ĠRe laciones
Ġcub ano
201 2
Ġofici o
el d
ĠLatino amÃ©rica
ĠP ie
Ġfrecu ente
Ġo cio
Ġseguir Ã¡
Ġpelo ta
ens or
ĠRe ci
ĠMa es
L AN
ĠT res
Ġconside raciÃ³n
ĠEmple o
Ġcu Ã¡ndo
Ġla teral
Ġdest inado
ĠGab riel
Ten emos
Ġcatal Ã¡n
on ces
Ġab on
Ġcor tar
ĠVic toria
ĠÃ¡ ra
Ġver duras
rec ciÃ³n
Ġd ada
Ġaudio vis
O r
Ġcarb ono
Ġavent uras
Ġh ielo
Ġin al
Ġenc uesta
ta bles
i tiva
Ġp istas
Ġa gencias
Ġdi ga
Ġman dar
Ġgan ancias
Ġf us
Ġautor a
Ġis las
Ġparticip an
Ġpolici al
Ġviv a
ier tos
Ġd uelo
Ġmu tu
Ġb uc
comun icaciones
Ġm ante
N a
ent ados
ra ba
Ġcontro les
ĠAz ul
Ġpre vis
Ġtemp lo
Ġvig encia
ora ciones
re za
Ġdetermin ada
Ġentr Ã³
uel ve
Ġbol sas
il an
Ã ¶
Ġin cur
ĠbritÃ¡n ico
ĠO tro
y eron
Ġquin ce
Ġincre mentar
Ġvia jeros
Ġque do
Ġcul tiv
Ġpapel es
ut h
ĠG il
Ġexist ente
ÃŃs ica
Ġutiliz ada
T AN
ĠPen al
ĠIndust ria
Ð¾ Ð
Ġorgul lo
Ġrepres entar
Ġafec tan
Ġesc Ã¡n
Ġpens aba
Ġm g
Ġcos tumbre
Ġsecre tos
Ġaler ta
Ġap ell
l ero
Ġvent anas
S us
Ġparticip ado
Ġvo tar
Ġdes esper
m y
Ġhay as
Ġdes igual
Ġmon stru
Ġsens ibilidad
ĠOr g
Ġespi ritu
Ġvid rio
Ġo este
Ġdescrib e
Ġa qu
Ġno tar
T M
Ġabier tas
Ġcre di
Ġdi arios
Ġsent idos
Ġsocial ista
Ã¡ z
Ġamig as
Ġescri torio
Ġenerg Ã©tica
gun a
en zo
Ġhab lado
ĠL og
F o
ĠLeg isla
Ġinmig rantes
ĠSal udos
ĠP ac
Ġconvers aciones
ol v
Ġper tin
ÃŃs imos
Ġbara tos
ad illa
Ġtarif as
Ġsec undaria
Ġch ino
Ġemple ado
Ġjue ces
Ġdest rucciÃ³n
qu ero
Ġrecor dÃ³
Ġposible mente
Ġt est
ribun ales
Ġm ier
IN A
Ġrela tos
Ġco bre
Ġ6 4
ĠL O
Ġn ub
Ġc iencias
Ġinstal ado
ĠÃģngel es
Ġlab ores
6 9
D eb
e amente
Ġli tros
B ien
T AS
Ġpel ic
Ġespeci alizados
ID A
ĠCh Ã¡vez
Ġamar illo
E so
Ġespe jo
Ġpan el
d amente
ol as
Ġten Ã©is
ĠUS B
Ġcos tumb
Ġla go
ad rid
Ġrecog ida
Pue de
Ġblog s
ĠcuÃ¡n to
Ġpul gadas
Ġsub ida
ĠM ira
Ġcar as
Ġresul tÃ³
ĠPat ri
Ġcon lle
Est Ã¡
dr ome
ĠmÃ¡ r
Ġrelev antes
Ġcob rar
Ġdep Ã³sito
Ġres pira
Ġdesac tiv
ĠEnerg ÃŃa
tion s
Ġper cepciÃ³n
Ġsuper viv
Ġcolec tivos
Ġan dar
Ġprior idad
l ing
Ġmonta Ã±as
ĠPerson al
C C
cu bre
Ġper pe
ĠclÃ¡s ica
ĠMic hael
S iempre
Ġargu mentos
ĠSe x
Ġev ent
ĠB log
ĠTener ife
Ġmen cionado
Ġcu yas
Ġ199 8
Ġdepor tivas
ĠV ÃŃctor
Ġe go
p ado
Ġfutu ros
Ġm ÃŃa
Ġcomun ica
Ġvay an
ĠProduc tos
Ġus os
Ġmanda to
Ġacab Ã³
cion ario
Ġextra c
T RO
ĠF lores
Ġten ÃŃamos
ĠPar ti
Ġjur ado
Ġdic tadura
Ġsorpren dente
Ġsolici tudes
Ġpresiden cial
Ġprecios a
r ent
ĠIn tro
ĠB lo
Ġllegar Ã¡
ĠL ED
Ġvis ible
Ġbo de
Ġvari ables
8 4
Ġmetodo logÃŃa
t ul
Ġenfer m
P rim
ir Ã¡n
Ġsuf re
Ġmon tar
e j
Ġpaci encia
Ġsi enten
Ġtrans iciÃ³n
Ġme dal
il lar
ĠP sic
Ġmostr ado
ĠRes oluciÃ³n
Ġreduci do
em bol
Ã©s ar
Ġtem Ã¡tica
en ce
Ġne um
th er
Ġten gamos
ĠT re
ĠTÃ©cn ico
Ġen ve
G R
Ġnaran ja
dr Ã¡s
Ġm isterio
Ġfran ces
Ġsegu imos
Ġpes cado
Ġlan zado
Ġcon tienen
Ġment ir
ĠDoc tor
Ġfinanci eras
ĠI gnacio
un cias
Ġins crib
ĠHu go
Z A
8 9
te a
pres s
ĠestÃ¡ndar es
h um
ici osa
ĠE van
Ġauto bÃºs
Ġasegu rado
Ġinf antiles
ĠOri ente
ĠIndustri al
Ġdefec to
ĠCampe onato
ĠEs co
ĠM AR
tu vieron
ĠRe f
de la
Ġri v
Ġr uso
Ġapre ciar
Ã± e
P OR
ĠFran co
Ġtra je
Ġsent imos
Ġcal cul
Ġindic an
Ġperfec ciÃ³n
ĠXX I
Ġdesaf ÃŃo
ĠprÃ¡c tico
ĠC L
Ġart ÃŃstica
Ġtrata ba
ol vid
Ġpresiden cia
ĠM esa
Ġte Ã³r
ad i
Ġcoleg ios
Ġsimp les
Ġch ar
ĠPres u
Ġs ana
Ġlig eramente
ĠCor ea
Ġfemen ina
Ġconstitu yen
at ch
b ano
ĠC AR
Ġmanda tario
l id
Ġab uso
Ġta pa
Ġde ter
Ġem is
Ġsuf ren
Ġantigu as
endi Ã³
Ġblan cos
Ġarri es
ti ta
g io
Ġelabor ar
Publ icado
Ġfacil ita
ĠP es
un tamente
ĠCon ce
Ġprotes ta
Ġvideoj uegos
Ġad quier
8 7
Ġam an
Ġprote ÃŃnas
ĠEl los
ĠGu ti
u is
Ġocas ion
h tt
Ġpa trÃ³n
fic e
Ã¡ mb
ul iar
ĠS Ã¡
Ġencuent re
gÃ¼ edad
ĠAn uncios
Ġquin to
Ġhac ÃŃan
I mp
ig ma
Ġneces ariamente
Ġclic k
ĠM y
ĠDomin icana
ĠT anto
ĠparÃ¡ metros
Ġon ce
Ġconsi go
ara gua
Ġdismin uciÃ³n
w in
du ra
Ġlig ero
ĠEst ra
Ġagr icultura
ĠH al
Ġrespons abilidades
ĠF Ãºtbol
Ġclar as
Ġe cos
ĠSe xo
Ġceleb rÃ³
Ã³l ico
Ġestad ÃŃsticas
Ġintro ducciÃ³n
Ġla vado
Ġexcep to
! .
Ġsing ular
or cio
Ġcontras eÃ±a
Ġse min
Ġtu viera
Ġcon fec
Ġhi pÃ³
B RE
Ġbar rios
Ġrom p
Ġtestimon io
ÃŃ es
Ġdef ien
se x
ÃŃ das
Ġfru ta
Ġpre cip
Ġfund aciÃ³n
Ġincor pora
ĠmÃºs icos
Ã© ticas
u le
ĠDon ald
Ġhabitu ales
Ġcumpl en
cu enta
ĠG afas
Ġl anza
Ġcuan tas
und amente
uch e
ter ia
et h
ĠCan al
Ġhar ina
ĠPat rimonio
Ġsi mpl
ĠA gua
ĠCam po
ĠFe der
Ġab ord
rac ciÃ³n
ĠE D
ci dades
b en
Ġmin i
Ġag rup
3 00
ĠJ ard
Ġ- -
Ã± Ã³n
Ġdim ensiÃ³n
ĠP ros
Ġcas co
Ġan uales
on y
se a
ul t
Ġimple mentar
Ġtes is
Ġrepe ti
Ġcon dena
Ġk e
ĠC oci
uel va
Ġimpon er
Ġalcan zado
Ġespos o
Ġgastron omÃŃa
ĠB ay
Ġreiv in
Ġhab ita
Ġmaravillos a
es ter
le tÃŃn
ĠA ri
ef acciÃ³n
to ck
Ġdetermin adas
Ġproces amiento
c amos
d in
Ġcomple ment
Ġdesarroll ando
ĠS ho
ec k
Ġinclu ida
i anas
Ġe dades
Ġabier tos
ten siÃ³n
ti mas
ĠDo cu
Ġgrave dad
Ġver s
Ġtom an
Ġdismin uir
ĠAd ri
Ġc lan
P I
Ġh arÃŃa
Ġsab ido
ĠCÃ¡ diz
Ġley enda
ĠNe go
Ġdiver tida
Ġconoz co
D os
Ġresiden tes
Ġhec tÃ¡
al ismo
Ġade mas
ĠSupre mo
Ġverdadera mente
enci ado
Ġinter iores
ĠR ock
Ġjuris dic
Ġin esper
Ġalgo dÃ³n
Ġpec uliar
Ġp Ã¡
Ġdeclar ado
ber t
Ġt ac
Ġllu vias
Ġimpe dir
Ġlo gro
Ġcuar tos
Ġautom Ã¡tica
s or
Ġadv ir
Ã©st icos
V al
Ġqu ir
Ġperju icio
Ġconfir mar
ĠMa uri
ĠM endoza
Ġdirig ente
Ġcomerci alizaciÃ³n
Ġre mon
Ġmarc ador
Ġd as
oy a
ĠR ay
Ġconoci das
Ġparticip Ã³
ĠO ne
Ġpl Ã¡st
Ġmanifes taciÃ³n
if i
Ġman z
Ġcine mato
Ġelim ina
Ġata car
l ace
Ġcar o
Ġsig no
Ġliber aciÃ³n
ĠB ri
Ġdec enas
Ġal ianza
Ġviv os
ci sta
ĠFin almente
Ġcons a
cional mente
ĠdÃ© ficit
ĠMar cos
ĠC R
Ġlleg amos
Ġescri tos
Ġb acter
Ġvesti r
an gel
ortun adamente
Ġweb s
Ġvas o
Ġgener an
Ġin segu
Ġfuncion an
Ġh un
Ġdepartam entos
ĠDi putaciÃ³n
Ġtej idos
ĠR aj
Ġin tr
Ġde presiÃ³n
Ġinde mn
Ġlim itado
gar Ã¡
ĠV amos
ÃŃn sula
Ġson idos
Ġregist rar
Ġco pa
Ġmor tal
Ġfrecu entes
ĠdÃ³ lar
Ġgig ante
ĠfÃ¡ ciles
Ġclub es
Ġh isp
Ġk g
Ġcu ra
Ġapara tos
Ġat m
uy en
ã ĥ
ĠPue blo
V D
Ġbril lo
Ġte a
Ġch e
m ado
J O
Ġindic ar
ĠelÃ©ctr icos
.. ...
Ġclar idad
ez can
ĠOc ci
h h
i ja
Ġsu ena
Ġpro vis
ce lo
Ġincon ven
Ġfun da
J A
Ġsal ga
Ġinter nos
ĠSal Ã³n
ĠAlgun as
Ġextra Ã±a
ĠM adre
Ġincorpor ar
Ġvenezol ano
rim as
ĠB at
ĠJim Ã©nez
Ġproyec ciÃ³n
Ġvuel ven
Ġin genierÃŃa
ĠAr quitec
Ġfundam ent
Ġex ce
Ġven ÃŃa
ĠH el
Ãº me
Ġref res
Ġde do
Ġincl us
n ia
Ã± ad
gu era
Ġc ens
Ġre habilitaciÃ³n
tique tas
Ġinter acciÃ³n
Ġpos esiÃ³n
ar quÃŃa
Ġapas ion
Ġcon ferencias
tr ico
Ġpres i
P as
ĠR ich
Ġtras cen
Ġguar da
Ġmulti plic
d ing
Ġf ama
Ġ zo
ĠPrim ero
AS A
Ġclim Ã¡tico
u ar
Ġterri torios
Ġ5 2
Ġrent abilidad
o tas
Ġcomb inar
Ġtesti gos
e ja
omos ex
Ġac ar
Ġampl iaciÃ³n
Ġciudad ana
tor as
b uen
ĠtrÃ¡ mite
Ġdis cur
ec ÃŃan
C D
Ġen ormes
ĠS AN
a x
Ġfamos os
m io
ĠFamil ia
Ġpudi endo
ĠP U
Ġvicepres idente
Ġest er
Ġcon tado
Ġtra tados
F ran
Ġex quis
l era
il er
ĠJ udicial
Ġa venida
f ia
Ġprev Ã©
ĠEsta tal
Ġindi rec
Ã¡z quez
G ran
Ġperfil es
Ġcostumb res
cion ada
Ġbol iv
Ġespec ÃŃficamente
Ġas iento
c lo
qu esta
ĠD em
Ġsuper mer
k es
fic ar
ĠB ach
ten s
Ġvari able
C an
Ġsens aciones
Ġle ve
ĠOb ama
). -
ĠU b
ĠO pera
Ġm ueve
Ġmol esti
Ã¡n icos
Ġob tiene
ĠAl go
Ġalcan zÃ³
Ġver te
Ġman tuvo
Ġacus ado
Ġsorte o
Ġam bi
ĠW h
Ã¡st er
Ġmal tra
Ġger ente
8 6
le ga
Ġdi d
ĠS or
Ġdivers iÃ³n
Ġges to
Ġexperim entar
te x
ĠS igue
enci ana
l s
ĠLu z
ĠcÃ¡l culo
ĠT aller
Ġl ento
or gan
Ġrespe tar
Ġalre dedores
Ġgrab aciÃ³n
ol ar
Ġambient ales
Ġvia j
Ġvalor ar
Ġde tenciÃ³n
Ġcul turas
Ġentreten imiento
ĠAs es
Ġdesapar eci
f ac
Ġencontr Ã©
v ir
Ġrela tivamente
Ġapren dido
Ġgra bar
Ġsal arios
Ġderiv ados
Ġcal ific
Ġcapit Ã¡n
ab ra
i tis
Ġem isiones
Ġtrans mi
Ġin olvid
V E
Ġdeman das
ĠMa x
ĠF an
ĠCon ten
Ġgig antes
Ġdis cul
ĠCa pa
Ġven cer
Ġtrans forma
Ã©r rez
Ġconce jal
ĠFran k
Ġconcl usiones
Ġbor do
Ġf lam
Ġresist ente
Por que
ĠBiblio teca
Ġpos teriores
Ġbeb er
Ġdirec ciones
p lica
Ġju venil
Ġg iro
4 00
ort una
ĠP ens
Ġperj ud
ĠP ap
ĠR esta
Ġcompon ente
Ġameric ano
Ġpromo ciones
fec to
ĠnÃºcle o
gra mas
7 9
Ġfron teras
ig an
Ġgal erÃŃa
ĠÃģ rea
ĠautÃ©n tico
Ġleg ÃŃ
Ġse mi
ĠSe lecciÃ³n
7 6
ĠI gual
Ġpas aba
ĠC Ã©sar
Ġcent rales
v Ã¡n
and ante
ĠH emos
Ġdescub rimiento
Ġjard ines
T ube
Ġle e
Ġestu pen
Ġavan zado
ĠW hats
C am
Ġc ro
Ġcer tificaciÃ³n
Ġrep ente
tr ando
ĠSam sung
ĠCh i
Ġnego ciaciones
Ġterren os
du jo
cer tid
Ġre duc
Ġhici mos
u u
Ġexpe diente
Ġh echas
em e
Ġens al
Ġdia gnos
Ġexp uls
m ia
Ġpresu puestos
ĠJo aqu
Ġquin ta
J os
ĠL ar
Ġinter rump
Ġtit ulado
Ġbrin d
Ġca za
Ġinv itaciÃ³n
ĠGran de
ĠOb je
am ora
Ġpol lo
** **
Ġjun tas
de st
Ġcolabor adores
Ġpele a
Ġaf uera
J E
r icas
Ġacor de
Ġpo p
ub o
Ġcolabor ar
ĠPÃºbl icas
es to
fa z
ci ado
ÃŃ rez
ex o
ĠS ha
aman ca
Actu almente
Ġw ith
ĠZapa tos
ĠAc ces
Ġescol ares
Ġdev oluciÃ³n
Ġmadri le
c ÃŃas
Ġin ev
Ġll or
Ġbols illo
Ġencontr aron
Ġhuel ga
es en
Ġap ete
ĠS tu
ĠS tre
ĠE p
Ġven den
Ġb is
Ġbel la
Ġv s
ĠB iblia
Ġvuel va
Ġconoc ÃŃa
ĠD in
le tos
Ġfi jo
Ġdisfru te
ill ones
ĠEs cri
ri les
Ġ5 6
Ġsan ciones
Ġhacer le
Ġf la
Ġcol onia
Ġvo taciÃ³n
ĠN ada
ac ruz
Ġ9 9
âĨ ĳ
Ġap e
ĠÃģlvar ez
Ġp use
Ġatm Ã³s
ĠcÃ³ m
ĠT I
Ġllev amos
it co
id urÃŃa
Ġreg ionales
f ol
Ġdescu bre
Ġestu viera
ĠJef e
Ġpe trol
Ã¡nd ome
z co
a par
Ġdis puestos
Ġsus pen
N I
ĠtÃŃp ico
Ġ1 000
Ġlin ea
ĠgrÃ¡ ficos
Ġco her
Ġher e
Ġnave gar
201 1
Ġpresent aron
Ġinci dencia
Ġizquier do
i riÃ³
Ġfun dador
Ġcompar tido
on ÃŃa
ĠR ES
Ġvie jos
ĠT iempo
Ġn ube
Ġver Ã¡
ĠIn nov
Ġm ales
Ġconf ort
ol os
Ġv ieron
Ġva por
pues tamente
Ġas ust
Ġru rales
Ġag ru
ter no
on de
Ġensay o
Ġnove dad
Ġcomprom isos
Ġpa pa
Ġpas tel
gu as
Ġhosp itales
Ġinfec ciÃ³n
Ġcir cular
Ġresca te
uer tos
t ano
Ġdesconoci do
Ġpas aron
C al
ÃŃ e
Ġpens iones
Ġdeten idos
as ter
Ġsust an
Ġinten sa
Ġescuch a
ĠÃ© tica
Ġdes cri
Ġlum inos
ĠTo ledo
iar ia
Ġindic adores
Ġadministra tiva
ĠRec ursos
Ġrela tiva
Ġj udiciales
Ġmanten iendo
c era
pi ro
Ġad mir
Ġreconoci Ã³
ĠRom ero
Ġqued arÃ¡
Ġca denas
ĠMi ami
allado lid
a tor
ĠhuÃ©spe des
Ġpens Ã©
D D
ma cia
ĠMan cha
ent re
tern idad
Ġdem ues
Ġdiscrim inaciÃ³n
log ÃŃas
Ġpresenta ciones
Ġh ard
tific ar
Ġdesper tar
n ar
Ġemp e
in f
ĠS I
ĠCl ÃŃn
ĠMar ina
Ġcas tillo
ĠA par
Ġval le
Ġasc enso
Ġdeci s
Ġen g
Ġartifici al
er al
Ġdes gas
Ġd anza
ti f
c aba
Ġesque ma
ĠMe j
ĠV a
Ġinst an
Es paÃ±a
ĠMer cedes
Ġexig ir
Ġpien san
Ġcap ÃŃtulos
ĠÃ¡n gel
ĠV ill
Ġcap as
ĠC ro
Ġh omosex
Ġres tric
Ġ ....
Ġgener ado
Ġon da
ĠE gip
ĠvÃŃn culo
car ga
tiv idades
h al
gu Ã©s
ĠA po
ig e
ĠsÃ© pti
Ġviol aciÃ³n
EN TA
or aciÃ³n
Ġactu alizar
ĠGust avo
di sta
Ġpor tada
Ġencontr arse
Ġcons cientes
Ġex hib
ĠVer de
Ġam ante
l ana
ĠC erv
Ġmotiv aciÃ³n
Ġimp rimir
P R
Ġadap tar
Ġga tos
et s
ĠPal ma
Ġinter ro
tin es
ĠAl fre
Ġcomple mento
Ġale mana
m uy
Ġvisit ante
Ġfran qu
ĠFu ente
Ġurb ana
Ġrecin to
ĠG RA
ĠGu ÃŃa
Ġrad i
Ġin g
ĠJa ime
Ġsigu iÃ³
ĠAl b
fi gu
an im
5 6
ĠdiseÃ± ar
Ġsal idas
f ord
ĠSe ptiembre
Ġhuev o
lor ca
Ġconsum ir
Ġref rig
d ones
Ġpais ajes
Ġin certid
lo w
vil a
ĠSe lec
Ġurg ente
Ġincon s
Ġab us
an ti
ĠIn glÃ©s
Ġcar gar
ĠAp ro
ĠCh ica
P r
ĠâĢ Ŀ
Ġh Ãºme
ion istas
Ã³ ma
Ġreg ula
âĢ ĺ
T IC
Ġsuf rimiento
ĠRaj oy
Ġsens or
ome tra
A b
te ar
j idad
Ġrelig iosa
o per
tur adora
iden cial
ĠS A
ĠT ampoco
Ġqu ie
Ġpresent ada
ĠDe moc
ĠðŁ ĺ
Ġsu pera
Ġpe didos
ch ar
Ġun ir
ĠGuadal ajara
Ġnov elas
or ada
y u
vis or
l Ã¡n
ĠS istemas
Ġsens ible
Ġpose en
Ġesta tales
Ġocci dental
uc risto
Ġsos tiene
Ġante cedentes
Ġjugue tes
ĠS tor
Ġadministra tivo
Ġsatisf ac
ĠrÃ© cord
ĠEsc orts
ĠP RE
5 9
Ġre torno
ĠRev ista
ÃŃ genes
o f
iv idad
Ġven gan
bo ok
ĠGuti Ã©rrez
ĠDirec tiva
I ON
is s
an ia
Ġjun ta
ĠCat Ã³lica
Ġcompar te
i Ã¡n
Ġbar ro
Ġcontinu o
uc o
Ġrecib ieron
Ġdese an
Ġavan zada
ici embre
Ġmantener se
Ġexplor ar
Ġreconoci da
P e
T al
ia ciones
Ġaclar ar
Ġencontr arÃ¡
Ġpobla ciones
Ġqued ando
m un
Ġrealiz arse
am pa
Ġs ar
In icio
an der
ig as
col as
ĠPÃ¡g ina
Ġforma tos
adÃ¡ ver
Ġin to
Ġher idos
t ent
fici entes
Ġt Ã¡c
Ġfac ebook
Ġfavor ita
ĠmÃºs culos
Ġpar ale
Ġcorri endo
Ġposi tivos
ĠpÃ¡rra fo
uel ta
Ġc itado
ĠGra tis
Ġmol de
A A
Ġcor tos
res a
Ġ18 0
Ġtra m
ĠEn fer
Ġnar co
Ġi b
Ġlocal idades
Ġencan tado
Ġbeb Ã©s
---- ----
Ġmedi as
ĠAr gent
ĠNic aragua
Ġsosp ech
Ġo pos
Ġtu bo
Ġsus pendi
Ġescri tores
Ġefec tivos
Ġsa que
Ġintelig entes
ti zado
qu eros
Ġre bo
Ġcual idades
t ti
iz as
Ã©di to
Ġden uncias
Ġdue Ã±os
Ġhi jas
Ã ²
ĠA gust
Ġdesarrol lan
Ġretir ar
Ġser a
ĠOb serv
Ġ199 7
ĠRam ÃŃrez
Ġsu po
nes s
Ġafec tado
Â Ķ
ĠCom paÃ±
Ġabs ur
ĠR en
Ġcam as
ĠW a
ob o
ĠMo tor
Ġpresu pues
oc ar
t te
ĠT rad
e gr
Ġcomp uesta
Ġtranspar ente
Ġrecom endar
ec uciÃ³n
Ġnorm ales
es es
Ġtradi ciones
Ġcompati ble
Ġsan gu
Ġdesaf ÃŃos
M on
Ġespec tadores
Ġdepor tivos
Ġle v
Ġdescan sar
ĠgrÃ¡ fica
id ro
qu ita
Ġtecn olÃ³gica
Ġme lo
IEN TO
Ġvista zo
Ġpas amos
ion eros
g ador
Ġotor ga
Ġgimnas io
ĠT ama
Ġconsider ada
Ġrestau raciÃ³n
Ġlin do
ĠhectÃ¡ reas
Ġre vela
Ġpublic ados
Ġlo co
Ġcap tura
Ġch o
Ġempie zan
R o
ĠC ub
201 0
ĠRe ina
Ġbeb ida
Ġimag in
ĠPresiden cia
Ġocup aciÃ³n
CI O
gr ada
y ente
Ġmoder nos
Ã© ano
Ġcomien zan
ĠM E
Ġmus ul
ĠLa ura
te os
Ġac tÃºa
ĠRiv era
ĠK en
Ġmus cular
ĠB i
Ġauxil iar
Ġmin erÃŃa
Ġpr in
Ġal ine
Ġcre an
Ġbar es
Ġcam ar
Ġcomen zado
ĠBl ue
ĠK o
Ġv os
Ġsi enta
h ola
Ġeduca tivas
ĠpolÃ©m ica
Ġcal ma
fon ÃŃa
Ġpelig roso
Ġpaque tes
e jas
Ġdeleg aciÃ³n
ĠMov imiento
er ador
Ġbus cas
z amiento
Ġ5 4
Ġv uestros
gres os
ĠC ic
Ġviv iÃ³
Ġproce dentes
Ġesper ado
To das
Ġselec cionado
Ġgl oria
Ġc adÃ¡ver
Ġmu ro
Ġempres ariales
Ġpresent amos
Ġextrem adamente
Ġprepar ados
ĠAgr icultura
O P
Ġconvier ten
Ġrepar to
Ġexter na
Ġlin k
Ġtra tan
ĠV enta
Ġus ados
Ġextre ma
Ġdesp la
Ġhab Ã©is
p ue
Ġdesapar iciÃ³n
ĠAl l
Ġpar ado
Ġdesgra cia
Ġas imismo
Ġintegr ada
Ġtra mp
Ġindependi entemente
Ġcon tener
ach os
Ġetique ta
el los
m or
Ġan gust
m s
Ġadop tar
Ġenerg ÃŃas
ĠJu z
h ar
Ġayudar te
Ġt im
Ġ7 2
Ġcumpl ido
Ġen mar
ĠCap ÃŃtulo
Ġestu ve
ĠacompaÃ± ar
ĠfÃŃs icos
Ġfron tal
h ay
u j
Ġcas ti
Ġmier da
Ġcan tar
ĠA F
u til
Ġsuce dido
Ġsu ya
Ġlig era
Ġemp ate
gr ados
Ġtar des
Ġmanifies to
Ġlle ve
Ġprestig io
Des cripciÃ³n
ap ro
Ġcre ador
Ġdul ces
Ġp iden
Ġatra er
Ġhomb ro
h ÃŃa
ĠL l
ĠM ara
ĠCon st
Ġop tar
J o
x a
ĠPara guay
Ġcambi ando
Ġf le
ĠG an
Ġpec ado
per son
tu oso
Ġrefor zar
I ÃĵN
er es
Ġre cal
Ġac omo
Ġ5 1
onces to
ĠRob ert
Ġdest inados
Ġpin ta
ĠConse jerÃŃa
Ġp le
Ġtesti go
Ġoscu ridad
Ġtra te
AD OS
hi bido
Ġre t
Ġemp o
m adura
ĠLor enzo
Ġden s
Ġl ici
Ġestu p
Ġconfirm ado
Ġcambi Ã³
Ġcre ce
Ġca z
Ġdirec tivos
ĠJun io
Ġmercan cÃŃas
Ġbos ques
Ġa tro
Ġsepar ado
Ġpresent arÃ¡
Ġedi ciones
Ġtitular es
Ġindispens able
Ġpon ga
ĠTi po
g s
ĠCar acas
Ġaf ric
Ġtex tura
an i
Ã± al
Ġinvers ores
ri e
Ġcom isiones
» ¿
Ġunivers itarios
ĠF ron
G RA
Ġprof undamente
Ġplan os
Ġrel len
d ora
Ġas im
por que
ti pos
Ġalcan z
Ġliber ales
Ġentrev istas
or os
ĠCon ven
ĠM Ã¡ster
el le
ĠGre cia
Ġtras era
Ã¡s ico
Ġvertic al
Ġlogr aron
m Ã³n
Ġre ver
ĠElec toral
ines s
Ġmedi ciÃ³n
gÃ¼ enza
B S
ĠLe e
ri ta
Ġgri e
iz os
it ro
Ġrad ical
ĠdÃ© ci
Ġmi el
ir ch
Ġcomple jos
Ġencan tan
ĠJes ucristo
Ġpoder oso
Ġexpres iones
ĠCur sos
Ġcont un
Ġtrans fer
Ġlla ve
Ġmas as
Ġconfigu rar
gu i
ĠD ie
Ġsobreviv ir
Ġna tur
ĠacadÃ©m ica
Ġdesp acho
ce la
Ġf ores
ĠMar iano
Ġre di
Ġpre ce
Ġir Ã¡
Ġreal ice
ĠS tan
Ġejemp lares
Ġcu otas
Ġconsider Ã³
m Ã¡tico
ĠMauri cio
ĠT it
Ġinteg ridad
Ġqued aba
Ġcercan os
Ġman io
ra miento
P C
t adora
Le er
Ġnove dos
Ġepiso dios
Ġ5 7
Ġadecu ados
Ġen gan
Ġab uela
Ġe rÃ³
Ġfinanci amiento
Ġal o
ĠDe leg
Ġefec tivamente
ĠX VI
Ġcoment ado
8 00
Ġart ÃŃstico
ĠescÃ¡n dal
To da
ĠâĢľ Â¿
ĠMin istro
ĠVe ga
Ġtom o
Ġpus ieron
Ġadul to
Ġpla zos
Ġbotel la
ĠP ra
Ġcom enta
Ġmo ch
Ġconven cer
ec Ã©
ĠMas ter
ĠE u
li que
Ġmedic amento
lo gos
Ġal za
l fo
ik i
ĠC ualquier
AN A
Ġgras as
Ġcin cuenta
Ġsuel do
ĠV alladolid
ad ar
f u
Ġse pa
se lo
Ġafec tadas
ĠEgip to
ĀĀĀĀĀĀĀĀĀĀĀĀĀĀĀĀĀĀĀĀĀĀĀĀĀĀĀĀĀĀĀĀ ĀĀĀĀĀĀĀĀĀĀĀĀĀĀĀĀĀĀĀĀĀĀĀĀĀĀĀĀĀĀĀĀ
ĠatmÃ³s fera
Ġp iz
Ġsin ies
Ġextraord inaria
ĠautÃ©n tica
Ġsuce diÃ³
Ġgas olina
ĠB ajo
Ġ199 6
Ġcarre teras
Ġmin isterio
Ġmanif iesta
tr ica
Ġargent inos
Ġautom Ã¡tico
Ġmone das
Ġperten ecen
Ġtras tornos
Ġaprob Ã³
Ġex posiciones
Ġasoci ado
Ġsu puestamente
em ia
Ġexig encias
por aciÃ³n
yec tos
ic ciones
us s
di to
ĠT orn
ĠRespon s
ĠN uestros
Ġcorreg ir
Ġch ina
Ġdetermin aciÃ³n
Ġequip amiento
Ã¡m icas
Ġenfr enta
Ġoper adores
Ġinv itado
Ġterror ismo
dic es
Ġo pon
Ġsem estre
Ġfas es
dis cipl
Ġment ira
ĠInf antil
Ġanim aciÃ³n
Ġespecial idad
Ġincendi o
Ġpu ta
Ġcotidi ana
aque ta
Ġcontemp la
IN G
Ġtempor adas
Ġofici almente
fit ri
Ġ199 4
ĠMac ri
Ġpregun tÃ³
Ġlim itada
ĠquÃŃm icos
Ġconcluy Ã³
Ġsorpren der
Ġvoc aciÃ³n
ĠW ord
ĠYou Tube
ĠÃ©x itos
Ġcuch ar
Ġinform Ã¡tica
ĠS L
Ġre tom
Ġadap ta
Ġtecn olÃ³gico
Ġe mitir
Ã©r icas
C OM
En tonces
Ġar oma
Ġreac ciones
ab ell
Ã±o z
ĠCon ferencia
Ġcorre os
Ġren uncia
ch i
Ġcont ando
Ġobten idos
ĠPre cio
ad uras
Ġo ut
cios a
Ġdes ierto
Ġna vide
ĠAb og
Ġcu bre
ist ente
ras es
Ġdeman d
5 7
Ġc Ã©
m u
Ġfor os
ÃŃ colas
Ġconform an
ĠOr tega
ĠAb ril
y an
T EN
Ġinvestig ador
Ġgan adores
Ġsist em
Ġr ÃŃos
Ġprome te
Ġmanten ido
dri go
ĠE U
Ġaqu Ã©l
ĠPer io
Ġcapital ismo
Ġra yos
Ġdestru ir
Ġper dÃ³n
us k
Ġp ico
Ġcon cer
Ġcompar ten
Ġen tera
Ġvac a
Ġinterpre tar
Ġc ep
ĠL abor
ĠPrim er
Ġl Ã¡g
Ġcal zado
ĠSec ciÃ³n
ĠHon duras
al im
ri mos
Ġaplic able
Ġsegu ÃŃa
Ġp ist
Ġinici os
uer te
ĠEncuent ro
ĠJoaqu ÃŃn
Ġrecur rir
Ġm ama
Ġblan cas
Ġcal ificaciÃ³n
Ġob viamente
Ġma tr
ĠFlor ida
ĠEncuent ra
Ġzapa tillas
Ġpens amos
Ġs ano
Ġemple os
F u
ĠAtl Ã©tico
are la
pu bl
Ã§ a
Ġconduc e
b ados
Ġinforma ciones
ĠTer ri
Ġcos m
Ġense Ã±a
Ġh em
Ġinaugu raciÃ³n
Ġtro pas
c Ã©
Ġposi cionamiento
Ġban de
Ġsi tÃºa
ur g
Ã³m icos
Ġhab ÃŃamos
Ġelector ales
ĠTÃ©cn ica
H o
Ġmaravil la
Ġempren dedores
ĠCu ar
cul as
Ġbloque o
ĠBol sa
Ġinm ueble
Ġper dida
Ġ5 9
ĠlÃ¡ mp
ĠS ent
ste in
Ġvitam ina
ĠmÃ³d ulo
ĠreÃºn e
m el
Ġsin cer
Ġbron ce
ĠA Ãºn
cep to
Ġdi rÃŃa
Ġin tes
Ġtur ÃŃstica
Ġnecesita ba
cional idad
ĠestÃ¡ bamos
Ġsec ues
Ġconvir ti
ĠH ola
c Ãº
Ġub ica
Ġperson alizado
ĠcÃŃr culo
Ġcol oca
ĠS ac
Ġtom e
Ġsu puestos
Ġconex iones
pon es
Ġsobres al
. ).
Ġlim itaciones
M Ã©
u za
Ġa ula
Ġ199 5
Ġrode a
ros s
Ġgener ando
ĠElec trÃ³n
ĠGuer rero
Cu Ã¡n
Ġconces iÃ³n
Ġsub ra
Ġcr Ã³nica
ĠDepor tivo
C L
Ġhub ieran
N e
Ġru p
Ġc il
D o
crip t
Ġde biÃ³
CI AS
Ġcre encias
aliz an
Ġf ortuna
Ġcu sto
ĠPor no
Ġras gos
Ã©r pre
Ġinev itable
Ġrelev ancia
Ġamb ientes
Ġinstitu to
Ġ5 8
ĠV el
Ġhal laz
tr en
, .
r adora
ĠF igu
Ġdesarroll Ã³
Ġmasco tas
Ġ5 3
Ġanun cia
Ġdescrib ir
Ġar a
Ġsem if
Ġpar ques
Ġobserv aciÃ³n
Ã³ tica
ĠEx teriores
Ġas ent
Ġpatr ones
Ġofre ciÃ³
E P
ĠCom pe
Ġcabal los
Ġtra ge
ĠAl ianza
get ales
Ġnav idad
ĠS ig
Ġd ram
Ġev angel
os ten
Ġcom pa
Ġpantal las
Ġ7 00
estr ÃŃa
Ġv era
Ġterri torial
Ġsab idurÃŃa
Ġdestac ados
Ġrad ic
Ġconv iene
ĠCh a
Ġcub anos
ĠD iciembre
Ġar res
Algun os
der s
Ġproto colo
Ġlog ros
Ġgrad u
ĠC ort
Ġsupon go
ĠPla ya
Ġpor quÃ©
ĠAn Ã¡lisis
T AL
Ġver la
Ġcome tido
Ġch av
Ġprev ista
Ġdoc trina
ĠC rea
Ġmi x
ĠPue bla
Ġflex ibilidad
Ġacab o
Ġregist rÃ³
Ġencuent ras
Ġin vi
ĠquÃŃm ica
Ġt ÃŃo
re mo
Ġp acto
ĠD ia
Ġpi ra
Ġsol os
Ġbon itas
ĠOl ÃŃmp
gu almente
m ens
Ġcuar enta
ĠI z
Ġcal efacciÃ³n
Ġsomb ras
d ro
Ġsal ieron
Ġbru tal
Ġsolici tado
ĠCon diciones
Ġ199 0
un ya
aj ar
AR I
Ġacom paÃ±a
ĠPar k
Ġhum anas
Ġpresent arse
om ento
Ġescuch ado
Ġah i
ul ados
Ġcam ion
v ista
ĠlÃ³g ico
Ġexpres amente
Ġob tenciÃ³n
Ġdar te
Ġasegu ran
Ġemp a
Ġsindica tos
je cimiento
Ġvenezol anos
Ġmad u
Ġconj unta
Ġdes in
ĠFuer za
Ġcrist iana
ĠN ar
ĠVas co
Ġexter no
Ġrevel Ã³
ÃŃ var
Ġcul to
ible mente
ĠP ort
te za
ĠR an
ĠGener ales
AR C
Ġcomple jidad
T ES
ã Ĥ
ĠSal amanca
Ġal u
Ġprofes ora
ĠbÃ¡s icamente
Ġen cer
ec t
Ġdirec tores
200 7
Ġenvi Ã³
Ġital iana
Ġrap idez
Ġsec ciones
res iÃ³n
c usiÃ³n
ĠJ ac
ĠS ara
ĠMar ta
Ġden omina
T er
T P
Ġdeter mina
Ġvolun tarios
tÃ¡n dose
Ġcrea tivo
aliz ando
am arca
Ġexperim ent
m ita
Ġpermi tiendo
ĠV ers
or ado
ĠAp lic
Ġsome ter
Ġimp ide
Ġde gust
Ġform ada
Ġrespec tivos
Ġequip ada
Ġemb al
Ġex ista
P ER
Ġconserv a
Ġcontras te
Ġfi eles
Ġensay os
A pp
ic ho
Ġre en
H A
Ġcon duci
Ġsent ado
ĠEx p
ac he
Ġper si
Ġre medio
Ġconqu ist
Ġincertid umbre
uev en
En cuent
Ġtur ÃŃsticos
Ġocul tar
E B
v ieran
Ġcer rÃ³
Ġcamis etas
Ġarre p
ĠDis fru
Ġplen amente
ue ba
D entro
Ġabor to
Ġcre es
ĠN Ãºmero
Ġinf lam
Ġs tan
Ġconse jero
Ġsecund arios
ĠMed ina
Ġev ita
Ġarmon ÃŃa
um as
Ġcon taba
ĠcÃ³ digos
ĠConstitu cional
and ra
Ġin ac
Ġconduc tores
ĠCan aria
Ġcub ana
Ġvol ante
y ac
ti za
Ġdiscu tir
Ġinter venciones
Ġreflex ionar
ĠincreÃŃ bles
v ic
Ġinici ado
Ġperson alizada
ĠMo der
k ers
e val
or di
Ġcru zar
ĠhÃ¡ bil
ig ar
ĠTo ur
ĠExtre madura
Cu Ã¡l
p ada
Ġpar ezca
Ġreconoci dos
Ġfu turas
ĠL ÃŃnea
Ġa is
Ġdeci dieron
Ã¡m ites
Ġdesapar ecer
Ġentrev ist
Ġargu ment
Ġjapon Ã©s
ĠDis ney
Ġsust ancia
Ġfir mar
Ġ0 9
ĠC C
Ġcr on
Ġil ÃŃ
Ġb ola
Ġpat ria
Ġfundament almente
ĠC V
Ġneg ras
ĠO pen
Ġconserv ar
Ġsole dad
uev o
Ġinter faz
Ã¡ndo los
it ante
Ġestable cidas
Ġentre gÃ³
ĠTrans porte
cor e
ĠE le
CI AL
Ġconec tado
ĠS co
Ġsan ciÃ³n
Ġenc uestas
ĠR oc
cin g
J uan
Ġest Ã©s
Ġdifun dir
Ġproce de
k u
Ġarreg lar
Ġque b
Ġf icha
Ġdo l
ĠMu Ã±oz
V en
ĠUS A
t to
Ġprefer encias
ĠCuer po
ĠLuc as
Ġurg encia
Ġtransform ar
Ġaut ent
Ġconfir ma
ĠAn im
Ġtr Ã¡mites
Ġsolu cion
ĠSi ria
ĠC aja
ier as
Ġha gas
Ġtrist eza
Ġen vÃŃa
Ġo v
Ġir se
Ġban ca
lo j
ĠAcu erdo
ĠG rado
f Ã³nica
ĠR amos
Ġne gar
je mp
Ġch oque
Ġper diendo
Ġconstitu ciÃ³n
en io
ĠE dad
ĠA quel
al iciÃ³n
Ġextre mos
ĠSer Ã¡
til los
jal Ã¡
Ġnum ero
r erÃŃa
Ġun idos
Ġte tas
Ġencontra ban
Ġsat Ã©l
Ġrela tivo
ĠDip utados
ĠGe orge
Ġve in
ĠDe porte
ĠR ural
ĠT OD
ĠacompaÃ± ada
pe cial
Ġexter nos
Ġay untamiento
ĠAmb os
ik a
Ġefectu ar
ĠEsta tu
Ġinclu idas
Ġmig ra
Ġsemej ante
Ġadecu adas
Ġcomp rado
Ġfortal eza
ĠA de
ĠTer esa
Ġsue los
EN A
Ġespecta culares
ĠW e
Ġclas ific
Ġex Ã¡menes
Ġre cip
r Ã¡s
Pue des
Ġtab las
Ġb il
Ġpilo tos
ĠdiseÃ± ada
Ġunif orme
Ġpre ca
ĠD entro
Ġdesemp leo
Ġguar dia
Ġmar ÃŃ
Ġhab iendo
Ġcorrespon den
Ġins ec
ĠVide o
ion ista
Ġver ificar
Ġado pciÃ³n
Ġpoten ciales
Ġmec Ã¡nica
Ġdo bl
Ġven ga
Ġnerv ios
ĠD VD
Ġquer idos
Ġmostr ando
Ġve getales
Ġ199 3
Ġsolici ta
uel to
Ġpres ta
mple mente
Ġav iones
Ġred acciÃ³n
Ġextraord inario
Ġj ab
Ġdepor tistas
se y
g ol
Ġsust ent
ca den
Ġs illas
ĠF OR
ĠPar ece
Ġcier ra
Ġi ra
Ġrelo jes
Ġproce der
ĠM ach
Ġhues os
Ġinv is
ĠPac ÃŃfico
Ġis rael
Ġdisfru tando
Ġprop uesto
Ġcer rada
Ġreserv ar
Ġjud ÃŃos
ĠH ijo
ĠSu iza
Ġol iva
Ġcome dia
ell i
ill era
Ġcomunic ar
v echa
Ġterap Ã©ut
Ġlim ita
Ġhig iene
un idad
E F
ĠB ale
us h
ĠI ra
Ġempez aron
Ġcompren de
vi deo
Ġanti gÃ¼edad
ric h
v enta
us al
ĠEstudi o
Ġex teriores
Ġf idel
Ġab ar
Ġac titudes
8 2
Ġu Ã±as
Ġde tecciÃ³n
ĠfantÃ¡ stico
Ġvar iar
z i
Ġunivers itaria
pro duc
Ġapar entemente
Ġac o
Ã¡ ut
Ġdin am
Ġ( âĢľ
Ġqu ita
irch ner
ĠMar ia
Ġfu ga
____ ____
Ġhal lar
ion s
Ġb er
Ġp ÃŃ
Ġaver igu
Ġnucle ar
ĠU s
Ġmu r
Ġf oc
des de
Rec uer
g Ãº
Ġinten ciones
Ġinv ent
Ġexpor taciones
ĠClar o
res tre
Ġes qu
Ġdecir le
Ġrazon able
ĠG Ã©n
Ġfe der
In ter
Ġacces ible
Ġun ido
Ġmascul ino
ĠH ombres
] ,
Ġcos tado
Ġten is
ĠIn genier
Ġse ca
Ġcent ra
Ġriv ales
per s
Ġdo lores
Ġoper ar
ĠS um
Ġco gn
Ġatra vi
Ġgra bado
Ġdecor ar
M adrid
as t
Ġper don
on i
Ġco j
Ġinvesti ga
Ġsignifica tivo
ĠAn al
Ġfavor ecer
Ġgo le
Ġit iner
Ġconcep ciÃ³n
Ġra mas
Ġmete or
Ġan fitri
Ġflex ible
ik o
Ġca ÃŃdo
Ã©ndo le
Ġla p
7 2
ĠInnov aciÃ³n
Ġrecib irÃ¡
ĠÃºn icas
Ġexten der
Ġ9 00
Ġclar os
ly wood
qu erÃŃa
Ġlo cura
ĠSan idad
om en
Ġma pas
Ġtras pas
ĠPe ter
Ġx xx
Ġeurope as
Ġda ta
Ġban c
man n
e Ã±as
Ġsub e
Ġcrim inal
Ġinci dente
Ġcop ias
V O
ĠMar k
Ġenerg Ã©tico
Ġne ur
Ġpar to
Ġj ajaja
tab ria
oc en
Ġo di
Ġconcre tamente
Ã©c tor
Ġap el
Ġma il
Ġconcl uir
Ġsof ist
Ġconcre ta
inten do
ĠMar zo
Ġherman as
Ġdecir lo
Ġro ca
Ġo ch
ĠB omb
Ġintent Ã³
ĠL im
ĠInte gr
ĠSu Ã¡rez
Ġcl Ã¡us
Ġpla y
Qu ieres
Ġpoten ciar
Ġres eÃ±a
mit en
Ġentusias mo
Ġmejor ando
ĠRo ja
Ġcomp l
8 1
Ġnar iz
ĠHab ÃŃa
ĠVer acruz
Ġentre gado
Ġedi tor
st al
Ġdenomin ada
Ġcer tamen
as es
ay o
ĠHer rera
ici ar
ti t
5 4
Ġfantas ÃŃa
d re
con tra
Ġcorri entes
Ġrecomend aciÃ³n
graf os
Ġal turas
Ġtec lado
Ġan g
Ġcocin ar
ĠM Ã¡r
ĠComer cial
Ġpropor ciÃ³n
H er
Ġver Ã¡s
ĠEdi torial
ĠF orma
Ġaf iciÃ³n
tar iado
Ġ6 9
Ġ6 6
os idad
Ġresul tan
Ġsuper vis
ĠPos t
ab uena
am ent
Ġrequer imientos
Ġp si
Ġfavor able
Ġgol f
iÃ©n do
Ġtir ar
Ġdeci dÃŃ
Ġsum amente
Ġpo emas
Ġres pir
ĠRe pres
te z
Ġfal so
tam entos
Ġdesp lie
ie te
ut ado
Much os
Ġblo ques
Ġan aliza
ĠPerson as
rech a
x is
ĠÂ °
@@@@ @@@@
ĠN ike
ĠRo jo
Ġv imos
ĠmÃŃn imos
Ġcompet ente
Ġta tu
Ġgas es
Ġno ble
ĠRio ja
ÃŃgen o
P P
l ara
ĠB ill
tÃ¡n eamente
ĠIs las
Ġco di
Ġfil tro
Ġdefini tivo
Buen as
Ġcar dio
ĠIntro ducciÃ³n
% ),
Ġaument ando
Ġg oma
Ġcul tivos
ĠM ora
ci ende
Ġpro cur
Ġsu man
Ġpuer tos
Ġcircunst ancia
Ġo ÃŃr
Ġt Ãºn
in oso
Ġdro ga
Ġba tal
Ġprev al
Ġor ÃŃgenes
ĠPro ces
Ġatrac tivos
ĠA venida
Ġseg mento
Â ²
Ġresta urar
Ġpantal ones
S C
Ġimper ial
ĠÃ©po cas
gan da
qu era
Ġpo ema
polit ana
Ġfach ada
ĠGonz alo
V amos
ĠRe la
Ġperio dismo
Ġsab ores
Ġgu i
D UC
iz ador
Ġme ga
Ġfalle cido
Ġne uro
Ġcancel aciÃ³n
Ġreun ir
par se
it ch
Ġconst antes
Ġoscu ra
Ġbo das
Ġperman ece
Ġp eces
ĠVal ent
il ado
8 3
ĠN ombre
ĠB aja
Ġmaes tra
ĠAtl Ã¡n
ven a
Ġtama Ã±os
Ġcar peta
Ġfra ude
Ġapoy a
Ġgri ego
d ul
S erv
Ġpl ac
Ġnutri entes
Ġg ala
Ġfi jar
Ġdeci mos
Ġhici era
IN E
ĠBer lÃŃn
Ġdes vi
Ġextra cciÃ³n
Ġembara zada
Ġver gÃ¼enza
ĠRo drigo
Ġgu iÃ³n
Ġpol la
ĠK ing
Ġenc am
Ġh ech
ĠC I
it z
gas e
Ġjust a
Ġsopor tar
ic to
T iene
F el
Ġmig rantes
ĠMal lorca
ĠGlo bal
ĠCent ros
ON A
5 2
Ġ199 2
Ġtal entos
ien se
Ġform ando
ĠI VA
Ġmi de
Ġmagn itud
ing os
P on
Ġcons ola
ĠF ol
Ġsustitu ciÃ³n
Ġaprovech ando
Ġelev ada
lu ten
Ã± ones
ĠQu iero
ĠG or
7 4
oci miento
Ġre tor
Ġsuperviv encia
Ġhomb ros
Ġsacerdo te
Ġconlle va
k ia
Ġvolver Ã¡
Ġrefug io
ĠM ens
h acer
Ġsan itario
Ġar bi
M C
Ġbo x
Ġre porte
Ġconven cional
Ġcor rup
Ġfarmac Ã©ut
Ġn or
Ġminist ra
un os
ĠhipÃ³ tesis
Ġhabl aba
Ġpl us
Ġconm em
ĠAlfre do
ĠCent er
Ġimp u
Ġde cep
Ġmens aj
Ġtrabaj amos
Ġdens idad
Ġh amb
Ġal b
Ġrepar ar
Ġcompar ar
Ġc Ã³n
ĠIn di
ĠacadÃ©m icos
ĠF ra
Ġcontemp lar
Ġutiliz adas
Ġvol ar
ĠA U
Ġpudi mos
Ġcompeti tividad
ĠVil lar
Ġdeterior o
Ġsustitu ir
Ġmo bil
ĠTom Ã¡s
uev as
Ġmuer tes
ĠP ER
ur ado
Ġmedi ano
Ġbrasile Ã±o
Ġchil eno
Ġlim Ã³n
ie bre
Ġfalle ciÃ³
ti bles
Ġde dicaciÃ³n
Ġsan itaria
Ġempez ando
Ġincumpl imiento
Ġher encia
ĠMar gar
Ġse para
Ã¡s er
Ġf ina
ĠEx tra
ĠH y
ĠCab all
Ġpin turas
Ġdeb idamente
na val
Ġinfec ciones
Ġempez ado
Ġdar Ã¡n
Ġnub es
ĠdiÃ¡ metro
Ġcon cil
ĠfenÃ³m enos
Ġexp licaciones
Ġna tal
Ġmens uales
ĠAD N
j unto
Ġmon te
Ġdesapar ecido
L C
Ġmol inos
ĠCa teg
ĠOb ras
Ġmatem Ã¡ticas
Ġsurg iÃ³
Ġde mo
Ġcomple mentos
ĠÂ ĵ
6 00
Ġelec tr
Ġbo tones
Ġper egr
il ados
ĠCatal unya
d ario
ĠG alax
Ġafir mar
P lan
go b
ĠP ay
Ġaband ono
ĠON G
Ã©ndo lo
Ġpl acas
Ġmodi fica
Ġsobre todo
par aciÃ³n
Ġas ientos
Ġsan to
S olo
Ġencar gada
Ġhabitu almente
ĠD IS
Ġesp ada
Ġoblig ados
Ġsol itario
Ġpa v
cu ando
Fo to
Ã¡ til
Ġabund ante
Ġinter v
Ġpar al
ĠVar gas
Ġh ero
Ġmar cÃ³
Ġinici almente
Ġdispon en
Ġsu biÃ³
mit h
Ġenten dido
Ġampl iamente
ĠP ilar
Ġadminist rador
ie mb
Ġaport an
Ġg em
Ġjug Ã³
Ġidentific ado
ke y
Ġdesas tre
Ġcoordin ador
ĠR oy
Ġreti ro
ĠobstÃ¡ culos
Ġsof Ã¡
Ġhid ro
Ġpap Ã¡
ĠEl ena
ĠHa z
Ġcercan as
v Ã¡
Ġencuent ren
Ġcomenz arÃ¡
Ġsalud ables
ĠPl us
ĠIN TER
Ġinm uebles
ĠTo tal
Ġmen ciÃ³n
Ġlengu as
Ġrelig ioso
cla je
Ġinter medi
om Ã©tr
ĠC OR
Ġev itando
ci entos
ta g
b ack
Ġbas ados
ĠPa tr
Ġ3 60
inar es
Ġprim as
Ġindustri as
200 9
Ġcandida tura
Ġllen ar
Ġgust aba
Ġsum erg
ĠG EN
ĠIncl uye
Ġadap tarse
rue cos
Ġl ingÃ¼
ac os
Ġsig las
Ġcomple ja
Ġfoto graf
ĠN adie
Ġtar d
Ġpier das
Ġejemp lar
ill ado
Ġprom esa
l amos
Ġr ara
ĠcrÃŃt icos
Ġarm ado
ĠEx isten
5 3
lan dia
Ġtu yo
ĠBo ca
Ġbel lo
ĠEqui po
7 3
f r
Ġch u
Ġacercar se
ĠI den
Ġcan to
ĠCam ino
Ġpre domin
Ġunivers itario
Ġquir Ãºrg
Ġanunci ar
Ġreci cl
ĠI D
ru dencia
Ġdirec tos
Ġl entamente
Ġopera tivos
Ġnomb rado
am pl
Ġexc usa
Ġexpor taciÃ³n
C iudad
Ġcor ona
Ġreg lamento
N eces
Ġnega tivos
Ġg ab
Ġlle go
Ġran king
ue ga
Ã©n dez
ĠFuer zas
Ġfil as
O G
Ġproble mÃ¡tica
Ġex ager
Ġap uestas
Ġcor e
eb ra
Ġpe ores
Ġllam o
ĠCoci na
ĠA ten
ĠS w
Ġp p
Ġle ma
Ġse mb
Ġenfer mos
Ġman chas
ĠSil va
Ġrealiz amos
bus es
tr ados
Ġinal Ã¡mb
Ġimagen es
ĠSE O
Ġso Ã±
Ġf usiÃ³n
Ġt ribunales
Ġalum nado
ĠseÃ± ores
Ġsex y
Ġperteneci ente
Ġtecn olÃ³gicos
ĠXV III
Ġcont ento
Ġgas tar
Ġrestr ing
c las
s ec
ĠJ al
Ġpas arÃ¡
Ġint Ã©rpre
at ÃŃa
Ġrode ado
ĠNie to
5 1
Ġh umo
Ãºm enes
ĠP ala
cion ista
ĠOrg Ã¡nica
rÃ¡ ul
ĠCon f
Ġtu ber
Ġespa cial
P la
Ġdefin ido
Ġsac a
l om
ĠF Ã¡
Ġac aban
Ġloc alizaciÃ³n
Ã© p
Ġcon greso
aron es
Ġrem un
Ġsac Ã³
ĠJu ventud
ĠCarta gena
ĠF echa
ĠGu ad
Ġoper ador
ac en
ik ipe
Ġgra mos
grÃ¡ ficas
Ġcolombi ana
Ġti ra
Ġdi arias
Ġpens iÃ³n
ĠEvan gel
ĠJe an
Ġfuncional idad
Ġadvir tiÃ³
Ġconoci Ã³
Ġest Ã³ma
ĠelÃ©ctr icas
Ġperspec tivas
ĠB ru
Ġace ites
Ġ ida
Ġgan ando
bi ta
Ġ6 8
ĠÃģlvar o
Ġpregun to
ĠperiÃ³ dicos
Ġintegr ar
ĠI SO
Ġelectro dom
htt p
ĠBol ÃŃvar
Ġc ad
Ġcompon en
Ġac aso
Ġafec tada
Ġprovoc Ã³
Ġint entado
cil la
Ġfal tan
Ġch i
ĠTrabaj adores
Ġpart ÃŃculas
Ġcomprome te
ĠAs untos
Ġleg ado
ĠS S
Ġconst ancia
Ġcr ÃŃmenes
Ġconside rando
Ġserv ido
Ġsub je
Ġdirec tiva
Ġde udas
ĠlÃ¡g rimas
Ġbacter ias
ĠEst Ã¡n
ĠPrim aria
e is
j ados
ĠR uta
ĠG ri
Ġbancar ia
Ġfin ca
am ing
In cl
a z
Ġprovoc ado
Ġarran que
ĠMunicip io
ĠMar celo
qui cia
ist ros
Ġr usa
Ġjef es
ist Ã¡n
x ima
am ba
?? ?
Ġmanip ulaciÃ³n
Ġd ren
Ġarquitec tÃ³n
iv ar
fas is
C abe
Ã¡ndo les
Ġsab iendo
Ġsuper ado
ĠInst al
Ġsorpres as
di era
Ġcab les
Es c
Ġpi diendo
ĠQuiz Ã¡s
Ã¡ndo te
G E
ĠDe bido
Ã¡ zar
Ġconden ado
Ġinfer iores
Ġbo tas
Ġpier na
d ula
Ġespec tador
ĠCh an
5 8
Ġagr ÃŃcola
Ġautor izado
ĠReserv a
Ġrepres iÃ³n
Ġfac ultad
uen ca
Ġex tiende
Ġre mi
Ġestar emos
Ġcab ec
Ġtr on
ĠMe del
Ġconf iar
Ġsan ta
Ġpres ion
ĠÃļ l
Ġse p
Ġjust ific
Ġob s
ĠConsul tado
Ġsal iendo
Ġadminist rar
Ġsuperfici es
Ġhistor i
Ġaleg re
b r
Ġcomp licaciones
g ante
ĠA ce
Ġdi ariamente
ch ado
Ġs tock
Ġpa gan
CION AL
y entes
ĠmÃ³d ulos
Ġexp uesto
Ġapar camiento
Ġt ib
Ġdios es
Ġcoleg as
ĠmÃºs ico
ri das
Ġmoder nas
Ġsacri ficio
ten imiento
ĠbritÃ¡n ica
Ġvitam inas
ĠR el
6 3
Ġcom itÃ©
Ġin e
ĠO tras
Ġpro hibido
Ġenf a
Ġpa tas
Ġdemocr Ã¡tica
Ġt rib
ĠG eo
Ġnerv ioso
P F
7 1
ĠO R
al las
e k
Ġajust es
Ġceb olla
Ġimpro vis
ĠR ena
Ġdirig idos
ĠR A
Ġch or
Ġhermos as
Ġimplan taciÃ³n
ĠPsic ologÃŃa
Ġneces ite
Ġpon drÃ¡
Ġsu poner
Ġem ig
ĠI glesias
Ġluc ro
op ol
ikipe dia
ĠT RA
Ġdiagnos tic
Ġconside ro
ĠT ru
Ġcer teza
Ġdar les
Ġma ÃŃz
ĠVal enciana
Ġest ÃŃm
Ġbusc amos
ĠS uc
at h
Ġactu alizaciones
ti gu
Ġvic torias
Ġhue co
ĠJos ep
Ġdisc ÃŃp
Ġagre ga
R eci
an ta
Ġsalv aje
Ġagr icul
ta des
ĠCompaÃ± ÃŃa
ĠAgust ÃŃn
x imo
Ġprov iene
Ġdeleg ado
ĠR og
Ġs eno
o te
ĠF ÃŃsica
i tim
Ġrestric ciones
Ġmedio dÃŃa
t ona
> <
Ġ Ã©n
Ġcal orÃŃas
Ġcomp one
Ġadecu adamente
Ġactiv ar
Ġle ÃŃ
Ġex poner
Ġp alacio
Ġmoto ci
Ġespeci fic
ĠcÃ³ mp
ti emp
Ġi OS
. ),
Ġve an
Ġob ede
Ġcomple tos
ĠA gosto
ĠSeÃ± ora
le go
ba ciones
ĠQu in
Ġoptim izar
Ġregist rados
Ġsal do
ĠespectÃ¡ culos
ĠStre et
ĠO fre
ĠV ent
M IN
N osotros
Ġmostra mos
Ġsen ador
Ġt Ã³x
ĠmÃ¡g ico
Ġter remo
Ġselec cionados
Ġfres ca
Ġla terales
Ġsal udos
Ġfal la
ĠL ec
Ġrelig iosas
S ol
Ġtrage dia
Ġprocl am
Ġbal cÃ³n
Ġb onos
Ġsob r
ĠEn ero
Ġas cen
e dades
ĠCor uÃ±a
Ġjue gan
Ġf estiv
Ġll orar
Ġa zo
ĠH Ã©ctor
ĠInde pendi
j amos
Ġdirig iÃ³
ĠSer ie
Ġlo ca
itco in
gra ciÃ³n
que ta
Ġtrans curso
Ġco Ã±o
Ġd uros
ĠS AL
Ġpe di
Ġcontinu amente
m all
Ã³n icos
Ġmedio amb
Ġhab lo
Ġpsic ologÃŃa
re al
Ġmo dal
ĠP ok
Ġguer ras
Ġcan ta
em ento
Ġdes po
Ġcub ierto
Ġinst a
it oria
ta ge
Ġacog er
ĠS OL
Ġprotes tas
Ġpol ar
Ġa ur
Ġcas ualidad
Ġcin tura
h ara
Ġproduc tivo
Ġapar tamentos
No ta
Ġol vido
eci eron
Ġnacional idad
ĠH om
Ġdese e
Ġcur va
Ġdeb il
Ġcrea tiva
Ġapren de
Ġad her
Ġbar cos
ĠH un
Ġcaus ado
Ġrin cÃ³n
Ġcorre dores
ĠH uelva
Ġic ono
ĠCas as
Ġconsigu iente
fici os
ĠInform e
Ġg ros
ĠBar rio
ĠE c
ĠEdi ciÃ³n
Ġmu ral
Ġc ement
6 2
Ġsan itarios
ĠFeder ico
l icos
Ġllev arse
Ġcam iÃ³n
Ġfal sa
ul siÃ³n
all y
ĠenseÃ± anzas
Ġexten sa
eb an
Ġdej es
Ġobliga torio
Ġp ales
200 8
ĠCar olina
Ġcam iones
se t
Ġtre m
Ġan ima
ĠI rÃ¡n
Ġconvers iÃ³n
ĠtÃŃp ica
li mp
Ġadqui rido
ĠMexic ana
Ġrum ores
Ġprepar ando
ĠA eropuerto
Ġconf or
Ġetique tas
illera to
Ġgu ÃŃas
Ġsu ici
âĢ¦ âĢĿ
Ġtorm enta
Ġproce dente
Ġal iados
Ġcap itales
Ġl iv
ĠS ky
Ġrep ara
Ġindi gn
Ġpa to
Ġvar iedades
li x
P L
esti ma
Ġem er
Ġdi lig
Ġrefle jo
hor abuena
ĠBur gos
Ġinfraestruc turas
titu tas
Ġ( ...)
Ġh ones
Ġtemp rana
Ġbol so
ÃŃt icos
Ġa zar
Ġrefer entes
Ġmi to
Ġexperim entado
Ġpe at
Ġsosten ibilidad
Ġrelig iosos
Ġperteneci entes
Ġterror istas
ĠCh amp
ĠEspe ci
Ġres um
ci tas
Ġir ri
ĠP unta
Ġpas tor
Ġcr uel
enci ar
P RO
A g
Ġcarb Ã³n
ĠestÃ³ma go
Ġcin tur
Ġp ack
Ġor to
r s
it arse
f ra
Ġseman al
ĠP rin
h asta
Ġentr an
T ICA
Ġti p
Ġadv ierte
Ð »
Ġrequis ito
Ġdeclar ar
Ġarm ario
Ã ¤
Ġcar gas
Ġdese ado
Ġin oxid
ĠestratÃ©g ica
Ġra ma
Ġes pu
Ġpres os
Ġdispon emos
Ġcoloc aciÃ³n
Ġconce j
Ġinteg ran
Ġp df
es is
Ġacog edor
Ġproporcion an
Com p
ĠR ib
r mac
Ġcu mbre
ĠF C
Ġtruc os
quil lo
crib ir
Ġter cio
tu ar
Ġref uer
f ri
Ġu ruguay
Ġi glesias
u den
ĠS Ã©
Ġul timo
Ġab uelo
Ġsos tener
ĠSegu ra
C er
Ġinv itamos
Ġpoder osa
Ġestable ciÃ³
Ġfu tura
Ã©c do
Ġsal va
Ġ6 2
ĠdiseÃ± ador
grÃ¡ ficos
ĠC AM
me dios
ĠH os
Ġcomunic arse
Ġcam ina
Ġimp ec
t ch
ĠR ies
Ġr on
Ã¡ logo
Ġpe ga
Ġp ido
ĠB au
cip aciÃ³n
ĠS un
Ġtelef Ã³nica
Ġlog rando
mos a
em en
ĠUnivers al
6 1
Ġ20 20
Ġles ion
Ġdese en
Ġorden adores
vil le
Ġatrac ciÃ³n
bur go
Ġcertific ados
Ġsignifica tiva
an ca
ĠA mar
Ġhumil de
Ġsorpren de
E se
Ġexplos iÃ³n
Ġp ez
Ġint entos
Ġdest ina
Ġar terial
Ġb oc
ĠC ora
Ġpros per
Ġdiscipl inas
Ġalf omb
Ġfo co
Ġjug ado
Ġpor te
Ġproteg e
Ġc Ã©n
t anos
ace te
ĠF inal
Ġpro poner
ion ero
Ġcomer cios
ĠK im
Ġgra v
O O
ĠLiber tad
Ġbusc ador
Ġnorte americano
ĠMunicip alidad
Ġm io
ĠR ÃŃos
ĠB M
Ġll enos
Ġapro bar
ĠHol lywood
ĠAl merÃŃa
Ġencar ga
ĠA ran
Ġconfirm aciÃ³n
Ġefec tividad
Ġsol v
v idad
Ġfin anzas
Ġesta cionamiento
Ġconduc tas
Ġolvi des
Ġse as
Ġv am
Ġflo ta
ĠP ul
G o
segu ida
b ida
i um
P N
ĠE R
ĠA hÃŃ
Ġfund ada
Ġ( âĢ¦)
Ġagres iÃ³n
g adores
Ġmas iva
so bre
Ġdispu ta
Ġazul es
Ġjoy as
Ġemp ecÃ©
m Ã¡ticas
iv al
ĠA mpl
g ÃŃa
Ġri gu
Ġescal eras
Ġimper io
ĠRo jas
Ġtra yecto
Ġmun diales
c ad
Ġin tra
Ġca os
Ġrecre a
Ġestable cen
ite d
Ġtrans acciones
ĠP IB
Ġcom arca
ĠCON S
Ġdep Ã³sitos
Ġhorm ig
ĠhÃ©ro e
ton e
cer es
di stas
ĠfÃ¡ rmac
ĠEr nes
ÃŃs mo
Ġ0 8
s mo
Ã©l gica
Ġin capa
Ġco co
ĠF rases
ĠEst ad
ec os
h ist
Ġen tornos
ID E
Ġiden tifica
Ġ ï¿½
Ġjust amente
Ġro jos
ĠcompaÃ± era
Ãģ S
Ġvis ibilidad
Ġbes os
b s
Ġdes com
Ġcal ientes
Ã³g icos
b log
dad ores
ĠTur quÃŃa
ĠC ient
Ġmad rid
Ġsu pl
Ġexplor aciÃ³n
Ġsab Ã©is
tur b
he im
m amente
ĠR iver
ril los
ĠÃ©n fasis
ĠB B
Ġsencil los
ĠN intendo
ĠE MP
di ta
Q UE
Ġenfrent arse
Ġinspec ciÃ³n
ĠPro ducciÃ³n
Ġcur s
Ġtri ple
Ġnoso tras
Ã©r icos
te ur
di ar
ĠM U
Ġcontes tar
Ġj ajaj
ĠV in
N i
Ġch al
cion Ã³
Ġay ude
Ġalm uerzo
ĠP N
D S
Ġcor tas
Ġcam inando
Ġinter nas
v esti
Ġ6 3
ol or
Ġestruc tur
ĠQ U
Ġpolici ales
ĠP AR
T AR
Ġcas tigo
ĠPre venciÃ³n
Ġempren der
Ġdej aba
ĠPo wer
Ġs ta
Ġinm ers
ĠTo p
d am
Ġtras ero
Ġv il
Ġte orÃŃas
Ġ 000
Ġtom ate
Ġnoti ficaciÃ³n
ĠPor tal
Ġameric ana
Ġri sa
ĠJer usal
Ġhuel la
Ġdi al
Ġestim ul
Ã³ tico
Ġpas ados
Ġmas ajes
ar qu
Ġsuper visiÃ³n
j Ã³n
Ġcruc e
ĠFo tos
ten a
ĠCan tabria
Ġretras o
Ay er
Ġinoxid able
Ġvendi do
lan os
Ġcon mo
Ġarquitec to
pla y
Ġcla us
fi eld
Ġampl ias
Ġsober anÃŃa
rib e
ĠInterna tional
Ġin da
L es
Ġcomien zos
ĠMil itar
acter ÃŃsticas
Ġminist ros
Ġlin da
Ġv uestras
Ġro bar
Ġmill on
ap as
Ġ ^
ed ora
Ġdo bles
Ġgu apa
Ġdisf ra
Ġde vo
Ġmover se
pen den
Ġarran car
T ienes
Ġtab aco
Ġdest ro
Ġlibre mente
E tiquetas
Ġco ca
Ġcre ÃŃa
Ġcent r
Ġtras torno
ĠJorn ada
Ġpreocupa ciones
Ġbille tes
ĠAr turo
ĠMo delo
Ġaden tro
t ancia
v ÃŃo
res e
Ġcora zones
Ġsuce der
ĠF ord
ĠMes si
ĠM AN
Ġaprue ba
Ġaum entado
ĠPr ensa
Ġdesarroll ada
Ġvig entes
ĠP ho
Ġhorizon te
Ġmobil iario
Ġb esti
ĠCoord in
Ġmus eos
Ġinfl uen
Ġan illo
ĠEst aba
Ġmodal idades
ĠF ebrero
Ġpa gado
ĠB ig
ur t
Ġescrib iendo
Ġrey es
ĠM olina
PA Ãĳ
Ġrecor dado
Ġto cado
Ġdu plic
Ġingenier o
Ġbar b
tr ad
que o
Ġcumpl iendo
Ã³g icas
trimon ial
Ġab usos
ĠacompaÃ± ados
ĠOb rador
ĠGeneral itat
ier ro
ĠsÃŃn drome
Ġv ientos
ĠPar te
Ġcri p
Ġrealizar Ã¡n
Ġdemues tran
ĠHar ry
ĠRec om
Ġsug iere
ug h
Ġcol ch
Ġdirec torio
es idad
it aron
ĠG in
Ġacog ida
Ġ199 1
Ġsmartph one
f an
ĠgÃ©n eros
ĠSo ftware
ĠN ivel
Ġaisl amiento
ĠSupre ma
f ono
tar o
Ġlic encias
Ġsent ÃŃ
ĠP AN
Ġale manes
e u
a po
ĠpÃ¡ jar
ĠrÃ¡p idos
Ġapor taciÃ³n
Ġs c
Ġsi gan
ac Ã¡n
Ġdes mon
que te
Ġas amblea
Ġsorpren diÃ³
Ġescas os
ĠvÃŃn culos
Ġconcre tas
Ġsuger encias
Ġprev ios
ĠO F
Ġe f
Ġjapon esa
ĠRich ard
? âĢĿ
Ġdetal lada
Ġmar g
j am
Ġan Ã©cdo
g il
ĠMaes tro
Ġinn eces
Ex isten
Ġref iriÃ³
Ġdemocr Ã¡tico
Ġcer e
t ter
Ġalim entar
Ġest il
Ġmen cionados
Ġproven ientes
Ġhorizon tal
Ġat entado
ĠG B
m ante
ĠJu Ã¡rez
u k
Ġmu ros
Jos Ã©
ĠJ en
Ġher ida
Res pecto
Ġanim e
endi endo
Ġven dedor
ĠcontinÃº an
Ġmul tina
Ġgratu itos
Ġvar iaciones
V EN
Ġfrances es
ĠR on
Ġb eca
Ġextran jera
Ġconstru ida
Ġlleg aba
Ġexitos a
C asa
U sted
uf ac
Ġmad uras
Ġcolec ciones
min as
Ġrom pe
Ġpi ano
ĠB oy
Ġob vio
Ġpos tre
Ġrec ta
Ġrefug iados
ti cia
Ġarreg lo
ĠÃ¡ra be
Ġimper me
ac ar
Ġfum ar
Ġtrabaj Ã³
Ġar rib
A p
aa aa
Ġhard ware
Ġinolvid able
RE C
Ġreno var
ist ÃŃa
Ġprotagon ismo
Ġinterpre ta
ĠC lo
Ġab aste
Ġsex to
Ġcre adores
Ġingles a
Ġasum e
er e
ĠCar re
ĠTorn eo
Ġ11 0
tien da
Ġaprob ada
ĠC OL
cho ol
ĠConven io
ta Ã±as
as is
m Ã¡ticos
ĠB ienes
Ġvan guardia
ĠC uenca
Ġac oso
ĠescÃ¡ndal o
Ġconf usiÃ³n
Ġma tric
el ia
Ġsocial istas
an co
ca v
re os
Ġhacer te
Ġmatr ÃŃcula
Ġposib il
Ġb ecas
g ri
ĠTex as
Ġmis iones
d amos
o th
TA M
ĠautomÃ³vil es
ĠSegu ir
ĠSon y
d Ã©
Ġcre cido
ĠAc ceso
pon go
ĠestratÃ©g ico
ĠPas cu
un ar
ch an
Ġid Ã³n
ĠP ic
N uestros
ĠB Ã¡s
Ġexp l
Ġolvid ado
gu esa
Ġofre cido
Ġdig no
Ġcont ribuye
Ġconcl uye
Ġtem bl
Ġotor gar
un tamientos
un tu
Ġagrade cimiento
ĠJe ho
Ã³lo ga
ab y
Ġproteg ida
ĠMon t
Ġconf idencial
ĠcatÃ³ lica
Ġaudiovis ual
Ġab arca
Ġmol esta
Ġconsidera mos
Ġacum ulaciÃ³n
Ġal mas
Ġrup tura
Ġm l
ĠF idel
Ġnutri ciÃ³n
Ġconte x
Ġmanz ana
Ġfran quicia
ĠAl ma
Ġfol lando
en ca
ĠPu ente
Ã¡st ica
Ġdispar o
Ġexp lÃŃ
Ġliter aria
Ġencan tÃ³
Ġexist ÃŃa
Ġinm ensa
ĠIn telig
Ġre mar
ĠJuz gado
ĠsÃŃmb olos
Ġviv ÃŃa
Ġcons enso
Ġbas tantes
Ġdej arÃ¡
ĠF iesta
m x
Ġaer ol
Ġsindica to
Ġven ce
Ġal as
Ġpers ecuciÃ³n
Ġpopular idad
ĠG R
ĠCon curso
ĠPo co
Ġa tras
Ġconven cido
pi Ã©
Ġverda deros
Ġreun iÃ³
ab ar
Ġcos tas
ĠMar ruecos
Ġ198 0
ĠsÃ³l ido
Ġb ac
Ġprom ueve
Ġpre ferencia
Ġpeda g
Ġllam aba
ĠMo da
Ġculp able
âĢĿ ;
Ġsecre taria
Ġcent ÃŃmetros
oo oo
ĠA QU
ĠLi mp
p ri
X X
ĠV ista
IF A
Ġbeb e
ĠU so
Ġhacer nos
Ġatrac tiva
9 2
Ġsal drÃ¡
ĠUr ban
ĠCa tedral
im amente
que tas
Ġh aremos
ra to
Ġh s
c y
Ġc ie
Ġavan za
ĠT IC
du re
ĠPal mas
Ġ( Â«
Ġl Ã¡ser
ĠJ uego
Ġpl ana
ĠT E
Ġp ad
Ġentr ado
Ġcump la
bi le
Ġconsol id
b ras
Ġdesplaz amiento
ĠdiseÃ± ados
ĠHon or
Ġinsegu ridad
ĠClÃŃn ica
Ġtu b
la je
Ġles bi
ĠJos e
Ġprostitu ciÃ³n
on s
ĠcontemporÃ¡n eo
m us
ĠE TA
Ġsir viÃ³
Ġref iero
Ġasigna tura
Ġex ci
ĠGre en
ier re
v ana
ĠAl var
ICA CIÃĵN
Ġfil tros
S Ã³lo
Ġtom aron
Ġdis p
Ġorden Ã³
Ġd uer
Ġlu jos
Ġto cÃ³
z aba
Ġrell eno
Ġmer ecen
Ġparcial mente
Ġindic ador
ĠB O
TU R
Ġmo tos
Ã³ so
ĠF A
Ġfal tar
Ġhi p
Ġpar es
lan da
Qu iero
ĠCon strucciÃ³n
ĠPro yectos
st em
Ġ6 7
ĠL leg
pec u
Ġdenomin aciÃ³n
ĠLea gue
Ġasist ente
Ġl Ãº
ĠCh e
ĠImp erio
Ġma te
Ġintim idad
Ġquer ÃŃan
ĠTel Ã©f
E sa
ĠW est
Ġele gancia
Ñ ĥ
200 6
Ġcas ual
al ia
Ġve cin
tr Ã¡
Ġev olucion
ĠG l
Ġresul te
Ġgl uc
ĠCal der
dez co
Ġch an
Ġrecib iendo
ĠMa terial
ĠT ribu
Ġenfer mo
N unca
i ando
ort h
Ġ Î
Ġcont ribuciÃ³n
Ġsac o
Ġn acer
Ð º
ĠVide os
Ġcump lan
Ġdar nos
Ġh ura
Ġalar ma
Ġemp i
Ġ9 1
Ãģ N
ĠR Ã©
ĠG aran
Ġp enas
Ġbus co
ca te
Ġf ur
Ġsac ado
Ġlec turas
us elas
ver de
Ġequip ado
og Ã©n
Ġde grad
Ġayud ado
Ġcer rados
ĠImp uesto
ĠlÃŃqu idos
ĠO rig
Ġma quina
tr ales
Ġajust ar
ĠV Ã¡zquez
Ġro to
in k
Ġmin or
Ġenfr entan
ord s
Ġt ÃŃ
ti ga
ĠU V
Ġdistin ciÃ³n
Ġdel icioso
Ġperm isos
Ġbal oncesto
ci ble
ĠCon serv
em oria
Ġfutbol ista
Ġox ÃŃgeno
z ano
Ġac Ãº
Ġcrist iano
us ion
Ġsu puesta
ï¿½ï¿½ ï¿½ï¿½
9 6
ĠCom par
Ġimp uso
Ġro d
Ġsin tÃ©
ĠV ÃŃ
ĠPro ce
Ġextra er
Ġases ino
Ġjurisdic ciÃ³n
Ġcru do
u ter
ĠJo an
ĠDe fin
Ġde ca
or i
ĠCar rera
Ġcolombi anos
we en
is as
Ġsecu encia
Ġest re
ĠI vÃ¡n
Ġsencil las
Ġcal cular
Ġmul ta
Ġtu torial
ven idos
Ġinform Ã¡ticos
B a
Ġrecomend ado
den tales
c aciÃ³n
int ana
Ġinst ancias
Ġaust ral
ĠMul ti
udi a
Ġat ento
Ġdeb ilidad
Ġconsider ados
ĠO ut
Ġtele comunicaciones
Ġsi entes
Ġch arlas
Ġhab rÃŃan
Ġap res
ud al
Ġinc Ã³mo
ĠPro cur
Ġafil iados
ĠM P
Ġpre ju
t ambiÃ©n
ĠCom entarios
C ES
Ġhor ri
Ġch inos
ĠdiseÃ± adores
ĠArquitec tura
Ġle al
m il
Ã¡n icas
Ġprofundi zar
Ġadminist raciones
Ġpal o
ens os
ĠA gro
ĠJav a
or ias
ĠSec tor
Ġsol ares
E Z
ĠMedi terrÃ¡neo
Ġest abil
ĠM ED
em in
Ġes paÃ±a
ĠAgu as
Ġcontro vers
Ġgust aria
Ġorient al
Ġcereb ral
Ġapor tes
itor io
idal go
ĠsÃ³l ida
Ġrepu taciÃ³n
âĢĿ )
Ġcorre dor
dic amente
Ġsens ibles
Ġprev istos
ĠMe tal
l amente
ĠAr ro
ĠInform Ã¡tica
Ġentren amientos
Ġretir ada
P al
Ġtermin an
uch as
ĠGran des
Ġp ur
Ġagrup aciÃ³n
Ġide ologÃŃa
Ġtermin e
Ġpin tor
ic anos
Ġan to
ĠE va
TU RA
M u
k en
ĠV at
Ġcel ulares
Ġpreten den
Ġjug ada
Ġar ren
Ġparti das
es c
Ġque den
ĠWhats App
Ġfac turaciÃ³n
Ġ6 1
Ġgri tos
utri ciÃ³n
cri ta
Ġrespec tivas
Ġfal sas
ĠDec lar
ĠRec on
ĠGu z
ĠPrem ios
âĢĿ :
Ġcomb inado
os Ã³
Ġdesp leg
form e
ic ada
Ġmen ciona
g aba
ac ÃŃa
Ġlu cir
Ġre af
ĠUnivers itaria
y un
ĠðŁ Ļ
Ġan da
Ġcomp uestos
Ġfac ultades
Ġenf ri
ĠNav arro
Ġsu pre
Ġinter n
ch er
Ġdest inada
Ġasoci adas
Ġocul ta
Ġba terÃŃas
Ġinfl uy
Ġesf or
ÃŃn eas
Ġrevolucion ario
C ap
Ġhermos os
Ġexcl usiÃ³n
Ġplante l
Ġsub ray
Ġg lor
gan ta
ĠCo lec
Ġadministra tivas
Ġfich ero
ĠMedel lÃŃn
ĠA G
vie do
ĠfotÃ³ grafo
Ġocup ado
Ġrecl amo
Ġen com
Ġsegu ida
Ġcap tar
ĠE valuaciÃ³n
ĠSegu ros
Ġme mb
Ġdu des
Ġalim entaria
Ġrepro ducir
ĠS pa
Ġbomb as
n ico
Ġfavor itas
Ġvincul ados
Ġcob ra
Ġpres tamos
Ġpata tas
u tor
ĠacompaÃ± amiento
Ġres piraciÃ³n
ĠGalax y
er ica
Ġpol i
ĠMan ual
Ġenfrent amiento
ĠiP ad
Ġo la
ĠEst adio
Ġincendi os
u ters
Ġreflex iones
tn am
ĠC AL
Ġpr ÃŃncipe
Ġfil a
H O
Ġsalv aciÃ³n
Ġadministra tivos
ĠMos cÃº
Ġbar ras
Ġmedal la
Ġcob ro
Ġgen Ã©tica
M AS
Ġdi fici
A h
Ġsu yos
â Ħ
ĠpÃºbl icamente
Ġen cu
ir re
Es pero
Ġjard in
Ġrecon stru
Ġdistingu ir
Ġdefec tos
TIV O
Ġc Ã¡p
Ġdej en
Ġdelan tera
ĠC ri
Ġpin tores
ĠJur ÃŃ
Ġta za
Ġdis per
Buen os
ĠA ire
T anto
Ġcambi an
Ġsur gen
ĠEm ilio
Ġid Ã©n
Ġpan eles
ĠÃºlti mamente
Ã³ f
ĠJ ane
Ġmovil izaciÃ³n
Ġdeci dimos
Ġlog ÃŃstica
Ġvenezol ana
Ġbas adas
Ġdescub riÃ³
Ġad mitir
Ġan Ã³n
Ġacab ados
Ġapor taciones
Ġsin tiÃ³
Ġpag inas
Ġbar rera
Ġter n
Ġhid rÃ¡ul
Ġses enta
Ġro j
Ġk ilo
Ġsacerdo tes
Ġinici ales
Ġp m
ĠPh il
ĠSue cia
Ġrev esti
Ġcar n
Ġcomp or
Ġpis cinas
Ġind icaciones
Ġtor os
Ġsindic al
us ieron
Ġincor rec
Ġa vi
di dades
ches ter
ris as
mo h
ĠAudi encia
Ġpro xim
Ġinf ierno
ĠH acer
Ġhor ror
ĠprÃ¡c ticos
Ġofrecer Ã¡
Ġdismin uye
Ġco aliciÃ³n
Ã¡c tico
ĠEst rel
s ol
Ġle o
Ġne gÃ³
Ġresal tar
ĠS itu
Ġdeci den
ĠCol Ã³n
Ġestrech a
Ġexplic an
Ġrenunci ar
Ġfuncion ando
quier da
Ġdirig idas
Ġm Ãĥ
Ġc emento
Ġgo ogle
Ġurb anos
ĠLin ux
E ra
Ġpr enda
Ġbus que
ĠC F
Ġad s
Ġl ente
Ġceleb rada
Ġestable cida
Ġmeta bol
Ġmejor ado
Ġdedic ar
ĠL lam
Ġr ar
ĠRec or
Ġden tal
ĠB Ã©lgica
ĠL ÃŃ
Ġregres a
Ġdist ancias
f lix
ID O
Ġfeder ales
Ġs ensa
Ġmante quilla
Ġpol it
Ġinclus ive
Ã©r g
Re g
ĠRub Ã©n
ĠL is
tiz ada
Ġcam isa
Ġdemos trÃ³
Ġcic los
Ġmasco ta
Ġa jo
Ġsatisf echo
ie ta
ĠH ora
Ġbril lantes
Ġm entales
ĠIntegr al
gu iendo
Ġases orÃŃa
Ġfamos as
Ġex ha
ĠÃ¡n gulo
ĠViv ienda
Ġprop uso
ĠPlan ta
Ġubic ados
TE C
ul ario
Ġinv as
Ġpos tal
Ġcome ter
Ġactu alizado
ĠCam bio
Ġson re
Ġlim itar
ax aca
ĠA h
Ġinv itar
9 7
Ġperci bir
ĠP RES
Ġ9 8
Ġvelo cidades
Ġcumpl iÃ³
Ġcombina ciones
Ã© mon
A pro
Ġdesgas te
ĠR eb
Ġcatal ana
Ġimp one
Ġcer ra
Ġsuav es
ĠAmb iental
Ġintelec tuales
Ġin Ãº
ĠIN S
ĠD ay
Ġinnov ador
Ġposi tivas
ad y
Ġperman encia
Ġele var
Ġauto buses
Ġproces ador
ĠG reg
Ġej es
Ġexac ta
vi ese
ĠArch ivo
ĠRes ul
hu ana
Ġtrans mite
Ġpro hibiciÃ³n
Ġderi va
ĠMic ro
ĠC Ã¡r
l adas
Ġb inarias
l ab
ĠS el
Ġdenunci ar
Ġtien de
Ġdi Ã³
Ġaplic ado
p Ã³n
ĠAc tividades
Ġdefien de
Ġme tales
ch u
Ġvege tal
Ġapun tÃ³
ĠNi Ã±o
Ġsolici tÃ³
Ġm ort
ol encia
ĠEst eban
en g
Ġdes cal
D on
pa cio
ĠCon fe
z ob
ĠM ill
Ġfin o
ĠI sa
Ġri ego
Ġpas adas
ĠFin anzas
Ġob ses
u ci
ĠG PS
Ġ13 0
Ġmedi oc
Ġapell ido
ĠM I
ĠE co
Ġtri turaciÃ³n
tic s
Ġque ja
Ġjust ificar
Ġleg itim
ÃŃ bl
ĠM O
Ġtri go
Ġabandon ado
iz ante
Ġgar aje
Ġmu rieron
Ġob ispo
w ell
Ġdivi den
Ġentren ar
ĠZ o
Ġcam in
Ġregist ra
Ġpresent ados
Ġbor rar
ĠcontemporÃ¡n ea
Ġenga Ã±
ï »¿
Ġpref iere
ĠT ol
icios os
Ġprepar ada
Ġconsigu en
Ġque jas
t he
ĠJerusal Ã©n
, âĢ¦
ĠCo operaciÃ³n
ĠAl ba
Ġenv ÃŃos
Ġp im
Ġenten dimiento
Ġterror ista
Ġcuer da
cer ÃŃa
ĠT ech
bi as
Ġ198 9
fic aces
ĠJ am
b ien
Ġespeci ficaciones
Ġf irmÃ³
ps is
Ġmac ro
Ġl Ã¡p
ĠAtlÃ¡n tico
Ġrecor tes
ĠT Ãº
Ġle gen
C P
Ġconqu ista
Ġagr ÃŃcolas
Ã³ b
Ġlla ves
Ġ14 0
ĠLib ros
Ġauto p
Ġbur bu
Ġapren diendo
Ġse d
Ġextin ciÃ³n
gust o
Ġleg almente
Ġinforma cion
Ġadolesc encia
Ġdesigual dad
Ġre embol
Ġmar rÃ³n
Ġbar reras
Ġest ir
Ġinteg rante
Ġmol ienda
ra je
Ġacep tado
Ġgener Ã³
Ġdenunci Ã³
no w
ma g
ĠF omento
Ġcub iertas
Ġparale lo
Ġimpresion antes
Ġrin cones
cas o
ĠI R
c adores
Ġfinanci ar
Ġdefens or
ie ve
ĠMor e
ĠQu intana
Ġtritur adoras
ĠV all
ue bl
ĠĠĠĠ ĠĠĠĠ
Ġrecon oz
B N
Ġtren es
ĠIn c
Ġgal letas
Ġv ial
aliz amos
b ula
Ġdes cen
Ġhiper tensiÃ³n
ĠT ig
Ġinform aron
Âº C
Ã³x ido
Ġser p
ĠCom is
cil ler
con trar
% ).
h el
Ġtraslad ado
ometra je
Ġcompr ador
ci stas
Ġint entan
Ġsal tar
Ġperio d
rig ht
Ġmun dos
ĠsÃŃn tesis
ĠO S
Ġ3 50
ĠGu an
Ġpes ado
c adas
Ġcomerci antes
Ġfalle cimiento
Ġexig encia
ce d
ĠOl iv
Ġdesper di
Ġgan adora
ces is
ĠRe forma
ĠCon ocer
Ġpen ales
st icas
ĠH P
Ġayud arÃ¡n
Ġencar gados
Ġes par
Ġpersonal idades
Ġob esidad
Ġesp an
Ġfa una
ĠseÃ±al an
ĠSegun do
Ġvisu alizar
ĠV ig
Ġimag ino
Ġconst rucciones
Ġla zos
Ġliter ario
ut s
Ġje je
Ġrefer ido
Ġve la
Ġdes vent
Ġprac tica
iden cia
ĠI B
Ġcontinu Ã³
Ġla var
Ġper d
Ġtra tÃ³
Ġperu ano
rim ientos
dil la
e to
Ġdeb ÃŃan
Ġdelincu entes
ĠBel las
Ġun en
s car
Ġa ulas
Ġnego ciar
Ġrendi r
Ġagru pa
Ġsinc ron
ĠI MP
Ġba il
Ġtra tarse
ĠA la
ĠEu gen
Ġgubernam entales
ĠXX X
Ġfac turas
Ġfuerte mente
Ġprin cesa
Ġreco lec
Ġlist os
Ġreclam ar
ĠE mb
Ġre e
ĠS mith
ĠP y
Ġc ica
Ġvari aciÃ³n
b ara
Ġconf ron
Ġoc Ã©ano
Ġvis itado
id s
Ġfavor ece
Ġdivis as
n idad
Ġfa cial
ĠBus iness
Ġin esta
Ġre ten
ĠL anto
ĠMon ter
Ġbomb ar
Ġcolum nas
Ġreal icen
n ica
Ġrode an
Ġan ces
Ġreg ener
P ol
, "
ĠVI H
Ġaconte cimiento
Ġre ÃŃr
Ġelig e
Ġvir tuales
M in
ĠNo che
Ġgri to
Ġc ima
t ha
Ġne ol
Ã³cra ta
ĠUS D
Ġdu ras
Ġhacer la
ĠFil osofÃŃa
ĠSe p
h os
Ġanti ci
ĠJa Ã©n
Ġinv ad
id ora
ĠCas i
Ġdis puesta
u ga
Ġelec to
Ġres id
ĠÃį n
ĠautÃ³n omos
Ġutiliz amos
t Ã©n
rÃ¡ fico
1 50
Ġactu alizada
Ġsus cep
Ġportu guÃ©s
ĠDes cripciÃ³n
al ta
Ġtien den
Ġir Ã¡n
ĠI m
uc e
ĠS k
Ġcan ad
ĠCh il
Ġedi tar
200 2
Ġv ice
Ġs tre
Ġfil Ã³so
ĠLic encia
Ġasoci ada
Ġale gra
f eo
Ġdesarroll ados
i bre
dor o
Ġenve jecimiento
ĠT R
ĠPros titutas
ro ga
cion alizaciÃ³n
ĠAb ra
ĠEm baj
Ġserv irÃ¡
Ġpav im
Ġcre ciÃ³
A le
Ġsuces os
a go
Ġfil osÃ³
tu osa
Ġanci anos
Ġyo ga
il y
ĠEspa cio
Ġcomprome tido
Ġlog ran
vers a
eric or
Est Ã¡s
Ġpa Ã±
MÃ© xico
Ġresta ble
Ġfundam ento
C R
ĠO este
Ġpa utas
ta Ã±o
Ġperio dos
cion e
Ġqued amos
Ġauto estima
Ġperfec tas
ĠRecuer da
Ġpeti ciones
ĠSa int
ĠP s
EN D
ĠA van
Ġcompr adores
Ġproto col
Ġluch as
Ġmis a
ĠCor pora
Ġcomplic ada
ĠG U
k m
Ġprev istas
E G
Ġempez amos
Ġmagn ÃŃfico
Ġesc orts
Ġempren dimiento
un t
y l
I s
ĠV igo
Ġch a
Ġcomport amientos
Ġbande ja
Ġmuer e
Ġdig na
Ġveh ic
Ġ7 8
Ã³r ica
oro este
Ġ0 4
ĠO fer
Ġdespe dida
Ġhues o
Ġe terna
ĠB et
Ġru bia
Ġto pe
Ġt inta
in idad
Ġdesarroll adores
Ġtecn olÃ³gicas
tas e
Ã© ase
Ġcu ader
ĠH am
âĢĶ ,
à ¸
Ġre le
ĠcÃ© le
Ġperson alizar
ĠIde al
ril l
Ġsan idad
Ġ0 7
Ġfortal ecimiento
ĠD C
Ġrecom p
ĠT rin
Ġasegu rarse
ĠPos teriormente
Ġcur r
Ġjuz gar
Ġof f
Ġapropi ado
Ġe ro
ĠAcces orios
Ġdi ab
l erÃŃa
Ġcampes inos
Ġlle guen
Ġl enta
Ġsub venciones
Ġma ta
Ġch ef
Ġf iebre
Ġprote ÃŃna
Ġdepen dencias
uc k
Ġconec ta
Ġprom esas
Ġtex til
Ġdedic ados
Ã³ bal
Ġfrecu entemente
Ser Ã¡
U til
ĠJ unto
Ġf Ã³s
Ġtele fonÃŃa
Ġpas ear
Ġsorpren dido
ĠO B
ĠZ amora
Ġbotel las
Ġcol ap
Ġcan san
Ġbon itos
Ġt witter
Ġmulti media
Ġsus cripciÃ³n
ĠSi mplemente
Ġro cas
Ġcorrec ciÃ³n
ĠLi teratura
it amente
TI L
ĠBr uselas
Ġtestimon ios
Ġdecir te
Ġindic ando
ĠTar je
C lar
Ġpe gar
Ġcivil izaciÃ³n
uc es
val o
Ġplante ar
g Ã³n
Ġpor tero
Ġsir va
Ġluch ando
ĠFu entes
Ġnorm alidad
Ġtra igo
Ġingenier os
ĠH idalgo
Ġproduc ciones
ti er
ĠCalder Ã³n
bi to
Ġres ide
Ġmostr aron
don de
ĠPe que
Ġjuz gado
Ġ8 4
ĠMo to
Ġconj untamente
Ġliqu idaciÃ³n
ĠDeb e
Ġdeber Ã¡s
Ġdesa grad
vers idad
ĠCon cepciÃ³n
Ġconcur sos
ĠH ome
Ġprecis Ã³
re am
ĠMargar ita
Ġbicicle tas
Ġmarc ada
Ġcol o
rid ge
Ġcompeti tivo
ĠCE O
om er
Ġdor ado
ĠEstra teg
Ġc iber
Ġecu ator
Ġru idos
ĠA di
cel ente
Ġas fal
p ados
ĠR EC
ĠInterna cionales
Ġin o
Ġ0 2
âĢľ ,
Ġm ina
ĠT ienen
ĠOr tiz
Ġalter aciones
iel os
Ġconces ion
Ġex hibiciÃ³n
ĠPre gun
Ġtar dar
Ġinst ruc
ĠGEN ER
Ġase qu
Ġm s
Ġexha ust
Ġrev Ã©s
p rim
g g
ĠvÃ¡l v
ĠS t
ĠS osten
ĠTo k
" )
ĠA B
Ġases inado
ÃŃ metro
Ġmencion Ã³
ĠTri p
Ġcomp ac
Ġcria turas
ĠF IFA
ĠUN A
ĠCon venciÃ³n
ivers idad
ĠErnes to
Ġus ada
ĠPol ÃŃticas
Ġr Ãº
EL A
ex iÃ³n
Ġf lash
Ġvir tudes
Ġro t
Ġab er
Ġaplic ables
ar ch
om Ã©
ĠAmeric an
ĠMar c
Ġpier den
9 3
fer as
ĠIr landa
Ġampl ios
Ġpref ieren
Ġfabric ado
ĠMÃ¡r quez
ĠNi Ã±os
Ġagreg ado
Ġv ist
Ġre ga
Ġdesp ro
Ġri d
ĠfantÃ¡ stica
ĠJard ÃŃn
abell Ã³n
9 4
ĠB ran
Ar t
ad ra
ĠZapa tillas
Ġb uro
or al
ĠXV II
Ġincorpor ado
per tura
ĠCh icas
Ġbols illos
Ġmari huana
Ġform Ã³
ĠTen ÃŃa
Ġmo tiva
... âĢĿ
Ġcompos itor
Ġdesc endi
Ġnega tivas
ĠEst aciÃ³n
ĠM ez
Ġa je
Ġreper torio
19 99
ĠCu atro
Ġlevan tÃ³
aj os
Ġotor gado
Ġacus aciones
Ġp Ã³l
Ġol ÃŃmp
Ġbode ga
Ġdedic an
ĠTh omas
Ġileg ales
Ġd aban
Ġbel las
qui tos
Ġinver tido
Ġneum Ã¡ticos
dad ura
Ġpens Ã³
Ġrobo ts
Ġadelga zar
Ġinde fin
Ġdi la
Ġrenov ables
Ġc itada
Ġre ta
Ġsex ualidad
Ġliter almente
Ã¡c ticas
Ġcur vas
Ġfal los
L le
Ġmoch ila
Ġconcre tos
ĠPal abra
ĠCl iente
F C
FOR MA
ĠHol anda
Ġdescon oce
Ġvie jas
Ġtoler ancia
it Ã¡n
Ã Ĥ
Ġen seguida
ĠB ene
es tes
ĠautÃ³n oma
Ġval idez
Ġinvoluc rados
ĠtÃŃp icos
Ġexpres idente
ro vi
ĠEcon Ã³mico
lo ween
Ġcomun a
n ie
tec n
ĠLa guna
Ġpubl ico
' '
Ġd Ã¡ndole
Ġc aba
Ġs tar
Ġoblig ada
Ġju go
Ġcapital ista
ĠJ an
Ġe gip
ĠMonte video
Ġacer camiento
ĠQu ÃŃm
Ġad mite
Ġher ido
Ġrema te
Ġmanifes tado
ĠD NI
Ġparro quia
Ġmolesti as
ĠaÃ© rea
if a
Ġfren ar
ĠX box
Ġconsigu iendo
Ġhos pe
Ġalmacen ar
Ġdesf ile
Ġinst rucciÃ³n
Ġat letas
Ġinter venir
ĠEs cal
Ã± era
Ġar an
Ġpresent ando
ĠPromo ciÃ³n
aca o
Ġra cional
ĠPer u
Ġab an
Ġemocion ante
Ġdes pi
ĠV II
Ġcrim inales
ĠVat icano
ĠCiudad anos
Ġsome tido
ĠChica go
ad urÃŃa
ĠL abora
Ġprofun das
Ġchil ena
Ġel i
ĠW in
or ra
Ġpre cedentes
ĠMon tes
Ġer rad
ĠC rim
Ġafirm aciÃ³n
den al
Ġcar di
De bido
Ġaccion istas
Per son
ĠM ec
Ġal a
Ġconven ios
Ġsimb ol
Ġro ta
Ġaso cia
CI OS
Ġsob ra
Ġdar me
Ġ( +
ĠB la
Ġvir gen
ig ra
Ġeleg idos
Qu iz
ci ano
Ġocup an
Ġri gor
Ãĳ O
Ġhab le
pti on
Ã¡ ce
d ÃŃas
Ġcorrespon da
Ġtom ada
Ġver Ã¡n
ĠGuz mÃ¡n
Ġen te
Ġllam as
Ġmus ica
Ġul tima
ĠO viedo
ista des
Ġespecial idades
Dis fru
ĠJeho vÃ¡
Ġdeber es
Ġconside re
gu er
ĠIb ero
Ġco tizaciÃ³n
Ġhosp it
Ġder rib
Ġindemn izaciÃ³n
ĠPatri cia
Ġayud Ã³
AN O
respon s
Ġrodil la
Ġelectrodom Ã©sticos
te lo
TE L
R ed
Ġser lo
Ġamp aro
on ado
Ġcab ezas
cl ip
ĠAl len
U CA
Ġcomo didades
Ġ0 5
Ġinteres adas
do le
ĠcÃ¡l culos
Ġcamp amento
Ġrecha zar
Ġpe dimos
ĠB ob
bl aciÃ³n
ENT ES
tic es
m icos
Ġ7 6
f oro
Ġdes vel
Ġesc asa
Ġaplic ando
Ġ9 6
I E
Ġb ala
Ġll enas
Ġsub iendo
Ġhormig Ã³n
tr y
Ġutil ice
Ġsex ta
Ġescal era
Ġcob ran
ĠMir anda
Ġembaj ador
Ġto ur
Ġfab rica
Ġvulner ables
cion an
ĠÃŃn dices
Ġpref iero
Ġplante ado
Ġcer Ã¡mica
ĠT ÃŃtulo
Ġmater na
ĠPu ig
ĠhÃŃ b
Ġbor ra
Ġtr Ã¡g
fer ente
bo a
Ġb ach
Ġpresiden tes
ĠNego cios
Ġoch enta
am ina
Ġanti oxid
Ġin capacidad
ĠU U
Ġempren dedor
Ġdepen derÃ¡
F O
ĠArgent ino
ol viÃ³
cas a
la go
Ġte Ã³rico
ĠN u
ĠF ire
Ġcent rado
Ġdeba tes
Ġobserv aciones
ĠTim es
ĠjurÃŃ dicas
Ġe terno
Ġpen ÃŃnsula
ĠhÃŃ gado
Ġasign aciÃ³n
ĠW all
ĠR in
aster io
Ġconm emor
2 000
Ġe ficaces
cion istas
Ġmedi eval
ĠProfes or
Ġconven cionales
Ġestudi ando
Ġdescon ec
Ġcom andante
Ġconsol idaciÃ³n
Ġexpe diciÃ³n
ĠU p
ing er
ĠPlata forma
Ġ7 7
Ġcos echa
ĠA so
Ġmales tar
olog ia
ĠV era
Ġclas ificados
Ã ¬
Ġcomple tas
ĠUsu arios
B LE
ĠProduc to
Ġprim or
ĠCor poraciÃ³n
pi raciones
Ġcar dÃŃa
Ġje jeje
g antes
Ġca Ã±a
Ġdiver tir
ĠAlcal de
ĠCh ia
P M
ĠDemoc r
Ġevi den
Ġdomin ante
Ġcre encia
ĠMich el
ĠLe v
a gro
Ġdifici l
ĠNa cionales
tim amente
ĠTer min
Ġsec os
esti ona
gen os
ES TI
Ġprotec tor
ĠPri va
trÃ¡ fico
j i
Ġel og
di tos
9 1
ĠN ob
Ġpres unto
Ġestudi a
Ġp ilares
Ġartes an
Ġher ed
Ġfestiv ales
ol lo
m Ã³
ĠK m
Ġdec ÃŃan
Ġnie ga
di jo
Ġ7 3
A mb
Ġsocial ismo
Ġinde penden
Ġja zz
Ġcari Ã±os
Ġdest inadas
Ġvas os
Ġemi tido
Ġ16 0
Ġtra uma
Ġ( "
Ġocur ra
ĠInvesti gaciones
ĠGobern ador
ĠC S
ĠUn iverso
fi que
Ã £
Ġexp uestos
Ġtem Ã¡ticas
Ġemple a
ĠCrist Ã³bal
Ġgar ganta
Ġsu ceso
Ġpiel es
Ġafir man
Ġpreserv ar
Ġmor e
ac ate
di bu
ĠBuen a
Ġagu jero
P AR
Ġap las
ian zas
Ġbusc aba
Ġconj untos
ĠMar i
Ġproduci endo
Ġcen ar
Ġpermi ti
Ġlec ciÃ³n
ci no
S h
ies tas
Ġvis uales
Ġrespec ta
Ġestupen da
j adas
Ġfuncion e
Ġmonum ento
Ġras tre
ĠPresu puesto
av ier
pre cio
Ġcar teles
ĠR ad
Ġaument Ã³
gra de
Ġescu do
Ġmin era
Ġcar tÃ³n
Ġcoloc ado
Ġdi am
ĠIma gen
Ġautomo vil
Ġj aja
Ġcercan ÃŃa
ĠJorn adas
ti zÃ³
Ġmanten ga
Ġfal sos
Ġadquier e
res te
tr icos
i Ã©
ier ten
Ġtes oro
ta t
Ġfon tan
Ġdi gan
Ġmezcl ar
ĠDeleg aciÃ³n
Ġson ora
ĠR ece
as tas
k ar
Ġquer ida
ĠC AS
ĠP aco
ĠPas eo
Ġpuntu aciÃ³n
ĠLe o
ĠX D
ĠAn g
Ġprovoc ando
Ġartic ulo
Ġa ero
Ġtar ta
ĠL ucÃŃa
OR ES
ĠhistÃ³r icas
Ġtriun f
Ġimpor taciÃ³n
Ġimpec able
Ġrecon strucciÃ³n
Ġmil ag
ĠEstudi antes
200 3
iz arse
Ġmil las
Ġpel u
Ġenten demos
Ġaprovech amiento
Ġcont entos
om i
ic ados
Ġespal das
ĠAudi o
Ġmad ura
Ġpropa ganda
Ġcient ÃŃficas
gu ero
Ġproduc tiva
Ġsobre pas
Ġsu bido
ĠR AM
Ġest ro
im ental
Ġ zar
Ġus e
Ġb ono
Ã ¢
Ã© stico
Ġe gres
ic Ã³p
Ġ12 5
Ġpres um
ĠIn ici
Ġangust ia
Ġimpac tos
ĠaÃ© reo
Ġresiden cial
e amiento
Ġestup endo
Ġa ve
ĠI ber
Ġinforma tivo
Ġagricul tores
Ġmagn ÃŃfica
Ġta xi
con tin
Ġorganiz adores
ĠNe ws
ĠS pi
rag ona
Ġpose er
Ġrela tivos
Ġpara ÃŃso
Ġcontinu arÃ¡
Ġcuer das
ĠHist Ã³rico
Ġobliga toria
Ġprevent iva
Ġquer Ã©is
Ġhal la
Ġcar nes
ĠJal isco
ĠSE G
Ġsens ibil
Ġcuad rado
t witter
ĠhÃ©ro es
Ġaplic an
Ġejer ce
ĠTele visiÃ³n
7 00
Ġbus cado
ĠDes cargar
Ġapete ce
Ã³cra tas
Ġconsider arse
Ġmir adas
Ġcono ces
Ġemple ar
Ġpas aje
Ġprop Ã³sitos
Ġvengan za
Ġl entes
Ġb ul
st icos
Ġinmig raciÃ³n
ĠvÃ¡l ido
re d
Ġvay as
Ġcontun dente
Ġfar macia
Ġres tantes
gor it
Ġins ign
u ado
Ġa tar
Ġg estiones
Ġf Ã©r
ĠTama Ã±o
Ġanal istas
ĠJ ord
ĠH ues
Ġcontro la
ĠQuiz Ã¡
ĠP ach
les s
Ġtra jes
Ġfu Ã©
Ġe man
ĠCh at
pa tÃŃa
Ġalcal desa
Ġexperim ento
H z
Ġm ero
Ġpre lim
jer ci
Ġmonum entos
is on
Ġhuel las
tel erÃŃa
Ġcre ados
Ġ7 1
Ġdej arlo
tan g
Ġcar gado
T IS
dr os
Ġinspir ado
Ġcompens aciÃ³n
Es per
Ġprove er
Ġneol iber
Ġatrac ciones
Ġcontam in
Ġco pas
Ġme l
ĠÃģ vila
ĠS ci
ĠV ÃŃa
IN O
Ġcon g
ĠNa turales
Ġval enci
Ġtra jo
Ġpoder osos
ĠC le
ĠC amil
ĠBe ach
ã Ģ
Ã© tera
ĠComun idades
Ġ9 3
Ġmie dos
ĠIn icio
Ġpres iones
Ġescrib o
ĠV idal
Ġman uales
Ġfich eros
Ġvege taciÃ³n
D ÃŃa
ĠBro wn
ĠindÃŃgen a
Ġpoten ci
gu r
Ġrent able
Ġlevan ta
Ġinsec tos
Ġorg Ã¡nica
Ġal iento
tic e
Ġos ci
Ġ; )
Ġrep as
Ġ8 8
Ġofens iva
âĦ ¢
ores te
Ġgran o
Ġdes em
Ġ0 6
Ġloc alizar
er ta
Ġartes anal
Ġcardio vas
bit ro
b on
Ġexter nas
Ġconsecu tivo
Ġutiliz Ã³
Ġhistor ial
ĠGro up
ĠmÃ¡x imos
Ġatravi esa
Ġk it
Ġale gr
D a
Ġrem ol
ob ia
Ġ0 3
? )
V IS
Ġdeber ÃŃamos
ĠV AL
in eros
Ġma triz
ad ro
ĠO axaca
ĠbaÃ± era
ĠJ ar
ĠD Ã©
ĠDic ho
ĠAp p
ĠEn seÃ±
Ġinflam aciÃ³n
ĠcÃ³mo dos
ampl ona
iu da
Ġu p
Ġfi le
Ġtor o
ur so
C AR
Ġrep ite
ĠB ara
Ġcop iar
ĠZ el
di versidad
P ese
Ġayud ando
Ġdependi ente
Ġmentir as
inos a
Ġcas ino
ĠAnd re
ĠDispon ible
ĠMa tem
Ġ8 2
Ġreci bo
iz amos
Ġofrecer le
Ġterremo to
ĠT uc
Ġ7 4
O tros
ĠSol ici
Ġbr oma
ĠRe ad
Ġeleg ida
ester ol
n ea
Ġbara tas
ĠS ir
Ġsal arial
Ġtom amos
Ġalter aciÃ³n
Ġliber ar
ĠR um
Ġn Ã³m
r encia
Ġcolon ial
Tra baj
rim ido
Ġcu rar
ĠAl icia
Ġarre ba
ĠA re
ĠL ab
Ġestim ular
Ġob reros
ĠCerv antes
ĠRe des
Ġa ir
Ġvent il
Ġcal cula
Ġregal ar
av a
Ġex pone
ri tas
ĠGran d
Ġam as
n is
Ġesf era
h en
ĠC y
R a
Ġpelic ulas
Ġhu ir
ĠPro gram
ril las
Ġay uden
Ġponer le
ĠMus ic
Ġsu cur
Ġmotoci cle
ï ¼
Ġal moh
Ġparticip ante
Ġocur ren
n an
Ġpreocup es
Ġextran jeras
Ġilust raciones
Ġtempor ales
b all
Ġpermitir Ã¡n
Ġpon ÃŃa
Ġnomb ramiento
i tivos
ĠLu gar
ĠÃ³p tica
Ġintro duce
ĠNet flix
ĠðŁĻ Ĥ
ĠA qu
it enci
Ġignor ancia
E FE
Ġasc ensor
ĠB ase
Ġperu ana
Ġp ala
al os
Ġespu ma
Ġorden ado
Ġch aqueta
Ġor illa
Ġenfr ente
Ġest ip
ĠHo gar
Ġrecuer dan
dir se
Ġen la
IV ERS
Ġamb ul
ĠN Ãº
man ente
Ġproteg ido
ĠC ala
Ġalmac Ã©n
Ġcansan cio
V is
ĠPro f
ĠIN D
Ġespec tro
ĠMa teo
ĠCor rea
ericor dia
ĠBar ran
Ġavan zando
ĠPue den
ir ma
ĠFo x
Ġab ren
Ġnarra tiva
Ġacce de
ĠsatÃ©l ite
Ġla tina
ĠCrist iano
ĠJ ordi
Ġprivi legio
Ġdesarrollar Ã¡
Ġcabec era
ones a
Ġsu d
ĠF M
ĠE M
bo ard
Ġpu ri
Ġceleb raciones
Ġvol Ãºmenes
ome trÃŃa
Ġimp unidad
Ġinform Ã¡tico
Ġat entos
ĠF l
cis amente
ĠHo use
Ġun irse
t x
ee k
ĠDes cubre
t ta
Ġdi es
i w
ĠMar ca
g am
Ġan tel
gre gaciÃ³n
Ġdon aciÃ³n
Ġanterior idad
ĠC Ã¡n
Ġne vera
Ġn ubl
Ġbenefici arios
T RI
Ġver ificaciÃ³n
Ġman dÃŃ
ĠhÃ¡bil es
ian ismo
ĠperÃŃo dos
Ġestruc tural
b ablemente
teri ales
a cion
ĠA vis
ĠP V
Ġfa tal
h idra
Ġinten dente
Ġprior idades
Ġsubra yÃ³
âĢĵ ,
Ġproduci da
Ġ198 5
ĠEs pec
Ġglob ales
ĠEl Ã©ctr
Ġcos ech
Ġsecund ario
Ġmascul ina
Ġescas ez
terrÃ¡n ea
Ġvol vieron
Pres s
Ġtom as
Ġexpres ado
Ġer rÃ³n
Ġal erg
p ur
ĠInde pendencia
Ġdiv ina
Ġno tific
Ġperpe tu
Ġcircu itos
Ġart ÃŃsticas
ĠsÃ³l idos
ĠN orma
Ã¡ frica
Ġcaracter es
Ġfron ter
Ġdom ingos
Ã©l ix
Ġcer rad
ĠOp ciones
v s
Ġfin alizÃ³
Ġad orn
Ġrad iaciÃ³n
Ġpertin entes
ĠR em
un e
Ġfol lar
z aron
Ġar ra
ort ante
gu o
Ġetc Ã©tera
Ġtraduc e
P an
er na
Ġvolun taria
orm al
Ġgan ancia
ĠÃ³pti mo
g em
Ġ: :
ĠcÃ¡l ido
Ġan trop
Ġcompar tida
ĠC abil
Ġdiscur sos
ĠTra vel
Ġapos tar
Ġresca tar
Ġsab ia
A F
min ente
Ġre tenciÃ³n
Ġdes es
ĠAnd rea
ĠCo opera
Ġlac tancia
Ġabsor ciÃ³n
B ol
ri ve
Ġdar ÃŃa
L OS
ĠR i
200 5
Ġ8 6
ĠIn tel
Ġesca pe
ĠMor ena
Ġmol Ã©
Ġth is
ĠbÃºsque das
ENT OS
âĤ¬ .
Ġaleg ro
Ġinv asiÃ³n
Ġayudar le
Par ece
Ġextra Ã±os
Ġimp i
Ġjam Ã³n
ĠrÃ¡p idas
Ġo le
Ġmar x
Ġcens ura
Ġdin Ã¡mico
ĠCora zÃ³n
Ġcier tamente
Ġhacer me
Ġrodil las
Ġcol esterol
Ġprecios as
ĠmÃ© rito
ech e
ĠYou tube
Ġil im
Ġapun tan
Ġper dieron
Ġoportun o
Ġpresent adas
Ġec olÃ³gica
ĠAm igos
Ġllam e
Ġcos tar
ĠCam b
te ado
Ġal titud
Ġencar go
ĠCl ara
Ġcintur Ã³n
Ġfidel idad
Ġleg alidad
Ġaverigu ar
z u
ĠMar y
g ers
ila teral
Ġrespir ar
ĠT r
Ġexcur siÃ³n
Ġal tar
Ġorigin almente
S a
ĠAdministra tivo
Ġrepor taje
Ġoscu ros
ve lo
or y
ĠÃĵ scar
ĠSo fÃŃa
ĠL on
Ġse ver
ĠF lo
Ġano che
Ġpresiden ciales
Ġrol lo
Ġdel iciosa
Ġdiput ada
ĠdÃ©bil es
ĠPas o
ĠFamil iar
Ġros as
Ġexig en
Ġges tos
b ust
Ġapo der
T RE
Ġdisf raz
cin co
Ġdetal lÃ³
Ġpsic olÃ³gico
âĢľ .
ĠV iernes
Ġincapa z
Ġset enta
Ġrecu b
Ġaspir antes
Ġdur Ã³
Ġmin as
Ġdepen den
Ġpon gan
Ġep ide
ri ga
ĠChar les
Ġg el
tu m
Ġesper anzas
Ġ {
ge la
Ġsencil lamente
Ġacer cÃ³
Ġin unda
Ġpe g
ĠJun ior
ib u
ĠquiÃ©n es
M as
me lo
Ġan gel
Ġam istades
st ro
Ġtitular idad
ĠAlcal Ã¡
ĠOcci dente
Ġestim ado
Po demos
Ġpa tri
ĠEn c
ĠAc adÃ©m
Ġtermin ales
Ġconqu istar
Ġfil me
Ġcal cio
ĠR O
Ġvincul aciÃ³n
Ġel enco
Ġmer ca
vi ar
Ġdeci di
Ġcomenz ando
Ġtra c
Ġresal tÃ³
Ġtre men
Ġlegisl adores
Ġor questa
Ġgrues o
Ġgab inete
Ġsal ÃŃa
Ġcuidados amente
Ġsp am
C l
M en
Ġinvi to
ari ana
ĠA un
Ġconec tividad
Ġaliv iar
Ġab o
Ġde pre
Ġmil agro
Ġpu entes
Ġp ilas
ĠP is
Ġeconom ÃŃas
Ġhel icÃ³p
Ġv arones
al i
itu des
ĠSin dica
Ġestamp ado
Ġsepar ados
Ġviol aciones
ĠBre taÃ±a
Ġtrabaj adora
Ġab uelos
tos a
Ġac tÃºan
Ġpre car
Ġantel aciÃ³n
Ġque mar
Ġm uel
Ġdig amos
Ġlim itaciÃ³n
ĠPres s
jemp lo
Ġaca demia
S ta
Ġvari antes
Ġinter rup
Ġb iz
Ġsuspen der
ĠG i
Ġter restre
Ġllan tas
Ġeste mos
ĠIndependi ente
Ġins cripciones
ĠPa ulo
Ġcatal anes
Ġb ord
Ġadap tado
Ġc itar
ĠCam pos
L AS
Ġfabric ar
Ġv ient
Ġcompar timos
Ġbara ta
ĠG ay
ĠA ren
Ġap ps
ĠMar x
Ġnomb rar
ma te
Ġaconse j
Ġpromo cionar
Ġcor t
et ti
Ġfom ento
Ġconsiderable mente
Ġal iado
Ġtorn eos
Ġcau tiv
Ġemerg entes
d rez
Ã©nd um
ĠP unto
ĠC orn
Ġest ancias
ĠBar Ã§a
tin al
Ġapro vecha
Ġdom Ã©st
Ġexclus ivos
Ġc igar
Ġpo table
ĠCer ro
gra cias
S L
Ġast ro
Ġpeligros os
Ġdi eci
cie dad
Con tin
ĠP uerta
zz i
Ġbaj ada
ĠMonter rey
ĠI gualmente
ĠDeclar aciÃ³n
ĠM IN
Ġ" Â¿
Ġcement erio
Ġgan an
Ġcompar tiendo
b ana
Ġcamion eta
Ġg entes
Ġpag ando
Ġsurg ir
Ġn et
Ġvincul ado
Ġ198 8
ĠV ene
Ġf reno
T rans
cop io
ĠS chool
ĠAy uda
lu encia
Ġg am
Ġmanif est
Ġw ifi
ces iÃ³n
ĠRo d
Ġrefle jan
Ġme lan
ĠProp iedad
ĠclÃŃn icas
ĠPe pe
Ġpl ug
Ġcom an
ĠDe ja
Ġder rum
a cia
Ġprop ici
Ġdren aje
Ġinquie tudes
Ġneu tr
Ġdig it
blo que
ĠI U
Ġvar ÃŃa
om ar
buen o
Ġsemif inales
ut in
Ġpes etas
Ġ197 0
Ġdist or
com paÃ±
Ġllev ada
ĠIn forma
Ġescri tora
Ġinn umer
Encuent ra
Ġac ta
Ġmicro ondas
ĠMa gn
del l
Ġmig raciÃ³n
Ġmadu rez
Ġto x
ri ente
Ġmedi taciÃ³n
ĠT am
Ġesp es
Ġexitos o
ĠSim Ã³n
Ġlabora torios
Ġo las
Ġven dedores
y er
Ġla va
Ġ9 2
ĠCiudad ana
Ġdese amos
imen ea
ĠsÃ©pti mo
? "
Ġaut Ã³
g mail
Ġtra emos
Ġpri mo
Ġdefens ores
al do
Ġreci claje
Ġtri p
ĠCor tes
Ġbille te
Ġadminist radores
Ġperju icios
to oth
Ġsol teros
Ġresist ir
ĠB eb
ĠAlb acete
ĠM emoria
ĠIn ten
Ġca tedral
Ġenamor ado
ĠTri turadora
Le y
Ġl lo
Ġconv icciÃ³n
Ġd ama
D ios
ĠI M
EN TO
ĠT oy
Ġpl uma
ĠPres entaciÃ³n
Ġcomun itaria
Ġqued Ã©
i po
Ġju gos
Ġavan zadas
Ġr ÃŃg
Ġresul taron
Ġdedic Ã³
ĠEcon Ã³mica
Ġna cidos
Ġtu ya
ĠEvangel io
n aciÃ³n
IC AS
Ġdist ra
Ġoper an
IC E
Ġ198 6
Ġinstitu cionales
Ġpas tillas
H E
ĠgeogrÃ¡ fica
Ġa ires
ĠT ienda
Ġs om
Ġdemon ios
ĠPar is
Ġsustan cial
ĠAlim entaciÃ³n
T T
Ġvia ja
ĠÃŃn dole
Ġpro li
Ġfal da
TI VA
Ġdi alo
ĠCl in
Ġes quÃŃ
200 4
p ica
c ano
c ran
Ġcampe ona
Ġconsist ente
ti tas
ĠVal ores
Ġescuch ando
Ġcur ric
ĠT in
Ġma tan
ĠPol onia
Ġreal idades
Ġestudi ado
rac ciones
ÃŃ ble
Ġd ados
Ġinfl uencias
ec tor
Ġarm ados
Ġn u
ĠÃ¡ cidos
Ġo ve
Ġal berg
ĠES PAÃĳ
Ġmic rÃ³
Ġreno vado
Ġconstru ye
ĠSe a
quil er
Ġseguir Ã¡n
Ãį S
ĠPat ria
rocar ril
ĠT em
Ġliber tades
R ef
m ada
Ġex port
ĠCo p
lo ad
Ġapar ente
Ġaum entan
Ġvincul adas
Ġconsol idar
Ġcorpora tiva
pe dia
Ġrecep tor
ĠConfe deraciÃ³n
Ġon das
ĠÃ³pti ma
Ġdesp ierta
Ġgust ar
tra c
ic he
Ġpodr ÃŃas
Ġacord ado
Prim ero
Ġactiv amente
Ġpro l
Ġrela tivas
dal ena
Ã³l icos
ĠCr Ã©dito
Ġprovis ional
ĠAbog ados
Ġtradu cir
ĠD ur
Ġlec ciones
Ġdue le
Ġaci erto
Ġdescar gas
Ġbomb eros
Ġcruc ero
ion e
ĠL ara
Ġra bia
ĠDe partam
Ġdese ar
Ġtom arse
Ġinto ler
fi anza
Ġpublic adas
ĠJo ven
G EN
Ġtra mos
ab ras
ix a
Ġcos tÃ³
TI TU
Ġmencion ada
ĠM ap
ens ible
Ġesencial mente
ĠA Ã±ad
g ara
ur recciÃ³n
diÃ³ s
Ġcusto dia
Ã± ada
Ġcre aciones
Ġsol teras
Ġal gorit
Ãº b
Ġconvoc ado
Ġlej ano
Ġb ÃŃbl
Ġam uebl
ĠLe tras
s olo
Ġpas es
ĠBale ares
Ġconten ida
Ġdivi de
D ec
Ġrecibir Ã¡n
Ġred onda
ga z
ĠNob el
Ġescon de
i amos
and Ã©s
ĠCol ombi
Ġsi entan
Ġsub mar
C S
ĠChrist ian
ĠMÃ© rida
ĠCabil do
Ġus amos
Ġsel va
Ġpelic ula
Ġasesina tos
tÃ¡n eo
Ġameric anos
T ri
Ġsum Ã³
Ġcer do
id an
Ġcoinci de
Ġman ufac
Ġlimp ias
Ġrecom ien
Ġacus aciÃ³n
Me di
Ġcaball ero
Ġ8 7
ĠfÃŃs icamente
ven iles
th an
Ġl on
Ġpa tron
Ġestan dar
Ġmercan cÃŃa
ĠP ese
Ġexces ivo
ĠComun icaciones
Ġro jas
Ġpar rilla
Ġdirec tivo
Ġnorte americana
Ġsupon en
D Ã³nde
Ġval iente
ĠF eb
Ġdes orden
f rad
Ġsupermer cados
Ġreclam aciÃ³n
Ġgen u
Ex celente
ĠM S
Ġavan zados
Ġcenten ar
ĠN ick
te gra
Ġdesplie gue
Ġad ic
Ġdes ar
at Ã³
Ġproteg idos
Ġrep ent
Ġtir os
at Ã¡n
Ġperfec tos
Ã³l icas
h is
ĠromÃ¡n tica
Ġretra to
ĠY an
ĠE FE
Ġse amos
Ġmanten drÃ¡
hua hua
Ġcor ro
Ġaur ic
ru pos
ĠTelÃ©f ono
Ġapoy ado
ĠC ru
Ġval ioso
Ġtur b
Ġmejor amiento
Ġaten diendo
go via
Ġgran os
Ġpre visiÃ³n
Ġaport ando
Ġcent rar
Ġr icas
Ġal dea
w ar
ĠEsper anza
Ġp ones
Ġcocin as
Ġdiv orcio
Ġcompeti dores
ĠS mart
ul la
os amente
ci erto
Ġestric tamente
Ġreivin dic
Ġsi erra
ĠOlÃŃmp icos
Ġconvirti Ã©ndose
Ġvari ados
Ġt acto
am par
Ġra zas
Ġin us
Ġch is
Ġcontra tado
Ġt am
Ġau ge
ĠChia pas
. ;
Ġc ielos
ĠmÃ© dicas
Ġcar is
Ġreempla zar
rol l
Ġan ualmente
Ġdel im
Ġsens ores
ĠIntelig encia
one das
Ġde can
ib a
Ġcompar ti
Ġnarco trÃ¡fico
Ġprefer ido
Ġtro zos
Ġaplic ada
ĠP O
Ġso vi
pos a
Ãį N
t ente
Ġfres cos
Ġmuch acho
ill Ã³n
Ġrecomp ensa
Ġmar ino
Ġutiliz arse
OR A
Ã³st icos
Ġaj eno
Ġinconven ientes
ĠC ob
ht ml
u i
Ġmil itantes
Ġe ficientes
ĠUn os
n ab
Ġtrabaj adoras
ĠBel la
Ġcomput adoras
ĠBus car
Ġdivul gaciÃ³n
Ġsu dor
Ġcontrol ado
Ġin ca
Ġtendr ÃŃan
Ġhar Ã©
Ġtable t
s ales
Ġdig es
as i
T res
Ġreduci da
Ġregist rada
ĠPol it
Ġcrist ales
er ry
d ada
ĠEstatu to
Ġtuber ÃŃas
ĠJ ones
ÃŃn guez
Ġ9 7
Ġcam bie
ĠEmp ren
ĠL y
ĠG am
al go
Ġla van
Ġec olÃ³gico
Ġtranspor tar
lic e
ĠIl ust
Ġrel ieve
la ve
Ġ198 7
ĠChamp ions
ambi os
ĠO x
ens as
Ġdese quilib
if t
Ġab domin
ĠaÃ±ad imos
ĠF O
Ġgu iar
Ġmas ivo
ĠT O
Ġmor ales
me t
el ar
Ġ197 6
Ġl ana
ĠP rado
Ġrad ica
Ġdesen caden
Ġdesh acer
ĠRo ca
Ġorient ado
ell er
ten cias
Ġob tienen
ĠO limp
Ġllev arlo
iv ir
Algun as
Ġafec to
ĠV esti
Ġdeber ÃŃas
Ġatro pel
Ġsc orts
al th
Ġelim inado
Ġrecip iente
Ġtermin o
ĠIn fo
Ġprofesion alidad
Ġespeci alizadas
Ġelabor ados
Ġexplo tar
Ġj es
Ġjugue te
ĠCom pr
Ġsignifica tivamente
Ġdi etas
ĠâĢľ Â¡
Ġplan ificar
Ġpeligros a
Ġbatal las
ĠAdminist raciones
ul an
Ġra tÃ³n
Ġcomun itario
Ġpregun tado
... "
Ġvari ada
Ġindic ada
Ġfundam entos
Ġcomp u
Ġcin tas
Ġcaus Ã³
Ġ7 9
Ġespeci alizaciÃ³n
ĠsÃ¡ bados
Ġo ÃŃdos
Ġley endas
Ġconta bilidad
Ġimpres ora
Ġencar cel
Ġmil ÃŃmetros
Ġres oluciones
Ġconec tados
ĠPriva cidad
ramient as
Ġpin cel
Ġesc and
at an
Ġexcur siones
Ġtrans port
Ġproce dencia
Ġprodu zca
Ġdedic adas
Ġcoinci den
ĠF ri
Ġrobo t
ĠHuman idad
Ġvis ibles
Ġregist raron
Ã©di tos
Ġconmem ora
Ġme tido
Ġhaber lo
ĠP ad
Ġju icios
gu iente
Ġg all
Ġdesactiv ados
F ac
Ġremo to
Ġpres a
Ġperson alizados
ĠE fec
Ad visor
n s
Ġimp rim
qu ir
Ġrecib idos
Ġcas ero
ti tos
ĠS ob
ent ando
do c
ĠF IN
Ġves tuario
Ġprofesor ado
americ anas
V e
Ġt ÃŃa
Ġinnov adoras
Ġmaravil las
Ġrad icales
Ġresuel to
ps ia
Ġgubernam ental
oc al
Ġ8 9
ĠBM W
I TA
Ġten siones
Ġnov enta
Ġcomple jas
ĠZapa tero
Ġpes a
art Ã©n
Ġacostumb rados
Ġneces ites
or ros
Ġprov echo
ĠTer cera
eno v
ĠaÃ±ad iendo
Ġdomin ar
Ġrecu pera
ĠE ric
ĠE usk
Ġri sas
Ġimpar tir
ada jo
pan y
Ġin und
Ġsem illa
ĠTecn ologÃŃas
Ġacus ados
Ġc ueva
a hora
Ġsu til
co pia
ĠdiscÃŃp ulos
M er
ĠGobern aciÃ³n
Ġcompr Ã©
am en
Ġsuper Ã³
Ġinnov adora
ĠProfes ionales
Ġde tuvo
ban as
Ġgo tas
io terapia
ij Ã³n
Ġar e
s ab
ĠÂ¡ Â¡
Ġposi cion
itor al
Ġsangu ÃŃn
Ġvulner abilidad
Ġ8 3
ĠacompaÃ± an
Ġdi era
Ġtrans vers
Ġsepar ar
a h
Ġre car
uer as
Ġtab lero
aj ada
Ġdenunci ado
Ġliber al
ĠCons ulta
ja te
Ġsum ado
Ġdeba tir
g encia
Ġrec tor
Ġmi tos
ĠLeon ardo
Ġdetal lado
uc ciÃ³n
Ġmin ister
H ist
Ġhier bas
Ġinnumer ables
L leg
Ġp ra
cent r
Ġlle guÃ©
Ġvol viendo
fer os
ĠFab ric
Ġalco h
Ġcancel ar
Ġap to
Ġ !!
ĠA Ã©
Ġe cha
Ġ8 1
Ġaf ro
Ġemb arca
Ġaf Ã¡n
Ġdes b
ĠVal or
A Y
ĠAQU Ãį
ĠA didas
Ġw hats
cios os
Ã©spe d
d Ã©is
ĠÃ ĥ
Ġleer lo
Ġentre gas
Ġtraslad ar
Ġmercan til
ĠmuÃ± eca
tiemp o
Ġri tual
Ġalquil ar
ĠQu ien
Ġabst rac
N ueva
ĠLe gal
Ġhel ado
ĠIra k
s ecre
Ġ198 2
ĠMe didas
Ġfal l
Ġreun irse
ĠEsper amos
ĠEst u
Ġfutbol istas
st ar
per ci
Ġenvi ados
Ġvisit Ã³
Ġrepar tir
Ġanim ados
Ġp y
Ġrit mos
ĠPon te
Ġsuf riendo
Ġsol as
Ġve cina
Ġfib ras
ĠBen ito
Ġr usos
ĠAl bert
rig or
Ġexten so
Ġen m
ĠP ir
ĠDo wn
m undo
ĠP L
ĠRÃ© gimen
Ġs artÃ©n
ĠAust ria
Ġlici taciÃ³n
ĠIgual dad
ac al
ĠK irchner
Ġbaj Ã³
Ġpres tado
Ġam ado
ue ta
uer tas
Ġreivin dica
Ġcuch illo
ĠSe de
Ġtrop ical
ĠRE G
Ġlo te
Ã¡ndo las
Ġnar raciÃ³n
de rismo
Ġv ÃŃs
ĠSte ph
te xto
ĠvÃ¡l ida
Ġesp ir
Ġdu dar
ĠAgu ilar
in go
Ġsac udi
Ġcans ado
di e
ĠTra tado
qui al
IC OS
Ġorden ar
is pos
ĠautÃ³n omo
ĠmÃ¡g ica
Ġadop tado
Ġtrabaj aba
ĠT y
Ġproduc tora
Ġvient re
Ġcom ando
Ġpot entes
ar to
AD R
ul osa
Ġirregular idades
Ġsu bl
p us
Ġne o
Ġponer te
Ġfrac ciÃ³n
ient ales
Ġra tific
Ġso is
Ġfi jado
Ġahor ros
ĠS EC
Ġhab rÃ¡n
Ġdesp ido
if ique
adajo z
TM L
Ġsan tos
Ãĥ Âº
ĠCal i
Ġaran cel
Ġfascin ante
Ġsemin ario
lo t
ba te
Ġsol dado
ĠWi Fi
ĠDol ores
ĠromÃ¡n tico
de f
Ġcompar tiÃ³
Ġbo te
Ġdemos traciÃ³n
Ġimpres iones
ĠJust o
ĠF Ã©lix
Ġespiritu ales
ar Ã©
Ġsur tido
Ġesc ar
Ġaf ortun
p las
on ales
Ġcompati bles
ĠcÃ³mo das
Ġinoc ente
H an
mall era
Ġejecu tivos
ĠC AP
Ġregres Ã³
ĠPl eno
ĠX III
ri as
Ġcicl ismo
Ġ ~
Ġpec ados
D ES
ras e
Ġpo zo
Ġrefer Ã©ndum
Ġan at
dal ias
fic ado
Ġcere ales
ĠN E
Ġaj ena
g ros
Ġgran ito
Ġcombust ibles
Ġensal ada
i Ãĥ
Ġgratu itas
Ġapre cia
ade cu
Ġac ent
Ġcab ina
Ġllam amos
Ġplan cha
Ġmir Ã³
ÃŃ qu
Ġvar ÃŃan
ĠGol d
Ġus arlo
o jo
Ġestad ÃŃstica
Ġfigu ran
v it
Ġrelaj aciÃ³n
ĠMetro politana
Ġfre e
ec emos
ĠRe un
Ġequ ivo
Ġconoz ca
Ġperf um
Ġven go
ĠK at
ti ficaciones
ĠTer ra
Ġlo bo
ĠQu ito
Ġapoy os
ĠUR L
ĠBo letÃŃn
Ġentien den
ach ing
ĠE C
Ġfil ial
Ġrom ano
f ÃŃn
tra ciones
J es
Ġsin te
Ġtan que
Ġpes ada
ĠCoord inaciÃ³n
Ġmul tic
Ġhabil itado
Ġentr ando
Ġdispar os
Ġevidente mente
P OS
U B
M T
Ġ1 01
ĠT ienes
Ġdi j
Ġasi Ã¡tico
in ero
Bar celona
dente mente
Ġfal tas
ĠC AN
Ġcompet entes
Ġ197 8
ue ces
Ġmane ja
z amos
Ġexcep ciones
Ġb recha
Ġfan Ã¡ticos
mer ce
Ġestu vimos
ic ket
ĠArm adas
p eso
Ġpro hÃŃ
Ġpris a
Ġgeo grafÃŃa
Ġaceler ar
B ajo
Ġnaveg ando
ĠNÃº Ã±ez
Ġconsum e
ĠCÃ¡ ceres
un ning
Ġlament ablemente
ĠTrip Advisor
Ġinter f
Ġinst ala
Ġincons ciente
ĠCo lecciÃ³n
du zca
Ġale jado
j ect
Ġin hib
Ġabrir Ã¡
Ġlib ras
Ġay untamientos
ĠWord Press
Ġinyec ciÃ³n
Ġca en
Ġacces os
Ġexces iva
Ġllam ando
ĠM AS
Ġmortal idad
ĠSo le
?? ??
Ġrefer irse
res tres
Ġcomp re
Ġvuel vo
cu ito
S M
Ġal ianzas
mi ra
Ġrecaud aciÃ³n
Ġ9 4
ĠP ep
Ġdi e
Ġman gas
dr en
Ġse pan
Ġar mar
Ġaguan tar
Ġvac un
Ġmort ales
ul ador
Ġg alax
Ġpropon emos
Ġjuris p
Ġestruc turales
Ġreal ista
ĠmÃ¡ ster
ĠAlcal dÃŃa
ĠLegisla tivo
ĠÃ© tn
Ġlu b
ĠCla udio
te dra
po ol
Ġce der
ĠP amplona
Ġofre cidos
Ġfal las
Ø §
Ġexperim entos
Ġtran sex
di g
Ġex acto
Ġinfin ito
Ġhipo tec
ta te
Ġpat ente
ĠEx terior
Ġpasa porte
Ġpsic olÃ³gica
Ġreco lecciÃ³n
Ġprevis iones
Ġac lara
J a
s ÃŃ
Ã©r min
m icas
Ġacep tan
Ġch imenea
Ġdistribu ir
ĠPre mi
us se
Ġmar ina
Ġadmi raciÃ³n
ul lo
Ġma tices
Ġperman entes
ie la
Ġinvis ible
tr aron
Ġinser ciÃ³n
Ġdel icado
Ġeleg antes
Ġt ru
Ġre an
ĠMan chester
ĠAn des
ĠD or
Quer emos
Ġsome tidos
Ġcomun iÃ³n
mon t
Ġacces ibles
Ġv elas
Ġpar adas
u idos
Ġapun tar
Ġna ves
ĠDon de
Ġc ÃŃ
aco a
ĠY uc
Ġecos istema
Ġca ÃŃdas
ĠDe ci
ver dad
e Ã±os
Ġtor tura
Ġun ico
Ġtum ba
ĠCla udia
Ġchil enos
ĠPro ceso
Ġgen io
Ġalber ga
Ġcal do
ĠF iestas
rar i
Ġimplic ados
g ement
us co
ĠHal loween
Ġcru cial
aliz as
Ġbrasile Ã±a
Ġ198 4
Ġin como
ĠMana ger
s iempre
Ġt Ã³p
olÃ³g icamente
Ġsmartph ones
Ġinconven iente
Ġpin tado
ĠEduca tiva
Ġdibu jar
ec erÃŃa
Ġtener lo
Ġparticipa ciones
onal do
qui Ã©n
Ġme tÃ¡
ĠDa ta
Ġtelevis or
Ġconoc ÃŃ
Ġembara zadas
Ġtap as
Ġcandida ta
Ġprofun dos
Ġdific ul
Ġacog e
Ġhom icidio
Ġartifici ales
Ġhorri ble
Ġrecog ido
ĠP ino
Ġrecib ida
Ġdisfru tado
Ġcar ece
Ġro daje
ĠV ER
Ġaloj amientos
oc aciÃ³n
Ġsupermer cado
i h
ent ada
Ġaban ico
r ome
Ġprogra mar
Ġrecon cil
Ġinmobil iario
ĠmÃ¡s cara
Ġconvier ta
Ġex tras
Ġvac una
Ġaproxim ada
ien a
j arse
Ġabsur do
AR IA
ĠS ra
Ġpas eos
Ġtruc o
ĠA hor
Ġimpuls ado
Ġllev aban
Ġrepresent ado
Ġvideoj uego
Ġtram itaciÃ³n
p m
Ġbu que
Ã£ o
ren da
in amente
Ġimpor taciones
Ca teg
Ġimag ina
Ġos t
ĠSo to
Ġnoctur na
Ġresist entes
Ġdefin en
alu pe
Ġdesconoci dos
ĠBa hÃŃa
Ġrellen ar
ĠMin i
Ġda Ã±ar
Ġante mano
Ġvas co
x eles
Ġaprovech Ã³
Ġacces ibilidad
Ġes mal
A Ãºn
c ador
Ġp ig
ud or
Ġester eo
Ġmis eria
ĠSem inario
Ġsent arse
ĠObserv atorio
ĠU d
M is
j aba
ĠBan da
Ġver sos
Ġcaptur ar
si der
Ãº o
ĠO C
Ġp ru
Ġoscu ras
ĠA k
ter ias
ĠGer ardo
- )
Ġvo tantes
ĠSER VI
ĠInstitu ciÃ³n
Ġclan dest
Ġdisc usiones
ĠUl tra
ĠC abe
Ġconfi able
Ġrelaj arse
Ġg ent
Ġp c
Ġcontribuy en
tique tado
uy a
Ġpor ciÃ³n
is Ã©s
Ġcu ente
ĠS IN
Ġdestac ando
OL U
Ġsal ones
ich os
V ER
ĠVe gas
ĠS ust
ĠcÃ³m ic
Ġe mite
Ġadh es
Ġdes ech
cas t
Ġacum ula
Ġinci dentes
Ġch ip
Ġpreocup ado
Ġ' '
Ġpas illo
ĠSig lo
Ġrepara ciones
Ġdesa perci
ĠS he
Ġhallaz go
Ġto tales
ĠLin k
Ġnatur almente
Ġacep tÃ³
u tos
ĠLu go
Ġcir uj
ros os
ĠDom ÃŃnguez
Ġinterac tuar
Ġjugar Ã¡
fici al
Ġconcej ales
Ġvin ilo
Ġemo cionales
Ġasal to
Ġre util
ĠE leg
ĠSus ana
Ġpo etas
Ġcor ren
Ġsuel ta
Ġterra zas
l ac
ĠestÃ¡ is
Ġca tas
Ġconstru yendo
Ġfich as
Ġcal ificado
ĠSud Ã¡frica
Ġmusul manes
Ġcan ciller
Ġres on
ĠX II
Ġm ueble
Ġinmobil iaria
erop uertos
iz antes
ĠContac tos
S AN
Ġpromo cional
Ġcontra ctu
ol f
Ġjef a
Ġfun cionales
Ġfl ora
ĠclÃ¡us ula
Ġop uesto
Ġcoord inar
k g
Ġcar ros
Ġimpres o
ĠfÃ¡rmac os
ER C
tien den
Ġprotocol os
era ciones
Ġnoti ficaciones
ĠEn ter
Ġven drÃ¡
ĠAl co
Ġv ina
Ġab a
Ġan cha
Ġdese ando
ĠAm Ã©ricas
Ġre h
ĠhÃ¡bi to
Ġadelga zamiento
t rio
ĠH ill
oc as
Ġcar tu
AR D
Ġpod ria
ĠStor e
ĠD al
tal gia
pe tas
Ġpier da
Ġdisfru tan
Ġceleb ran
Ġtu tela
Ġaliv io
Ġmec Ã¡nico
ĠLa go
irÃ¡ mi
[ ...]
Ġsec uestro
Ġjoy a
Ġven ciÃ³
Ġor ejas
ha i
Ġapar ecido
Ġhamb ur
Ġsu icidio
Ġ ).
Ġpes taÃ±as
ĠAs i
Ġbor des
Des cubre
Ġenvi dia
Ġrelig iones
: :
ab ric
Ġcomun ista
Ġres idente
Clar o
Ġagres iones
ing ue
Ġenc endido
Ġmencion adas
Ġemer gencias
la y
Ġllev as
Ġc una
ĠMol ino
Ġpos turas
mos o
Ġadelan tÃ³
cil lo
Ġpantal Ã³n
ĠJack son
ĠA segu
Ġevi dencias
Ġmaltra to
Ġtra zado
cion arios
Ġorden amiento
Ġbancar ias
Ġagrade ciÃ³
Ġfis i
ĠPr ÃŃncipe
no va
Ġaf ueras
Ġol la
Ġab riendo
ĠVir gin
Ġpres encial
er idad
om an
ĠT ec
Ġinfin idad
ram ientos
Ġru inas
Ġconvir tiendo
Ġma xim
ĠT ran
Ġprev ias
Ġgo zar
Ġter mo
Ġlesbi anas
Ġreserv ado
Ġformul arios
Ġta x
Ġgre mio
v ero
ig en
t ana
Ġinnov adores
Ġh erv
ĠH as
Ġconoci endo
Ġsu ite
ĠmÃºs culo
Ġf ic
Ġjub ilaciÃ³n
Ġamar illa
Ġimprescindi bles
ĠCh o
ĠDel gado
Ġproduc tivos
ĠBel Ã©n
ĠLabor al
Ġvia jero
ĠDirec tora
Ġe cho
b ella
Ġaman ecer
Ġcampe ones
Ġmues tre
Ġar bol
Ġsosp echa
9 00
Ġper on
Ġdiv ino
Ġp h
Ġag il
M X
Ġavent ur
ĠES O
ĠB ir
Ġvari adas
org es
can es
Ġestar ÃŃan
ĠÃ¡ngel es
Ġtea tral
ĠlÃ¡mp ara
Ġex cav
Ġca ta
Ġprim arias
ram ento
n Ã©
Ġrecop ilaciÃ³n
ĠF UN
! )
ä ¸
P V
Ġel ite
H ome
qu ias
Ġpien sas
Ġco h
ĠWar s
ĠfÃ³rm ulas
Ġlar g
ĠES T
ĠZ e
ĠRo o
Ġast uri
p ic
Ġpreju icios
Ġapoy an
Ġtit ulada
in ea
Ġgob ier
Ġve as
Ġic onos
Ġdis capa
ĠPer e
Ġplante amiento
Ġcau te
Ġedi l
ĠM Ã³vil
Ġb ack
ĠAy er
Ġcol gar
Ġextra Ã±
ĠHen ry
Ġpre ma
Ġexig ente
vo ces
Ġmonstru o
Ġpos ter
Ġesta tus
k el
iz aron
Ġcalent amiento
Ġcolon ias
ĠÃŃn tegra
Ġabor da
Ġan exo
ĠVie tnam
ie w
se gÃºn
D er
Ã¡r qu
Ġcria tura
Ġcom icios
ĠOb ra
ti ro
F orm
Ġv ano
Ġref uerzo
Ġso Ã±ar
Ġurban as
Ġfrag mentos
ĠA V
Ġtu bos
Ġescla vos
ud ÃŃ
Ġdesign ado
dil lo
ĠMen or
Ġobserv ado
Ġdirig irse
Ġagra dezco
ĠGÃ©n ero
Ġama teur
ĠK an
bl as
ĠVer ano
ĠEst able
Ġpel i
Ġfun er
ĠResta u
Ġex al
Ġval ent
Ġsur f
Ġqu im
Ġreduci endo
ĠkilÃ³ metro
Ġrep lic
Ġru bro
ĠSho w
ĠP un
ÃŃ sta
Ġrecor re
Ġcompro bado
Ġdiver tidos
Ġdivi dir
ĠEsc rib
Ġmas ac
Ġsu pe
Ġcub iertos
B R
Ġperman ecen
ĠMis s
AN TE
Ġ ]
g able
ĠE mer
ĠMÃ© dico
Ġp Ã¡nico
ma y
ĠPa ula
aliz ador
ĠCon oce
ĠÃįn dice
ĠintÃ©rpre te
Ġme d
Ġrepor ta
Ġmodific ado
Des arrol
Ġafirm ado
ĠAutor idad
ĠSer rano
Ġt v
Ġexpecta tiva
Ġexac titud
Ġemp eÃ±o
ĠB itcoin
Ġapro x
ĠJ U
Ġdeleg ados
Ġedi tado
Ġmater nidad
Ġcomprome tidos
Ġtra ÃŃdo
Ġparticip ando
Ġus adas
ĠjurÃŃ dicos
ĠL U
Ġhura cÃ¡n
Ġrecon ocen
Ġartic ulaciÃ³n
duc to
ĠCastel lÃ³n
Ġpl om
ĠP ien
ÃŃ l
ab al
Ġro les
Ġmira ba
Ġg in
Ġso ja
Ġcor rea
Ġ( Â¿
Ġin do
ri ba
ĠUn ited
ĠEmpres arial
ĠVia jes
pir os
Ġtom adas
Ġmas car
A G
ĠRa cing
j illo
ĠH it
Ġretro ce
ĠÂ ´
Ġtrans acciÃ³n
Est udi
Ġmuer ta
ru ro
Ġv Ã©r
Ġital ianos
Ġref ieren
ĠMin istros
Ġinter ven
Ġderro tar
ĠAs istencia
Ġperson alizadas
tan to
Ġsil ic
Ġment alidad
Ġconseguir lo
abor aciÃ³n
Ġpodr Ã©is
Ġmedi cin
Ġad misiÃ³n
Ġplan etas
C arlos
Ġasist ieron
Ġcanad iense
ĠA rena
Ġlle ven
Ġgra baciones
ĠVie jo
ĠdiseÃ± adas
Ġdes crito
Ġmanio bra
N E
r adoras
cil ia
ĠLo ve
Ð° Ð
enci ada
ĠB rig
Ġlegisl ador
ĠV III
Ġalm end
Ġhumil dad
Ġcre mas
Ġmetabol ismo
Ġsignifica tivos
ĠJ uez
ĠcatÃ³ licos
ES CO
Ġinstal ada
Ġarrep ent
cul tural
Ġpues tas
Ġalu cin
Ġescul tura
ĠSocial ista
h oy
qu in
Ġacum ulado
Ġase ver
ĠÃ¡r bitro
ĠHues ca
Ġases ores
fici encias
Ġm ueven
anim idad
me jor
Ġaer ona
Ġinteres ada
ĠPie dra
ĠSec undaria
ĠautÃ³n omas
Ġconfor table
Ġ198 3
ĠPe tro
Ġequivoc ado
Ġbiblio tecas
Ġcuad ras
Ġel abora
Ġorient ada
Ġsent encias
ir ÃŃa
El la
Ġtrav es
dor as
Ġpresent aba
Ġrode ada
Ġam en
Ġvol cÃ¡n
ĠIn t
ĠExcel ente
Ġso portes
iz e
", "
ĠTra tamiento
ĠJul iÃ¡n
Ġescon der
Ġcontrar ia
Ġin minente
Ġrom ana
Ã³rm ula
ta bilidad
Ġenc aj
Ġproduci dos
Ġwhats app
Ġcr Ã³nicas
ĠLiber tadores
ĠWh ite
ĠCol onia
ĠCo leg
ĠCa fÃ©
ĠV oy
Me jor
ĠConse jos
Ġapar ezca
Ġadelan tado
tiz ados
Ġrom anos
ĠEsc olar
Ġd rÃ¡
Ġlo cos
Ġpron Ã³stico
ĠTele fÃ³nica
Ġrespon den
quis itos
Ġ197 3
Ġconcre tar
ĠMag dalena
Ġarru gas
en ario
Ġprogram ado
Ġforma ciones
ĠGol f
Ġfund Ã³
Ġto ques
Ġmanip ular
Ġsab ÃŃan
Ġdest ruc
ĠCab o
Ġre portes
ĠNo ta
Ġfi jos
ĠComp ra
Ġtra en
Ġpobl ado
Ġsuper aciÃ³n
Ġg luten
ĠT U
Ġh ilos
A pren
ĠPÃºbl icos
ĠMar vel
tu almente
Ġrequer ido
cios as
Ġinf racciÃ³n
ĠArm ada
Ġt ÃŃm
ĠO pin
ent Ã³
ig er
Ġs Ã³
Ġtra i
Ġexp ulsiÃ³n
Ġs pa
Ġinquie tud
R ep
ĠConce jo
n io
Ġenc ues
Ġaclar Ã³
Ġv itales
Ġcap illa
um an
ĠMar te
Ġincon di
Ġmone taria
ill on
Ġemi tiÃ³
reg Ã³
g ina
Ġtor res
ER N
aliz arse
Ġfin alizado
Ġdin Ã¡micas
Ġinter medio
direc tor
ĠS oria
el Ã©ctr
ĠAdo lfo
Ex per
Ã©nd onos
Ġcredi bilidad
Ġedi toriales
ĠmÃŃn imas
Ġs ales
ĠA BC
Ġprimor dial
pec ciÃ³n
Ġafi cionado
iden tes
Ġurban izaciÃ³n
Ġmir as
or s
ĠplÃ¡st icos
Ġma Ã±
ĠMon um
ĠMer can
Ġemp erador
ĠNatural eza
Ġhisp ano
âĢĶ .
Ġfuncional idades
ĠGuar di
ĠL ac
Ġacab e
ĠR onaldo
ĠE P
Ġsigu ieron
ĠH il
Ġlimp i
ĠTe am
cion adas
Ġmo le
Ġal ba
Ġch anc
Ġinm enso
Ġch ic
da f
Ġsuje ta
Ġfer rovi
Ġ oraciones
ĠAl f
ĠB las
Ġreci ba
ol l
Ġabund ancia
as ÃŃ
g ulos
ho o
Ġb ull
Ġdemos trando
Ġvisu alizaciÃ³n
Ġdipl oma
Ġdoc tora
n ada
Ġcont enta
Ã¡st ima
ol d
ĠBen jam
Ġban deras
Ġ19 60
Ġprovin ciales
Ġdes crip
ĠC av
Q L
Ġacep table
h s
ĠCaball ero
Ġdura bilidad
Ġlatino americanos
ĠD ro
Ġsimul tÃ¡neamente
Ġre ad
ĠÃ©l ite
Ġh emor
Ġinv entario
ĠB ell
Ġpas en
Ġco pi
ĠAu xil
ist es
ĠElectrÃ³n ica
Ġcomp acto
Ġuruguay o
M AN
olog y
Ġasegu ro
Ġderi vado
Ġb ando
Ġtex turas
Ġdivi dido
u o
x s
f ran
Ġrepresenta ciones
Ġprotagon izada
ĠPas tor
g ente
m ones
ĠU C
Ġmensaj erÃŃa
Ġorgullos o
Ġtr ono
Ġb eta
Ġderiv adas
ĠclÃ¡s icas
l us
Ġmanifest antes
Ġy endo
Se Ã±
ĠMov istar
Ġc Ã©sped
ĠT ay
Ġgen es
Ġreac cionar
Ġdej arse
Ġimpos iciÃ³n
ĠVir tual
es tÃ¡
poner se
ĠL G
e ado
ĠclÃŃn icos
Ġsinies tro
ĠEMP RES
s ub
Ġpi dieron
Ġdiver tidas
ĠG es
D AD
ĠD OC
Ġm acho
ĠAut om
Ġapar tados
ĠðŁĺ ī
Ġtra cciÃ³n
is imo
Ġpre fi
s ica
Ñ ı
Ġprovoc an
ilan dia
Ġco le
Ġhom olog
Ġcaracter ÃŃstico
Ġdemas iada
Ġdi lu
Ġhin ca
Ġenc ender
ĠMil Ã¡n
Ġrecl ama
Ġcoopera tivas
Ġinunda ciones
c rim
man os
Ġconven iencia
ĠC es
ur ada
m ios
Ġfi able
Ġindis cu
M or
Ġautor izados
Ġubic adas
Ġregular mente
P G
Ã©s imo
no che
Ġper cep
ĠWilliam s
Ġpas ajes
Ġplan tillas
ĠGuad alupe
c ante
Ġadi v
ĠProcur adurÃŃa
Ġsindic ales
Ġest Ãºp
Ġrequer ida
go gÃŃa
ĠB all
Ġorganiz ados
Ġelev ados
Ġpim ienta
mo vil
ĠBra vo
Ġex pos
ĠUnivers idades
Ġman dÃ³
Ġp echos
ĠEx press
Ġparad igma
Ġllev arÃ¡n
Ġasign ado
Ġtre ce
Ġcomp res
Ġcaracter izan
ĠM UN
ĠeconÃ³m icamente
qu im
ĠB ul
iden ta
Ġprob abilidades
ĠIS BN
ĠTar ragona
Ġto cando
Ġinme jor
Ġsu l
ĀĀĀĀĀĀĀĀĀĀĀĀĀĀĀĀĀĀĀĀĀĀĀĀĀĀĀĀĀĀĀĀĀĀĀĀĀĀĀĀĀĀĀĀĀĀĀĀĀĀĀĀĀĀĀĀĀĀĀĀĀĀĀĀ ĀĀĀĀĀĀĀĀĀĀĀĀĀĀĀĀĀĀĀĀĀĀĀĀĀĀĀĀĀĀĀĀĀĀĀĀĀĀĀĀĀĀĀĀĀĀĀĀĀĀĀĀĀĀĀĀĀĀĀĀĀĀĀĀ
Ġluminos idad
Ġrec tificaciÃ³n
Ġrecha zÃ³
ion era
ĠÃ¡ gil
Ġesca pada
Ġper ca
ĠMan tenimiento
Ġrespons abil
In formaciÃ³n
Ġgran ja
Ġconten edores
par able
Ã¡m icos
201 9
Ġcompeti tiva
Ġa tes
Ġanim ado
ĠTÃ©cn icas
ĠSer ies
ĠSe govia
Ġdi ablo
Ġexig entes
Ġdesign aciÃ³n
Ġviol enta
ĠSecre taria
Ġru b
j ala
= "
ĠCh ris
Ġreconoci das
Ġrequier a
Ġsuple mento
r ÃŃas
Ġre estruc
Ġser ios
ĠCons ide
Ġvendi dos
ĠDef ens
Ġingles es
Ġest all
Ġfacil idades
Ġf ec
Ġestren ar
Ġab dom
Ġdesapar ece
Ġdesn udo
ĠWal ter
Ġexp lico
Ġexp uso
ĠG ram
y es
Ġacostumb rado
ĠMon e
Ġenv ÃŃan
Ġtro zo
ĠN er
Ġtom en
Ġiden ti
Ã¡r selo
m ne
Ġperman entemente
ĠT oro
ĠRe almente
ho t
Ġp ana
ĠM Ã³nica
ci en
Ġcorpor aciÃ³n
Ġsa grado
Ġpele ar
Ġc ese
Ġreclam aciones
Ġcotidi ano
ĠportÃ¡ tiles
Ġh im
ĠAb r
Ġvina gre
Ġri g
ok ie
Ġrevel aciÃ³n
v ados
ĠB ull
val os
de cer
L ib
Ġser iedad
Ġesp len
ĠRo pa
Ġcamp us
s us
Ġhier ba
Ġco yun
Ġsol ÃŃa
ĠTecn olÃ³gico
ĠF la
Ġater ri
ici dades
ĠB A
Ġacor dar
Ġobten iendo
Ġpes ados
bur g
Ġsuces iÃ³n
Ġcas illa
Ġsincer amente
vi al
Ġt echos
Ġprov ienen
g Ã¡is
Ġjust ificaciÃ³n
Ġ197 9
h on
m ero
Ġinterpre taciones
Ġvin tage
Ġalterna tivo
Ġlum inoso
ĠR D
fol io
Ġrecor ridos
Ġprogres iva
ĠDis eÃ±
N ada
ch ada
ti entes
ĠJer ez
ÃŃ feros
Ġjab Ã³n
Ġreun ieron
Ġdemon io
Ġpresent en
Ġmister ioso
Ġabri go
Ġbendi ciÃ³n
Ġrela ta
Ġagrade cido
y le
Ġprem isa
Ġve j
Ġfi abilidad
Ġpropon en
Ã³st oles
Ġrecom pens
vent ura
Ġcre cen
ma cias
ĠCapa cidad
Ġsuger encia
Ġdoc encia
ĠPro to
ĠnÃºcle os
Ġson ar
Ġrecuper ado
Ġob se
Ġinici aron
z arse
Ġfantas ma
Ġrep Ãºblica
Ġprostitu ta
Ġec les
te le
Ġconta g
ub er
d arios
ĠMic ho
ĠSy stem
ĠI tal
Ġindi os
cu rio
Ġdepen der
Ġselec ciones
Ġadqui ridos
Ġb uf
Ġcoti za
al da
Ġjust ifica
Ġhinca piÃ©
der ÃŃas
Ġasigna turas
Ġen cub
ĠA cep
ĠOr questa
Ġdomin ios
ĠFoto grafÃŃa
Ã©is bol
Ġexperim ental
Ġgir ar
ĠâĢ ĭ
Ġvolun tario
O n
ch era
Ġtramp a
IDAD ES
Ġfa tiga
Ġoptim izaciÃ³n
Ġsegu ras
w ich
Ġnoctur no
z ona
Ġ2 20
Ġras tro
ĠclÃŃn ico
ĠEqui pos
ĠG ris
Ã©s ima
ĠV oz
H H
Ġmemor ias
ĠP ers
Ġinst ru
ĠPri ma
ĠhÃºme do
Ġca udal
Ġenorme mente
Ġetique tada
ĠSindica to
ol s
Ġver an
ĠFil ip
ĠM aya
Ġn ad
Ġcom iendo
Ġmedioamb iental
eci dos
Ġparticipar Ã¡n
cran ia
Ġh omo
ĠA lan
tor ce
Ġsil ves
Ġsup uso
Ġm era
Ġanti biÃ³
Ġencan tados
ĠF MI
Ġmuch ÃŃsimas
ĠR as
Ġ197 5
la h
Ñ ĭ
ĠIs idro
gu ra
Ġmul tas
. (
Ġsurg ido
ĠF emen
ĠIn m
Ġtor tu
ĠM Ã©ndez
Ġtar da
Ġsin Ã³nimo
Ġ4 50
Ġpun tas
crib e
ĠFinanci era
Ġnos talgia
Ġfach adas
ud ar
rocar b
Ġol vida
j ug
Ġin tac
Ġesc aso
Ġca yendo
Ġatra e
Ġperten ecer
Ġatribu tos
Ġpar ecÃŃan
.... ..
Ġaparecer Ã¡
ĠOcci dental
I OS
ĠMo isÃ©s
âĢ¦ ..
Ġautop ista
Ġdis para
Ġeduc ar
Ġse da
Ġfalta ba
ĠAd am
Ġleal tad
ob os
ĠC ra
Ġmaravillos as
Ġpa tologÃŃa
tr arse
Ġextrac to
a den
Ġdom Ã©stico
Ġde ro
Ġprecios os
Ġponer me
Ġexten dido
Ġnov ios
Ġredac tado
ĠC asta
ĠP LAN
Ġimpul sa
ĠH ip
Ġla tinos
A f
Ġ197 7
Ġc Ãºp
Ġtel as
ĠF avor
Ġtribu taria
tar iamente
IZ ACIÃĵN
ĠUnivers ity
ĠJul ia
la va
ĠS D
Ġlav adora
No ticias
Ġdur ar
un cio
ĠcÃŃr culos
ĠJu venil
vi tud
d arse
ĠJo e
ĠD J
rim idos
ĠPes ca
co g
ĠH TML
ĠT era
ĠI C
Ġrecl amos
Ġromp iÃ³
l ista
Ġsalv ador
Ġsitu ados
amb ien
Ġline al
Ġinter min
ĠMas s
ĠdiÃ¡ logos
Ġdesn uda
ĠC ara
ĠS pe
Ġconform ado
ri entes
ĠCo un
Ġobten ida
Ġin adecu
Ġsub ord
Ġequ idad
Ġsin ton
Ġpo dio
Ġmon tado
Ġstan d
Ġincluy Ã³
Ġexper ta
ĠJ ud
lar on
Ġapoy ando
Ġinv itÃ³
qu Ã©s
ĠcatÃ¡ stro
ĠP H
ĠP ed
Ġl ien
Ġsub asta
Ġro taciÃ³n
Ġalcan zan
ace tas
Ġcas eros
Ġintro duc
Ġfer ias
ĠmÃ© ritos
Ġglo bo
te mos
Ġhon gos
ĠS omb
Ġenfoc ado
Ġm ts
Ġbusc adores
ĠConten ido
Ġinform al
Ġsomb rero
Ġch ile
Ġmostr arÃ¡
Ġdesarroll adas
Ġesp l
ĠTarje ta
ĠL unes
c ro
lan ueva
b aciÃ³n
Ġtit ulo
Ġfr Ã¡g
Ġev al
Ġen z
Ġval ora
Ġdej Ã©
v ÃŃ
Ġescri tas
dos o
ĠPar ro
Ġdetermin ante
ĠL ive
ĠRe publ
gun as
Ġins critos
ĠQuÃŃm ica
ĠInf raestruc
Ex iste
so cia
tr adas
oc os
zob ispo
ĠG ijÃ³n
U T
Ġsus ci
ĠJ oy
Ġc ÃŃv
ĠF uego
ĠQuer emos
lo cu
Ġvoc ab
Ġaudi torÃŃa
ue Ã±o
ĠGl oria
Ġcons ign
Ġdor ada
Ġche que
Ġrep aso
Ġg la
ĠM iemb
OL OG
Ġsent imental
gon al
Ġcar pin
Ġpro cu
Ġmister ios
Ġesplen dor
et c
ĠH O
Ġsencil lez
Ġreempla zo
gu ila
ĠCin co
L uis
Ġcuri osa
ĠmandÃŃ bula
Ġrevolucion aria
de x
Ġver bal
Ġat enta
ici smo
ward s
ĠinÃº til
Ġcuan tÃŃa
l ama
00 1
Ġri o
Ġinflu ir
U b
Ġor illas
ĠO h
Ġunif orm
Ġmon opol
Ġven ÃŃan
cion ismo
Ġju veniles
Ġreun ido
Su per
Ġpar king
Ġdelincu encia
ĠD OM
ĠAgu irre
ĠRepres ent
Ġï Ĥ
Ġalim enta
Ġdefin ida
Ġ \
re dedor
Ġintercambi ar
ĠSco tt
Ġhipo teca
Ġpareci da
Ġdeb ida
Ġapell idos
Ġdel iber
ĠValent ÃŃn
ĠH igh
Ġcer ro
ĠTrin idad
wa gen
ĠCamp us
ĠA ur
Ġequip aje
ĠED UCA
ĠI T
A quel
Ġc lo
Ġ^ ^
Ġcatal og
Ġponer lo
Ġconstru yÃ³
Ġas pira
her e
Ġmonstru os
J unto
Ġalcal des
Ġocul to
Ġlament able
ĠAl guien
r ona
Ġni Ã±ez
ĠDu que
C RI
Ġlib rerÃŃa
Ġpun tual
ĠR enta
Ġilust raciÃ³n
ib o
r enta
Ġase o
mon d
r ing
Ġdic cionario
rec er
p ie
ĠG T
ĠCh ap
Ġcalific Ã³
Ġimplic aciÃ³n
Ġconf ies
Ġantic on
ĠEst ruc
Ġcre mallera
Ġre za
ĠA T
Ġquer ia
ar s
ell y
ĠfÃ¡b ricas
ĠS aba
d ome
Ġcu enca
Ġcoher ente
ĠCar acterÃŃsticas
Ġarquitec tos
Ġor gas
Ġlegisla tura
c c
Ġaproxim aciÃ³n
Ġreci bimos
Ġaf ines
ĠOr lando
Ġpel os
Ġca yeron
ques a
i antes
Ġclas ificar
cip es
Ġsen dero
ĠSil via
Ġcaball eros
ĠP ERS
Ġocci dentales
Ġor ina
c ales
Ġemp eÃ±
[ âĢ¦]
Ġsol tar
Ġelabor ada
Ġen ju
Ġminim izar
Ġmic ros
Ġretir ado
Ġle a
Ġacus a
Ġrecog idos
qu io
B an
lic k
Ġsolid aria
ĠM OD
ĠnÃ³m ina
Ġre medios
Ġ196 8
Ġbiz co
Ġquedar Ã¡n
ve da
Ġdis im
di mens
ĠS erÃŃa
Ġgo ta
Ġanal ista
ĠtÃºn el
ĠN ingun
Ġaudiovis uales
e duc
om al
C urso
Ġvolv emos
ĠV Ã©
Ġconvertir Ã¡
Ġper if
Ġma quil
don ado
Ġprivileg ios
ĠO mar
ĠMe dios
Ġfal s
Ġpene traciÃ³n
ĠpÃ¡jar os
ĠAn na
ĠPlan ificaciÃ³n
d Ã©s
ĠBau tista
ĠAr ti
Ġl Ã¡c
Ġvar iado
ĠEn e
ĠAra bia
ÃŃ lica
Ġfores tales
ment al
Ġat mos
ific ador
ĠB ron
ir os
Ġma p
Ġdiscul pas
Ġdu de
ĠA cos
bit raje
Ġencan tador
C ualquier
Ġa tiende
Ġbar celona
endi da
Ġexist an
Ġord inario
an ista
ĠCol um
Ġadjud icaciÃ³n
Ġpermit ÃŃa
le tismo
Ġgobern antes
Ġsing le
ĠAl um
T an
h Ã©ro
s che
c ero
Ġrob ust
Ġ rib
Ġexam inar
Ġjud ÃŃo
Ġb ea
ĠT os
Ġve amos
Ġcrea tivos
AC E
Ġvis itan
Ġpre co
cep tos
Ġquis e
ĠObje tivos
Ġarreg los
Ġdon aciones
w eb
Ġescog ido
UD AD
ĠPo p
ĠÂ ©
O h
M arÃŃa
Ġform ulaciÃ³n
U EL
Ġapren diz
IS TE
Ġencontr ados
Ġinaugu rÃ³
ĠLen gua
dr Ã©
Ġinf il
ĠbritÃ¡n icos
Ġtr om
vi dencia
F ER
Ġenfer merÃŃa
Ġencan tarÃŃa
Ġrelacion a
ĠAmeric ana
ĠSol ar
Ġrevel ado
Ġtur ÃŃsticas
ĠtÃ©r mica
ĠSte ve
cion ando
ĠCar naval
ADR ID
Ġcontrol ada
figu raciÃ³n
Ġvis ite
Ã© lica
Ġvent ilaciÃ³n
Ġproducir se
L u
ĠH isp
Ġestren os
Ġactu aliza
Ġreper cusiÃ³n
Ġingre diente
Ġque ma
Ġcar ril
Ġlogo tipo
Ġitiner ario
Ġestar Ã¡s
Ġpade cen
Ġsuel dos
ĠCar ab
Ġparlam entario
Ġre mitir
Ġcan tera
ĠCor ona
Ġma estrÃŃa
Ġedi ficaciÃ³n
Ġpobl adores
Ġcas arse
Ġsuave mente
ver y
ĠOf fice
Ġfij aciÃ³n
Ġmonitor eo
M al
Ġpal ma
Ġintegr ales
Ġcoca ÃŃna
Ġagu jeros
Ġpost res
ĠestratÃ©g icos
Ġobserv ando
pro ducciÃ³n
j en
ros iÃ³n
ĠDes ign
ĠLabora torio
ol las
Ġtermin aron
Ġpe dal
ĠR ap
Ġcont ing
G ener
Ġhorm onas
Ġarbi trar
ĠA va
p to
Ġes clar
Ġse pul
p io
Ġdespren de
m ÃŃn
Ġinvers ionistas
ĠPen ÃŃnsula
Ġb lin
Ġlogr arlo
Ġconsul te
Ġende ud
Ġselec ciona
Ġca tedr
ci adamente
Ġfal se
Ġresuel ve
Ġsatisf echos
Ġinforma tiva
di ble
Est im
ĠToda vÃŃa
ol in
ĠC aj
Ġhab itan
Ġps ÃŃqu
ĠPremi um
ĠO P
Ġviol entos
ĠCab rera
Ġcar bo
cal a
ci an
Ġder ra
ĠT ren
ĠCom pos
Ġpres ento
ĠHerman dad
ic on
Ġcab ellos
ĠestÃ© tico
ĠU ribe
Ġpato logÃŃas
Ġsuple mentos
Ġbrin dan
Ġcorpora ciones
Ġandal uz
Ġelev aciÃ³n
Ġc esiÃ³n
Ġat entados
Ġn ÃŃ
Ġequilib rada
Ġpar cela
ĠÃī ste
ĠP OL
Ġexclus ivas
Ġte mpl
ĠMe xico
Ġpoten cias
Ġred ondo
ĠPresiden ta
ĠÃ¡ra bes
Ġfavor ables
Ġincom pati
Ġgobern ar
Ġmedal las
ĠsÃ©pti ma
Ġvisit ando
T om
! âĢĿ
ĠN el
Ġcar os
ab eth
mb res
Ġmi ro
Ġcre aron
Ġproli fer
ic an
ĠA du
m ad
Ġing esta
Ġa eropuertos
Ġdependi entes
Ġadver tencia
Or gan
Ġorganiz Ã³
ul ia
ĠBo ok
Ġenga Ã±o
Ġtom arÃ¡
Ġconsul torÃŃa
Ġrecomien dan
Ġenc aje
ĠmetÃ¡l ico
de za
Ġacudi eron
Ġabdom en
Ġi dio
ĠEstad ÃŃstica
Ġi remos
Ġb all
ron to
Ġhor ne
ĠD im
Ġgrie ga
Ġbio diversidad
Ġintegr ados
Ġpul so
Ġp ila
Ġpref ieres
Ġdic tamen
Ġvent an
Ġtir as
Ġconcent ra
ĠobstÃ¡ culo
Ġp leg
Ġcuad ra
Ġidentific ados
idad os
B l
Ġtu tor
Ġdiv or
Ġorganiz an
Ġevent ual
? ...
ĠSuper inten
Ġh ur
Ġrevel ar
Ġmodern idad
ĠA pertura
on el
Ġdelic ada
ĠC RE
= =
Ġimpos ibilidad
pe uta
Ġfores tal
tr icas
ri era
Ġrepos o
re la
Ġestren a
ĠExp lor
Ġlo cu
Ġbar bar
Ġactiv istas
se mos
ĠG ib
Ġcri tica
ĠPr ueba
an Ã¡
Ġmin eros
Ġcontribuy entes
Ġinoc encia
Ġflu jos
ĠF Ã³rmula
Ġproyec ciones
i us
Ġas piraciones
ĠquÃŃm icas
Ġpre dio
ĠEx iste
ĠMuch o
ĠNet work
Ġad u
ĠExper iencia
tel la
Ġactu ando
Ġdomici l
Ġren al
Ġcil in
pen as
Ġmis er
Ġfrust raciÃ³n
Ġe ri
Ġcompar to
Ġse vil
Ġdes bloque
Ġbanc ario
Ġesper aban
TA CIÃĵN
Ġcoopera tiva
ĠCon temp
ĠDI REC
Ġcon table
if f
Ġse des
Ġpa ul
Ġn oroeste
Ġmanifes tar
ĠRoy al
uy Ã³
Ġprepar an
por tivo
Ġord inaria
Ġcompa trio
in dust
dr ÃŃan
L ES
ĠYuc atÃ¡n
F I
ĠcÃ©le bre
Ġcor o
Ġcoron el
Ġfirm eza
Ġglob alizaciÃ³n
Ġintroduci do
ĠE jerci
o cup
Ġequiv ale
Ġlleg ara
Ġentren adores
f ort
Ġpos te
cu er
Ġviol ento
rer ÃŃas
Ġpeda zo
Ġtrem endo
ĠRom Ã¡n
ĠEm il
Ġir res
Ġactiv aciÃ³n
Ġat ribuy
Ġperci be
Ġco cciÃ³n
Ġpeligros as
Ġconce de
Ã©cn ica
Ġse car
Com par
Ġ umb
Ġmolesti a
ĠBos ton
wit ch
ĠEl lo
Ġreco gen
ig encia
da te
Ġtrans f
F or
V ol
Ġch amp
Ġacudi Ã³
Ġpertin ente
Ġdistribu idores
Ġacar ici
Ġquedar ÃŃa
ĠI X
Ġbuscar Ã¡
Ġrecord amos
av ent
J ER
Ġdist ritos
p lo
ĠBol so
Ġdes gar
ĠU crania
Ġtel es
ĠN um
ĠZ a
ĠP av
Ġsegu idos
Ġmulti discipl
ĠY u
V AL
Ġopos itores
Ġorg Ã¡nico
Ġincre menta
Mu jer
di st
ay uno
ÃŃ en
Est ados
Ġadelan tar
Ġrecur rente
Ã³ metro
ĠreÃºn en
Ġsens ual
ĠCar l
ĠCon de
Ġdesconoci da
Ġremo del
Ã© taro
Al go
Ġexten s
Ġpist ola
Ġrespe tando
ĠSam uel
Ġas ciende
Ġdetermin Ã³
Ġpade cer
ĠIz quierda
Ġcompren dido
ĠNorm almente
ate ar
Ġcan on
Ġcons ciencia
Ġpes cadores
ĠN is
Ġinsist iÃ³
Ġdo g
Ġhe gem
ĠVic tor
Ġdesapareci dos
ĠVol un
ĠFre e
Ġdef orm
Ġn ul
Ġhomosex uales
ad illas
Ġins a
Ġrefle jar
Ġno ci
Ġsu ba
Ġall i
ĠParti cipaciÃ³n
Ġdi rÃ©
Ġampl itud
ks wagen
Ġconoz can
Ġcon de
blog s
Ġesper as
Ġgri tar
Ġdeses peraciÃ³n
rac k
Ġdo tar
ĠcomÃºn mente
icios as
Ġdocument ales
Ġan ex
ĠO ruro
Ġrom ance
Ġarran ca
Ġagro pecu
Ġf rigor
ĠCic lo
Ġna z
Ġpreocu parse
Ġloc alizado
Ġ198 1
aliz arÃ¡
Ġbaj ando
car ia
Ġterap ias
Ġseman ales
ch et
ĠFer rari
Ġrecord ando
ĠAdo lesc
r r
Ġele va
ĠR ue
Ġrecop il
Ġproxim idad
ĠA lar
el s
in ho
Ġver los
Ġcin es
par encia
Ġsuce diendo
ĠResta urante
is cos
los a
ĠP AS
Ġan imo
Ġin her
Ġc enta
ĠAnti guo
Ġpun tuales
ĠChi huahua
le a
Ġluc e
Ġsemej antes
Ġdistribu idor
Ġsen derismo
Ġdef ra
Ġcomp rando
Ġdem ora
edi encia
Ġingres Ã³
do lfo
Ġesque mas
inos au
Ġadj un
ĠPok Ã©mon
Ġconstitu ido
Ġ% .
c ab
de as
Ġcompati bilidad
Ġna tivos
Ġretom ar
Ġcicl istas
Ġcumpl im
Ġenfrent amientos
u des
Ġpers igue
ĠEsc uelas
ac emos
ĠN ik
Ġestren Ã³
ĠD anza
ĠPaÃŃs es
in illa
Ġcaus ando
ĠW atch
Ġan dan
V ide
Ġb illones
ĠNe u
Ġlad rones
l la
Ġtub erÃŃa
Ġ17 0
ĠMedi ante
Ġacor des
d d
ĠDe tal
Ġc acao
Ġopera tiva
Ġdesem bar
Ġpetrol era
Ġalter n
Ġins iste
ĠcuÃ¡n tos
Ġcinemato grÃ¡fica
Ġelig iÃ³
Ġpo pul
vis a
Ġdev as
Ã Ĺ
Ġconcl u
Ġsuperfici al
ĠE vo
Ġdi le
Ġver ific
D an
Ġpl ural
Ġconsigu ieron
na p
de pendi
ĠTok io
ran as
ĠAr que
Ġlig ar
ĠAd ul
am on
ĠO cho
ĠPre cios
Ġsus crip
Ġconcl uido
ĠB U
ĠB Ã¡r
k ins
Ġd amas
Ġmedi aciÃ³n
ic om
200 1
ĠDeb emos
Ġdes alo
Ġsal gan
Ġrepeti ciÃ³n
y y
ĠJ on
Ġproces ar
ĠOpera ciones
Ġin cul
ĠC umbre
Ġrep i
Ġcompeti ciones
ed icto
ĠAlex ander
Ġun animidad
graf ia
ĠT ac
Ġma trimon
Ġpregun tan
Ġisrael ÃŃ
Ġpod ÃŃamos
Ġfrecu encias
l Ã¡mico
Ġperci b
Ġmadrile Ã±o
Ġvertic ales
Ġfin alizaciÃ³n
ĠInstitu ciones
Ġcrip tom
Ġcas ado
ĠConce jal
Ġco lega
j un
qui dez
ĠperiÃ³ dicamente
Ġex ilio
Ġdu reza
ĠVis ita
Ġasum iÃ³
ĠS tra
Ġjapon eses
it re
ĠC i
In s
Ġform ales
Ġbloque ar
ist ra
ti ciÃ³n
Ġdispu tar
per as
dr omo
Ġhay amos
Ġsum ando
Ġten iente
ĠquÃŃm ico
ĠM et
Ġase gÃº
ĠNa tional
form ance
Ġconstitu cionales
Ġrecha za
esti dad
ĠP E
os e
Ġdestac adas
t l
ĠG O
Ġrela x
Ġsen da
qu ot
ĠPar lam
ĠMa ta
Ġges tor
Ġor n
Po co
Ġ( -
d onos
ĠtÃŃp icas
Ġbre ves
Ġlegisla tivo
ĠD A
Ġano tÃ³
Ġprom ul
Ġmuch achos
ĠâĤ¬ .
ĠEmp ez
es co
ab amos
w o
Ġha gamos
ĠV iz
Ġsuper ando
Ġsecre ta
ĠM X
Ġc i
ĠPro gramas
ir as
ĠResul tados
Ġcontamin antes
Ġregist radas
Ġpres o
em bra
Ġesc Ã©n
ĠAvis o
Ġdist ingue
ĠM Ãī
ĠA mp
Ġmal la
Ġvera cidad
Ġaplic arÃ¡
Ġaj enos
Ġyou tube
ĠEnfer me
Ġsac ando
Sta tion
Ġagrad ables
Ġconden s
Ġi mb
ĠR ecu
Di rec
Ġsan itarias
Ġabandon Ã³
Ġpes taÃ±a
Ġcual ita
Ġse cas
... ,
Ġval iosa
Ġartic ulaciones
Ġcrist ianismo
es io
Ġr entas
Ġmay ormente
ĠB adajoz
Ġajust a
Ġimpu gn
ĠH ard
Cu Ã¡les
ĠFal ta
sen al
Ġpres untamente
p Ã¡
Ġmodern izaciÃ³n
re f
e lec
Ġmoles to
Ġconfidencial idad
Ġsal imos
Ġcontrovers ia
Ġrepubl icano
Ġinstan tÃ¡nea
Ġlo gre
ĠCrist ian
ĠBus ca
ĠMa estrÃŃa
Ġmaravillos os
Ġconta bil
ĠEstrel la
Ġinver na
Ġcompeti tivos
ĠArm ando
Ġabst en
ĠMo de
ĠFlor encia
Ġcal entar
ĠmarÃŃ timo
ĠTru jillo
Ġtraduc tor
ĠAlim entos
Ġmara tÃ³n
ĠÃ³p era
ĠProfes ores
Ġorgullos os
Ã©nd ome
Ġgo za
Ġreper cu
Ġinsu mos
ĠlÃ¡mp aras
Ġviv encias
Ġmis ericordia
Ġrev olu
ĠdÃ©ci mo
Ġcome tidos
ĠS C
Ġdepor tista
Ġval er
Ġch am
Ġg us
Ġagr ado
ĠMar tÃŃ
c amente
ament ablemente
Ġgen iales
ĠTribu taria
Ġm entes
Ãº r
Ġemb ri
ur go
Ġs uela
Ġad ulta
ti embre
ĠKe vin
Ġmin ia
ĠcompaÃ± eras
Ġvoc al
Ġpedir le
Ġman us
Ġper didas
ĠF ru
ĠLuis a
Ġper didos
ist entes
Ġtradicional mente
Ġadj unto
ici dios
Ġconcent rado
ED AD
Ġen unci
Ġdesarrollar se
ĠMat ÃŃas
Ġpro le
ĠÃŃ bamos
ve dra
es col
Ġal t
Ġregular es
Ġsaber lo
ĠN UE
ĠIb iza
izar ra
Ġdesb ord
ĠA th
Ġenga Ã±os
Ġalfomb ra
ĠS EM
Ġpreca uciÃ³n
ĠF ores
vers iones
Ġfund ado
F L
Ġ !!!
Ã ¯
Ġfacil itan
Ġra m
cos a
Ġacab aba
ĠAso ciaciones
Ġde tiene
se ver
ent er
Ġacredi taciÃ³n
Ġtur nos
Ġn as
Ġbas an
ĠÃŃn timo
Ġdest itu
Ġpanor Ã¡mica
Ġinv ir
Ġbene f
c ter
ĠLo uis
ĠDi ana
Ġestrech o
z go
B E
Ġcolabor ador
Ġmi ti
ven idas
Ġvege tar
Ġorg Ã¡nicos
ĠPubl icidad
Ġcre adas
ĠGer mÃ¡n
Ġartes anos
ti es
Ġmuch acha
Ġtri logÃŃa
ĠEl im
Ġa fer
Ġblan que
Ġpe ques
Ġexpres o
da y
res as
es tra
ona er
Ġdestac ada
ĠlÃ¡p iz
Ġadh esiÃ³n
ĠEn trada
Ġcal ifica
T Ãº
Ġman dos
Ġindi cios
ĠJa zz
Ðµ Ð
Ġcon gres
ĠS af
Ġdes emb
Ġalo jar
ble mas
ĠEx posiciÃ³n
Ġvalor ado
Ġinjust icia
Ġcontrad ic
Ġcomenz amos
Ġvincul ada
Ġconce der
Ġsa tur
Ġjoy erÃŃa
ĠEstra tÃ©g
G ar
Ġoptim ismo
ĠVene cia
Ġescal ada
ĠVic epres
fa to
Ġvin ieron
Ġso pa
Ġencontrar emos
¸ ı
il d
ĠCer ca
ur nal
Ġcomprome tida
ĠHit ler
um Ã¡n
": "
ĠApo yo
Ġre habil
aj ua
ĠJ as
ment s
ĠBan g
Ġan illos
ies e
Ġdi ente
ĠB is
Ġprosper idad
amil iar
Ġconfun dir
Ġinesper ado
ĠV entas
Ġro bos
Ġgalard Ã³n
Ġat ribuye
ĠB y
Ġproven iente
Ġver sion
Ġadap te
uel tos
Ġno va
ĠM ike
Ġhistori ador
ĠJane iro
Ġactu alizados
ĠSab emos
Ġtorm entas
ĠDes ta
Ġand ando
ĠEs cu
Ġdecor ado
ĠVi olencia
ĠBomb eros
A utor
Ġdeci da
Ġros tros
ÃŃ b
ĠN BA
Ġdist ribuy
Ġmilag ros
I ER
l Ã©
ĠIn versiÃ³n
Ġcal aba
Ġagrupa ciones
iv ado
Ġdefens as
Ġmedi ana
TU LO
Ġm ajes
Ġol ores
alu dos
ĠSon ora
Ġdifer encial
Ġver sa
Ġconstitu ir
Ġs w
ĠEstrateg ia
Ġcompar ado
Ã©rmin os
Ġadver tir
Ġajust ado
Ġbaj ado
ib ar
B U
Ġme xico
Ġasist ido
Ġplante an
ĠO ce
ĠG ame
ĠcÃ³ c
b is
Ġar ticular
Rec or
ĠmÃ¡x imas
ĠCons um
it ness
Ġe h
Ġno ciÃ³n
ĠAngel es
Ġvir al
ĠVe h
Ġenga Ã±ar
D R
Y O
ĠL am
ĠGra cia
Ġverte b
Ġano tar
rocarb uros
ĠC UR
Ġsignifica tivas
MIN IS
Ġrec am
nab is
Ġa tor
Ġpor tales
Ġvia jan
ad s
eci da
ĠT S
ĠS M
ĠgrÃ¡ ficas
ĠLicencia tura
Ġpa trimonial
ĠTele comunicaciones
Ġacu den
ĠSo uth
Ġdesemp le
ĠMexic ano
Ġtremen da
Ġtu rista
Ġprome tido
ĠAri as
Ġar du
ĠJ ona
Ġclas ificado
Ġabier tamente
Ġguar dias
ist ir
ĠSan dra
Ġagrade ce
Ġcoher encia
Ġpl omo
C os
ach as
ĠC M
Ġpas arÃŃa
ĠPerson ales
Ġus arse
Ġ( Â¡
ĠT ony
Ġcafe terÃŃa
Ġpade ce
ante mente
Ġbio grafÃŃa
ĠEnseÃ± anza
Ġpat rio
Ġgros or
ĠVirgin ia
ĠCla us
Ġmor ena
Ġv est
v ich
ĠVil lanueva
Ġmen stru
ĠC ual
ĠT oma
ĠmÃŃ os
Ġcomprome ter
ĠK ong
Ġimp edi
enta ciones
Ġtraslad Ã³
Ġmutu o
Ġencar gar
Ġorigin alidad
Ġcontex tos
Ġdisp uso
Ġcaracter izado
Ġape tito
P ens
quil las
ad ir
Ġ| --
r entes
Ġconsidera ciones
Ãī l
Ġtit ulaciÃ³n
Ġdetec tado
gu esÃŃa
ĠUN ESCO
ĠDes cu
ĠsÃŃnt oma
Est u
Ġverda deras
Ġparti endo
ĠP it
Ġinclu irÃ¡
ien za
Ġcal ibre
ad ita
ver tido
ĠEdi ciones
Ġinmedi aciones
ĠIngenier o
Ġdisput ado
ĠUN IVERS
Ġ10 5
ĠestÃŃm ulo
C entro
Ġal lan
hidra tos
Ġconvir tieron
ĠP eso
ĠS ÃŃn
po le
Ġmuer en
Ġdesapar eciÃ³
OL A
x ia
land Ã©s
ĠM am
Ġsim il
ol is
ĠJ ueves
Ġplante Ã³
Ġobserv Ã³
Ġgal lego
Ġcol lar
ĠRed acciÃ³n
inten a
ĠA go
Ġpas Ã©
ĠN ASA
in aron
Ġins pira
Ġinsul ina
al ina
Ġinform amos
Ġven cimiento
TIV OS
ĠT us
Se gun
Ã¡ tiles
ĠSi mp
ĠcÃ©l ula
Ġor iente
Ġesca pa
ĠAm erica
ĠJac ob
Ã©l ico
Ġ36 5
heim er
Un iversidad
Ġge omÃ©tr
ĠDisfru ta
rel aciÃ³n
u ciones
ĠBern ardo
Ġincent ivos
Ġmar can
Ġsuper an
ĠPubl icado
M ira
ĠM ON
ac ol
Ġpais es
ĠSal to
ĠAmb as
ĠNor uega
Ġmeter se
Ġ ÃŃdo
o ur
Ġgaranti zado
ĠEl iz
Ġur nas
ĠDis co
Res puesta
Ġescla vitud
ĠMicho acÃ¡n
Ġapar ecieron
ĠFuer on
ĠmetÃ¡ f
ĠL il
Ġca torce
ĠPol o
Ġclaus ura
Ġar til
ĠIN FORMA
Ġs anos
Ġdetal la
Ġejecu tiva
Go ogle
ĠAut on
ĠPresu puestos
Ġb its
tÃ¡ r
Ġexcep cionales
i tivas
Ġpal os
Ã³d ulo
ĠBea triz
ĠM uebles
Ġres eÃ±
f onos
V ia
Ġvolv ÃŃ
Ġpiz za
J u
Ġesc ort
Ġcompr Ã³
Ġenv ases
Ġapla udi
Ġ Ã¡t
ĠFan tas
Ġob rero
ĠRub io
Ġemp atÃŃa
ĠCOM P
ĠPer manente
Ġast ron
Ġdieci s
ĠMal donado
ĠJ Ã³venes
Ġinfl uye
Ġurg entes
Ġba hÃŃa
Ġquer amos
ĠF L
Ġmar ro
Ġcontribu ciones
Ġcar encia
Ġefec tivas
Ġecos istemas
n ic
ĠE UR
2 50
Ġur gencias
Ġres tante
Ġfr om
ĠHu a
itar iamente
Ġbel los
uer do
Ġconsecu tivos
par ar
Ar gentina
Ġdemoc ra
Ġflam enco
Ġsinc ero
Ġpre dis
ĠCom en
ĠCon t
Ġdecis ivo
Ġgluc osa
Ġexpe dientes
Ġdej as
Ġhom ogÃ©n
Ġac ome
Ġmar cos
Ġfabric ados
ta in
Ġdes fil
ĠL ine
Ġfoto grÃ¡fica
Res oluciÃ³n
Ġbu ques
ĠM ala
Ġconf ÃŃa
ĠAs unciÃ³n
Ġconcent raciones
Ġcorrespon dencia
Ġindi que
Ġemis ora
Ġrespec tivo
Ġvein ti
ĠGir ona
Ġasegu rando
Ġinnov aciones
m isiones
ĠBar ra
Ġcomb inan
Ġhidra taciÃ³n
Ġf ero
Ġactiv as
Ġaf ian
tiv ismo
Ġsosten ido
Ġconvoc ar
ster dam
ĠOri ental
Ġres ign
h l
Ġplac ent
dibu jos
Ġac cionar
Ġflu ido
s ulas
Ã¡s quez
pe da
Ġin ger
Ġjuz gados
Ġ _
ch or
ĠM isiÃ³n
Ġcan je
an ces
Ġdescan s
nos o
Ġest al
Ġhallaz gos
ĠCer tificado
Ġcrim in
ĠBienes tar
Ġm p
ĠmÃ¡r mol
ĠImp res
it ÃŃ
Ġcerv ezas
ĠD un
Ġemp laz
ĠX I
Ġmo ciÃ³n
Ġ11 2
ĠIn icia
Ġder ma
S cript
Ġen re
Ġlevan tamiento
ven o
ĠmaÃ± anas
Ã¡c ticos
ĠS l
Ġreiter Ã³
bl an
Ġcom a
ĠG Ã¼
ĠBach illerato
ï ¸ı
Ġtrascen dencia
ĠF lash
Ġexp uestas
Ġser iamente
Ġqued aban
Ġde di
Ġvari ante
Ġna taciÃ³n
Ġpeque Ã±
ci aciÃ³n
Ġres uci
Ġarm ada
Ġsen adores
Ġcompens ar
Ã©st er
Ġfantas mas
ĠDepor tiva
Ã¡n gulo
AD AS
ĠA Ã±os
Ġtri pul
Ġal ien
ĠRespons abilidad
p ÃŃ
P RE
F F
Ã¡ ez
ĠB s
je tivo
Ġinsu ficiente
Ġnotable mente
car as
Ġgal erÃŃas
Ġla tÃŃn
Ġto b
ĠGENER AL
DUC CIÃĵN
ĠDan i
Ġsolid ario
Ġmi re
Ġh ort
tÃº e
ar cas
Ġin ces
ĠH all
Ġdes centr
ĠG om
ĠmÃºlti ple
ĠL ife
Ġacord Ã³
p ez
ĠCatal ina
Ġoblig Ã³
co po
Ġcom ento
Ġnie tos
Ġdo tado
u tar
Ġgu antes
Ġbo letos
Ã©st or
Ġmexic anas
ĠG N
Ġperder se
Ġnubl ado
F e
erv o
Ġven imos
ĠG ig
ĠBlue tooth
il ancia
Ġprim ario
po ca
Ġadelan to
ĠZel anda
B B
Ġpac ÃŃfica
Ġf ide
Ġperf ume
Ġar quero
ĠNuev as
m Ã¡
ĠIn mobil
ĠOc t
Ġra yas
Ġases inos
Ġgan aron
Ġdefin idos
Ġgarantiz an
Ġauxiliar es
CuÃ¡n to
ĠAnal y
Ġfin as
Ġentra Ã±
lar se
ĠBo de
b oy
Ġz ana
Ġplan ea
e dia
Ġd adas
Ġt entaciÃ³n
Ġnucle ares
Ġbode gas
Ġtr ÃŃo
Ã² n
Ġpro gen
ĠT EC
ĠInstitu cional
so cial
v oc
s ent
Ġsocio econ
ĠEs os
F un
gen as
Ġbarb acoa
Ġcir co
ĠacompaÃ± antes
ĠAb ierto
Ġeconom ista
Ġconden ados
ĠDoctor ado
ver tir
Ġcons istencia
Ġ19 36
Ġcer radas
on ada
Ġasfal to
E res
j aron
Ġconsegu imos
Ġfin aliza
Ġamor tigu
Ġconcep tual
Ġadmi ra
Ġinterpre tado
Ġacre edores
Ġfer rocarril
ĠA se
ul es
Ġestar Ã©
Ġautor iza
Ġalum b
c racia
Ġdispar ar
Ġor eja
Ġtu vieran
ĠteÃ³r icos
ĠD ibu
Ġcoloc Ã³
tÃ¡n eas
Ġ/ /
Ġtron co
ĠEx po
ĠAl z
Ġcontin ental
ĠUr bano
il able
ĠD icha
Ġalter ar
Ġalmacen es
Ġconsider adas
dil lera
Ġorden a
Ġ197 4
Ġpas iones
Ġreac tiv
Ġreemp laz
Ġnul idad
ĠB BC
we i
ĠEnfer merÃŃa
Ġcolor ido
seÃ± or
ul ip
ĠJohn son
Ġhin cha
Ġdesas tres
Ġreduc en
ĠX L
ĠGer ente
ĠGe org
U AL
vi ra
ĠGab ri
ĠAl ber
Ġan arqu
ĠEcon om
G P
ch en
Ġtransforma ciones
Ġme tiÃ³
Ġac op
Ġtrans ferencias
Ġdegust ar
Ġmas ter
Ġfelici tar
aj ust
Ġpost ul
ĠA genda
Ġdistribu idos
ĠArt ÃŃculos
v or
ph one
ĠK it
Ġvol vÃŃa
Ġinten sos
Ġtemp los
lan ta
is es
Ġregist rarse
Ġab rum
n on
Ġpresentar Ã¡n
Ġar omas
Ġm y
le ar
ĠP ales
ĠVill al
g amiento
Ġle Ã±a
Ġconces iones
Ġconsidera ba
ĠQuer Ã©taro
Ġfran ja
Ġproduc tivas
Ġcaus an
ĠL iv
Ġtum or
Ġra mo
Ġe d
ĠM B
gra ph
ĠCap itÃ¡n
Incl uso
ĠCe cilia
ĠD ÃŃas
Ġil usiones
Ġinsu ficiencia
dar d
Ġam ino
Ġmagist rados
Ġsel los
ĠP om
ĠacadÃ©m icas
Ġagra v
Ġsu ciedad
Ġempi ece
Ġilust ra
Ġanfitri Ã³n
ĠPu tas
ton io
ĠV lad
Ġclas ifica
ĠBo x
Ġpremi um
P EC
Ġcu enten
Ġra y
Ġoportun a
ti dor
ĠOc ta
Ġver dades
Ġpo Ã©tica
N S
er ial
âĢĿ ).
Ġdu do
ĠLu x
Ġrestr icciÃ³n
Ġestric to
M Ã¡
Qu ien
igh ts
Ġdesf avor
Ġrec to
bl ar
ĠV ino
ĠNe gra
Ġvib ra
Ġsi te
ĠHer ramientas
ĠV itoria
Ġcompos iciones
h as
ten os
cer ca
Ġf lan
Ġcomen cÃ©
Ġgrie gos
Ġsust ra
Ġbl ack
ĠanÃ©cdo tas
ic Ã³
Ġr aras
fec ciÃ³n
ĠCir cuito
rÃ³ geno
ĠHab rÃ¡
Ġbur guesÃŃa
Ġcompl icidad
Ġrecha zado
tor iamente
ĠTa ilandia
ĠEd gar
Ġlle gas
temp orada
" ...
Ġca f
Ġvac unas
Ġg ro
Ġmay Ãºs
Ġmostra ba
Ã©ndo la
ĠSosten ible
ĠW at
R ob
tu rismo
Ġdo Ã±a
ĠMar bella
Ġesca para
ĠBB VA
Ġc itados
Ġmar inos
Ġderro tas
S itu
Ġbusc Ã³
Ġrecor te
Ġinm or
ĠHa ga
Ġacer can
ul ce
Ġpa pas
Ġpublici tarios
ĠDi jo
Ġco oper
âĢ¦âĢ¦ âĢ¦âĢ¦
Ġagu da
Ġases inados
ĠG ana
Ġlap so
un dan
ĠS as
Ġinteres an
ĠP LA
TR UC
ĠMa Ã±ana
Ġorganiz adas
Ġpreten dÃŃa
ĠTerri torial
p lante
fo x
Ġvi abilidad
ĠIn dic
Ġestro pe
AN DO
Ġalcan tar
Ġdescrib en
Ġso cor
can s
Ġacer c
Emp resa
mo der
ir us
Ġan tiv
ARI OS
Ġedi tores
ĠCre aciÃ³n
Ġinscrib irse
Ġjer arquÃŃa
Ġocup Ã³
Ġcerem on
s el
ĠM emor
Ġfemin ista
Ġdar emos
H as
Ġdedic arse
ĠEn car
Ġest res
ĠFran ces
Ã¡n eo
ĠespÃŃritu s
Ġdi mos
ĠCÃ¡r denas
Ġa diÃ³s
Ġextra ter
Ġdeclar ada
ĠMo di
Ġcontes tÃ³
Ġm ÃŃtico
Ġpos es
ĠCh u
Ġvi able
Ġembaj ada
Ġdesagrad able
ĠDu ran
E di
ĠV ac
Ġllam aron
tor rent
Ġred onde
ĠfilÃ³so fo
ĠtrÃ¡ iler
Ġperten encia
ĠGuar da
Ġver b
ĠC ENT
? -
Ġra cha
ĠInv ierno
ĠContac to
Ġdevo ciÃ³n
Ġexist ido
g rano
ĠB ust
qu ien
Ġavis os
ĠAn tio
Ġo don
ĠCu entas
ĠSÃ¡ bado
Ġaproxim ado
Ġocta vos
/ .
Ġconvers ar
ĠTuc umÃ¡n
Ġbar ran
Ar ch
Ġcritic ar
Ġproce derÃ¡
ĠHo teles
Ġstre aming
ĠC ay
Ġnota bles
Ġaje drez
ed y
Ġmin orÃŃa
ĠCor reo
Ġrespec tiva
Ġtribu to
Ġextraord inarias
ĠCir ugÃŃa
dos a
es pecial
Ġentr aron
Ġdesen f
Ġentreten ido
S ub
ĠG imnas
ĠÃī sta
Ġaum entos
Ġtranquil os
Ġtern ura
Ġsilic ona
ĠL lo
Ġanci ano
& #
ĠRob in
gl ish
Ġsos tienen
ĠtÃ¡c til
ĠRies gos
Ġlider ado
ĠCateg orÃŃa
ĠN aran
ĠJo han
Ġindi ferente
Pre gun
N uevo
-------- --------
p ino
ĠBus h
U A
@@@@@@@@ @@@@@@@@
Ġbol sos
Ġmagist rado
Ġbesti a
N adie
Ġdirec trices
Ġquer ÃŃamos
T ar
ĠPo tos
Ġimag inario
Ġauric ulares
Ġestudi antil
ĠF uen
Ġman go
ĠStu dio
Ġrebel des
ĠComp rar
Ġgri pe
Ġacces orio
we et
Ġj ar
ĠEst ilo
Ġf ro
ĠDin amarca
Ġmal eta
Ġparlam entaria
ĠReg ist
ĠClas e
l um
ĠToy ota
ĠJu ana
esti m
Ġmedi anas
Ġli quidez
ĠCuar to
n el
Ġob ispos
ĠSud amÃ©rica
Ġec olÃ³gicos
Ġdoctor ado
Ġ Ã©s
Ġind icaciÃ³n
Ġrela jar
Ġad icciÃ³n
ĠP ack
duci do
Â ¨
Ġbon dad
O fre
and y
Ġ19 50
ĠMercan til
Ġn acen
Ġcar idad
ĠGreg orio
Ġfer til
ĠBoliv ariana
Ġantioxid antes
l aciÃ³n
Ġinvestig adora
is i
Ġma x
ĠVer dad
Ġprece dente
Ġpreocup ante
Ġcomien ce
Ġpele as
Ġcu pones
Ġpas as
Ġllama tivo
ĠSala zar
te to
Ġmen Ãºs
Ġpal p
ĠBan k
ĠI ES
gu aya
Ġtem er
i arse
Ġimp a
ti ente
Ġcarbo hidratos
Ġmejor an
Ġestable zca
IS A
Ġas amble
Ã¡g ina
ĠMana gement
Ġcan tando
Ġg it
Ġdi ar
Ġne to
Ġdese ada
Ġexist ÃŃan
Ġ- .
Ã³n gase
Ġapropi ada
T a
Ġo ye
Ġres eÃ±as
pu ra
Ġmultina cional
Ġ- >
l ib
u dad
Ġâ ĸ
Ġl itro
Ġimp lÃŃ
Ġpos ts
Ġv iste
Ġesper ada
ĠPlay Station
ĠRom ano
U ES
Ġplen itud
tr Ã³p
Ġcent rada
ĠmicrÃ³ fono
Ġt as
ĠOrig inal
Ġpres tan
Ġse pas
Ġpe dÃŃa
Ġsinc era
" ;
Ġdi rÃ¡
Ġimp o
ĠSol id
Ġgrande za
Ġnorte americanos
ad illo
F ES
ĠI di
Ġextra Ã±as
ĠClin ton
ĠAs socia
Ġabur rido
s Ã³lo
f obia
Ġeng lo
GRA MA
Ġcab ez
Ġcicl ista
Ã¡ mp
Ġpropor ciones
ac tivo
ĠAbra ham
ci ados
in da
Ġbenefici arse
F ern
Ġre puesto
ĠCo okies
Ġcrea tivas
ĠSal ta
Ġen ca
Ġestim aciÃ³n
ĠUn as
iar ias
Ġapun tado
ĠautÃ³ c
em on
Ġsopor ta
Ġpas ivo
ĠDra gon
ĠG RAN
Ġsuav idad
ĠDemocr Ã¡tica
Ġton to
Ġtercer as
Ġrap ido
Ġderiv ada
Ġsu presiÃ³n
ĠMa teriales
ĠPR D
Ġdesn udas
Ġdespe dir
Ġdisfra ces
) ...
ajua to
Ã¡zar o
ĠRog er
Ġmo jado
ga te
Ġflex ibles
Ġv istos
ĠG r
ĠteÃ³r ica
Ġsac an
Ñ Į
Ġz umo
Ġrum or
Ã¨ s
Ġejecu ta
Ġpermi tieron
Ġn adar
Ġrepor tÃ³
Ġayudar nos
Ġnovedos o
Ġcel os
ĠPerio dismo
Ġsus ur
C las
Ġcaus ados
con oci
gues as
Ġespl Ã©n
ur y
Ġve cinas
ĠH ong
Ġvers Ã¡til
Ġtriun fos
c us
ĠE fe
cis co
ĠCOM UN
Ġdemas iados
Ġhuman itaria
Ġinst antes
ĠH ero
Ġhe p
ĠFel iz
u mos
tu osos
ĠV elas
Ġgobern ante
ĠCort Ã©s
Ġse di
ĠX ia
ĠIm Ã¡genes
ĠmolÃ© culas
Ġrebel iÃ³n
ĠprÃ³x imamente
Ġpsi quia
Ġfres cas
Ġconj un
Dis eÃ±o
ĠD ado
ĠseÃ±al ando
Ġpa usa
Ġtranscur rido
ĠCro acia
ĠN adal
Ġvac ÃŃa
Ġrebaj as
Ġvocab ulario
Ġp aja
fin anci
ĠSal as
ĠNeces ita
qu ista
Ġreflex ion
Ġsimp a
er ie
ĠVe ter
Ġaprob ados
Ġpotencial mente
ĠGol fo
ĠSuperinten dencia
ĠM ÃģS
Ġculp ables
ĠCan c
ĠLis boa
ĠMatem Ã¡ticas
ĠBat man
ĠAn to
Ġreproduc tor
Ġcri anza
Ġconsul tora
ĠV ila
Ġpar ciales
ĠR ED
e gu
Ġdef endido
ĠN ico
Ġrepubl icanos
Ġsistem Ã¡tica
Ġpor terÃŃa
ĠS IM
Ġma tÃ³
Ġev acu
Ġingen io
Ġac h
Ġsalv ajes
Ġnorma tivas
Ġde ficiencias
Ġam ores
ĠH onda
ips is
Ġlide ra
Ġn in
ĠH id
Ġincom ple
I ma
ĠAplic aciÃ³n
Ġconsec uciÃ³n
ri dades
Ġpreocu par
Ġf eo
ruc e
Ġvendi endo
Ġp abellÃ³n
cre o
Ġmayor ia
Ġre ba
ti ci
Ġvia jÃ³
Ġmar cados
ten go
ia t
Ġcaba Ã±a
Ġinterac ciones
blogs pot
G AN
Ġdesp le
Ġtendr Ã©
Ġemple ada
Ġri ge
Ġadmi tiÃ³
Ġtermin ando
Ġsign ificar
Ġmanio bras
Ã³st ol
tor y
cri tas
ĠAn exo
ĠPo tter
Ġocta va
Ġp irÃ¡mi
ist ado
Ġanim ar
ĠMar ÃŃn
aliz aron
Bien venido
Ġca dera
Ġele f
Ġcru zado
ino psis
ĠM r
P AL
H S
ĠAF P
Ġevalu aciones
Ġdivis iones
ĠVal e
Ġu tens
ĠJosep h
Ġcon fer
ĠPol ar
en ciÃ³
Ġvuel van
com p
Ġtradu cido
ĠpolÃŃt icamente
Ġis lam
Ġobs esiÃ³n
Ġd inosau
Ġinici arÃ¡
ĠVal de
Ġtransfer ir
T or
Ġam e
Ġnacional ismo
I ES
Ġfol k
ĠcÃºp ula
ist ad
ĠW ay
Ġdirec tas
ĠP acto
Ġpublic an
Ġante pas
Ġorient ar
ci f
ĠA vi
ĠEmbaj ada
âĢĿ ),
ĠParti ci
Ġres gu
h r
Ġab ono
Ġmer amente
Dis pon
Ġbenef icia
Ġven as
Ġpes adilla
Ġest ables
vi dentemente
Ġcomun istas
ĠQ ues
ĠAl m
in stein
Ġencar gÃ³
ĠHern Ã¡n
Ġenvi ando
Ġpres unta
Ġres titu
ĠB es
Ġparlam entarios
AL L
ĠW ikipedia
Ġac el
ĠGRA TIS
ĠComun ista
Ġfren os
Ġsosp echos
Ġf ull
Con oce
Ġsepar adas
gen er
ĠN utriciÃ³n
ĠSegura mente
Ġrever tir
ĠH ur
Ġasequ ible
Ġob rera
Ġmoder ado
ĠfotÃ³ grafos
Ġlevan tado
Ġasist iÃ³
Ġrecib idas
ĠTemp lo
ĠFigu ra
ri ma
ĠRena ult
Cas i
ĠFron tera
S Ã©
Ġgu ionista
Ġaplic arse
Ġmanual idades
ver n
y m
Ġtra ck
Ġrelaj ante
Ġp se
Ġj al
X ICO
Ġfoto grÃ¡fico
li quen
Ġro dar
Ġindic ados
Ġso dio
r ara
Ġno bles
Ġcomp resiÃ³n
P ON
ĠCentro amÃ©rica
b ina
Ġyo gur
ĠD O
Ã³n imos
ĠM AT
ĠG ames
Ġambi ciÃ³n
Jes Ãºs
Ġmetodo l
Ġn ut
Ġpres untos
tÃ³ rica
Ġgratu itamente
Ġcre yentes
ĠDo Ã±a
Ġevangel io
ĠF res
Ġpul mon
Ġestudi Ã³
Ġguitar rista
ci ada
ĠCo ca
Ġocta vo
Ã¨ n
Ġdesarrol los
ĠL ong
pe te
Ġaten dido
ĠV arios
Ġr al
Ġcor tinas
Ġfin cas
Ġcr om
Ġjo venes
ĠO blig
Ġinforma tivos
Ġhon estidad
ff et
Ġneces itarÃ¡
ie ga
Ġdecir se
Ġincrement ado
Ġaval an
ĠN Ã©stor
Ġmin ero
ĠFre d
Ġcontrar res
de ste
ĠUS U
Ġges taciÃ³n
Ġf rio
Ġgen oci
Ġp Ã³
ĠNuev os
Ho tel
in st
Ġro bado
Ġveter ano
Ġestatu a
ĠAu gusto
ĠCor e
Ġconsum en
Ġamp ar
Ġcan tantes
en cio
ĠB esos
Ġvice versa
Ġm im
ĠH ierro
Ġnov el
Ġexten siones
ĠlegÃŃ timo
Ġtermin aciÃ³n
ĠM ila
Ġperu anos
ĠBos que
ĠC IA
Ġrecomend ada
Ġconce dido
omb o
it Ã©s
Ġestatu tos
Ġan on
ĠW W
Ġform ados
Ġdemas iadas
Ġam ables
emb ras
Bo ok
G al
Ġan estes
Ġconocer se
g ir
Ġinvers or
Ġjub ilados
Ġbo letÃŃn
Ġacum ular
Ġen gran
Ġgana derÃŃa
Ġnutri cional
Ġinspir ada
ĠmetÃ¡l ica
Ġexquis ito
ĠcÃ³mo damente
Ġcor aje
Ġop cional
Ġcaj Ã³n
S tar
ci ma
ĠFuer te
ĠacompaÃ± Ã³
l icas
Ġsospech oso
Ġsus crito
ĠAn der
Ġtor tur
Ġincluy a
ĠCon tiene
es tu
ĠA um
ĠautÃ©n ticos
ĠGal erÃŃa
Ġla ber
Ġespeci fica
domin io
Ġ ),
Ġestad ÃŃa
Ġ197 2
m era
ĠT ime
Ġri tuales
ID OS
Ġto caba
et te
Ġutil idades
Ġint ente
ul um
Ġpe inado
ĠInter Ã©s
ĠMa h
Ġperson alizaciÃ³n
ĠProce dimiento
C AN
ĠR ivas
ĠAs h
ĠaÃ© reas
ti me
Ġcuan tita
ĠDeb er
ĠAses or
ĠacompaÃ± ante
al s
l eros
il ios
Ġpo tes
Ġman cha
Ġterri toriales
Ġencabez ado
ĠMor elos
Ġpar ados
co pa
ĠP M
Ġcu ida
ĠCon n
Ġemple an
Ġcolch Ã³n
ĠNel son
Ġprivileg iada
Ġaudi encias
Ġembarca ciones
Ġdescendi entes
Ġocur riendo
Ġcor do
Ġabon ar
ĠcadÃ¡ver es
tic ar
uch os
on to
Ġir an
termin aciÃ³n
Ġbuc eo
oc ado
ĠMi x
entar ias
Ġli diar
ĠC ER
IEN TE
Ġg ad
ĠX IV
fer entes
Ġcr ono
Ġdiscrim ina
Pro grama
ip iÃ©
Ġacus Ã³
IL L
Ġauto con
Ġp ir
Ġposi tivamente
Ġreserv ados
Ġf os
guar dar
Ġn ic
Ġesta fa
Ġt ech
Ġfar macias
Ġafec tando
Ġpas illos
tol Ã³gico
se la
Ġproto tipo
ambi ente
vi ado
? âĢĿ.
ch t
Ġimp era
Ġc ib
! "
pan ish
ĠTaller es
ci entemente
ĠVers iÃ³n
ĠSal inas
Ġdefini ciones
Ð ĵ
ĠVÃ© lez
Ġefectu ado
Ġmedi ciones
Ġir respons
Ġder ram
Ġpar tÃŃ
Ġgener ados
Ġan tena
Ġco tiz
ĠI bar
Ġlin ks
Ġjurisp rudencia
ĠF ull
ĠÃ© tico
rea k
ĠEsco bar
D EN
B ER
Ġ24 0
Ġtrip ulaciÃ³n
Ġseg mentos
Ġprestig ioso
ĠcÃ³ r
Ġmer ecido
Ġca iga
Ġb ell
ga ta
Ġescuch Ã³
Ġprofun diz
Ġreembol so
Ġproble mÃ¡ticas
Ġna ta
gen era
Ġdisfru tamos
Ġno tado
Ġespes or
Ġinaugu rado
ĠO k
Ġcal ib
ĠMon taÃ±a
Ġbi olÃ³gica
Ġsometer se
ĠD T
Ġind ud
Ġtelef Ã³nicas
Ġamist oso
Ġes cur
pe o
ĠJ r
gu erra
ĠRoc ÃŃo
in fo
Ġve ÃŃan
Ġsegu iremos
Ġal usiÃ³n
ĠH ubo
ĠActu alidad
p per
Ġadqui riÃ³
ĠTe orÃŃa
Ġcontrad icciÃ³n
Ġconsol as
Ġejerci tar
Ġagu ja
Ġlin f
Ġrequer ir
ĠUn idades
cu al
Ġrefrig er
Ġ11 5
Ġrequier an
ĠUN AM
ijo te
Ġinfl uyen
Ġabund antes
ĠBr uno
aj illas
ĠN ex
Ġelev adas
Ġpu Ã±ado
Ġden e
ÃŃr culo
ĠL ula
Ġcons igna
ĠAudi torio
Ġrepresent ada
ĠR onda
Ġdisfru ten
Ġaconsej able
Ġrecord aba
Ġfran co
ĠestÃŃm ulos
Ġvac as
ĠVol kswagen
ĠMel illa
Ġais lado
h ue
ĠZ ar
Ġtranquil amente
Ġpres ionar
Ġser ias
ĠW es
Con tra
ci taciÃ³n
Ġrec ort
Ġespir al
Ġpl umas
ĠAp licaciones
Ġla zo
Ġconstitu ida
Ã «
ĠB rad
Ġgastron Ã³mica
ĠM enos
ĠCon tamos
ĠCom Ãºn
Ã© ticamente
ĠPlan eta
Ġlook s
Ġaj enas
tecn ologÃŃa
Ġra yo
Ġanaliz ando
in ch
Medi ante
Ġestim ulaciÃ³n
Ġdorm ido
ul oso
Ġca Ã±
ĠSe at
Z apa
Ġconserv ador
Ġdesh idra
Ġpe d
Ġaconse ja
P H
Ġas ilo
Ġsustent able
Ġac ento
Ġpromo cionales
c s
Ġinmejor able
t v
ho use
Ãī S
Ġah og
Ġpl ur
Ġintent aba
uev os
Ġejecut ado
ĠGab inete
Ġestu vieran
Ġt icket
Ġ3 000
Ġconmemor aciÃ³n
PU B
ĠAdri Ã¡n
t omÃŃa
Ġmuch ÃŃsimos
g ras
polit ano
R AS
tr Ã©
b ando
Ġdel gada
Ġcontribu ido
Ġgay s
ros as
Ġ9 78
Ġautor izada
Ġconduci do
v idos
Ġcomenz aba
G AR
Ġhin chas
Ġcub ren
Ġecu aciÃ³n
b rica
Ġdest inar
ĠPRI M
Ġm uc
Ġseleccion e
ĠV iena
leg as
Ġhem bra
Ġmetodo logÃŃas
b Ã³
Ġconcur s
ĠZ ara
Ġc iego
Ġdi ur
ĠC ross
ĠEv entos
Ġrid ÃŃculo
B as
Ġencon tre
in arse
Ġvi Ã±e
Ġtable ta
Ġaus p
Ġdef endiÃ³
Ġsuminist ros
ĠAn th
ĠK u
Ġagres ivo
ĠhelicÃ³p tero
Ã¡ Ã±ez
Ġar om
Ġsi entas
Ġesca p
Ġcap rich
Ã© ri
Ġabaste cimiento
Ġre puestos
ĠprohÃŃ be
Ġcan ela
Ġre tener
ÃŃcul um
Ġcoloc an
ï¼ Į
ĠW ork
ul ando
Ġmuel le
il s
CU LO
ĠenseÃ± ado
ĠDis pone
Ġdiri gen
Ġserp iente
Ġactiv ado
m ic
Ġproces iÃ³n
Ġdispu tarÃ¡
ĠDes p
Ġgener osidad
Ġexpres an
Ġenf o
pue de
Ġen ta
Ġcorpora tivo
Ġimp iden
Ġvar Ã³n
Ġlig ado
ĠSteph en
Ġvalent ÃŃa
Ġsol tera
Ġop ina
Ġviv ÃŃan
ĠdifÃŃcil mente
Ġcho fer
Ġdiferenci ar
Ġinter con
Ġafirma ciones
Ġnum er
ĠH oras
Ġd Ãºo
ton as
Ġu va
Cons ul
Ġsemin arios
Ġanticip aciÃ³n
al an
ĠArro yo
ĠRel ig
F und
Ġcu raciÃ³n
ĠAl quiler
Ġapren den
des l
Ġ15 00
ĠenseÃ± Ã³
Z O
Ġatmos f
ĠM isa
Ġprop iamente
ĠJos ef
]âĢĭ [
tr Ã¡n
Ġma go
Ġaudi torio
Ġembal aje
R C
it tle
Ġla guna
uch es
pol is
ĠRecom end
ĠL t
Ġpe dia
Ġgust en
Ġmon itores
Ġenrique ce
Ġdescub rÃŃ
ĠMens ajes
ĠD ice
ĠYo ga
Ġdesconoci miento
Ġencan tadora
M ir
ĠR ick
ĠBuen as
ĠCÃ¡n cer
Ġmarc adores
ĠF lam
Ã©s el
!! !!!
Ġsuf rieron
ĠGin ebra
ĠPap el
ĠG ala
ĠâĢ º
Ġsolici te
po der
Ġvis a
Ġo jalÃ¡
Ġper sever
Ġpersegu ir
Ġconserv an
ich as
ĠTer cer
Ġlo tes
Ġdes echos
Ġconfigu ra
Ġac ude
an Ã¡lisis
tec nia
Ġfr ÃŃos
ĠMo bile
men os
Ġencuent res
Ġpl Ã¡t
Ġaerol ÃŃnea
k an
ĠC ano
Ġalcan zando
Recuer da
Ġd ragÃ³n
Ġindiscu tible
Ġla min
U P
Ġdetec ta
Ã¡ ramos
Ġta ur
Ġbr us
ĠSu pongo
Ġpropor cionado
ĠMay ores
Ġs n
Ġmon asterio
alo a
Ġmis m
Ġmeta f
Ġtable ts
ĠLegisla tura
Ġexten diÃ³
Ġe b
Ġcel da
Ġdel gado
ĠCar d
Ġgrad ualmente
r ina
ĠT ER
ĠÃŃn tima
iver pool
ĠcÃ³m ics
Ġcor dÃ³n
Ġfun dadores
ĠV eci
V iv
Ġtempor almente
Ġprelim inar
j im
is fer
Ġobje tiva
para ÃŃso
Ġpsic Ã³logo
ĠE ran
ĠCons ell
Ġdue Ã±a
por ta
Ġque das
Ġun ida
ĠL and
Ġresul tante
Ġtac Ã³n
Ġactiv ista
Ġpe gado
voca toria
ĠJava Script
Ġinvestig ando
Ġfi jas
y ug
ĠhistÃ³r icamente
ĠT RAN
re v
di Ã©ndose
ter io
ĠdesempeÃ± ar
Ġpu reza
ĠMe te
ĠCons umo
+ ]
Ġelim inando
Ġpal eta
Ġvul gar
ĠPel ÃŃculas
tos hop
Ġpres ide
N D
k is
Ġgras os
Ġgir as
Ġmanten ÃŃa
E uro
et y
Ġun iÃ³
ĠC ielo
Ġcor tado
ĠHa w
ĠAdo be
Ġdiscapa ci
Ġdis oluciÃ³n
tal o
ĠCo ch
ĠEn s
cas i
Quiz Ã¡s
Ġh rs
ĠLa w
Ġhacer los
Ġfe dera
ĠG rad
Ġocup ados
ĠS es
a tivo
Ġdese es
ĠT Ã©rminos
Ġcultiv ar
ĠN as
pro yecto
ri an
ĠRecuer do
Ġqu esos
Ġconviv ir
ĠOfre ce
Ġmar chas
Ġv ener
ĠHum ano
ĠTer uel
Ġdefien den
Ġespe jos
Ġpaul at
Ġnacional istas
ĠS MS
Ġdom ina
Ġcar gador
Ġregul an
ĠFilip inas
ac on
fec tos
ĠNa talia
Ġrev al
Ġtan ques
ĠRes ulta
oz co
Ġf ilo
Ġfes tivos
con f
d ge
Ġexces ivamente
ĠL um
t ento
Ġpres cripciÃ³n
ĠAlej andra
Ġop inar
Ġrique zas
Ġentre gados
ĠTrans portes
Ġestim ula
Ġbi olÃ³gico
lo ck
Ġsob rena
ĠP OS
Ġmir an
O tras
De ja
Ġ196 9
ĠIn dÃŃ
Ġd ÃŃg
Ġsacar le
ĠNa ve
Ġsuce den
quil a
Ġan taÃ±o
Ġenv ol
Ġd am
Ġlib era
oma gn
Ġescul turas
E qui
ĠF ort
Ġg lam
Ġapasion ante
dar ia
in gu
Ġsec undar
Ġhe bre
Ġfalle cidos
Ġcontrad icciones
Ġplas ma
ĠMe ga
Ġ196 7
Ġdescub riendo
que t
ĠTe ma
S D
Ġle ves
v idas
Ġsocial mente
Ġsim ulaciÃ³n
i ante
ĠP adres
ĠEspe ciales
ĠGal lar
Ġpy mes
ĠW EB
ag s
D av
ĠN I
Ġp ilar
Ġcar gada
ĠPe da
ĠNA CIONAL
ĠL Ã¡zaro
x el
Ġa tas
Ġin jer
Ġmal etas
Ġcoinci dir
ĠL ight
Ġenferm era
S em
âĢ¦ ,
Ġpuls ar
frad ÃŃa
ĠA dap
Ġcorte za
Ġexp ro
ĠD if
ĠClo ud
Ġyo ur
ion ados
Ġan omal
ĠNa zar
ĠdomÃ©st ica
Ġaver ÃŃas
ĠS ign
ĠOfre cemos
ur Ã³
Ġpura mente
ĠTrans parencia
ĠS iendo
Ġsi embra
Ġapre h
Ġocul tos
Ġ7 50
ĠvÃ¡lv ula
CO O
ĠPrima vera
M ig
Ġcomplementar ias
> >
Com un
den cial
Ġval en
ĠAs oci
Ġofre ci
tor e
ĠG rupos
Ġcontin entes
Ġc era
ĠAnti gua
Ġprivileg iado
Ġpira tas
ĠGer encia
ut y
Ġdo taciÃ³n
ĠSO BRE
Ġater riz
ĠTech n
ĠPo drÃŃa
Ġprecip itaciones
ĠPo drÃ¡s
f l
iz adores
Ġenvi ada
Ġsu yas
ĠD y
Ġse quÃŃa
ĠA riel
Ġdivers a
ĠS ecu
Ġev a
Ġgarantiz ando
Ġcab ida
Ġrequer imiento
Ġprome tiÃ³
ĠDoc ente
AM A
Ġen do
ĠPue blos
Ġvis iones
Ġdefin iÃ³
Re al
Ġinjust o
Ġtir ada
Ġab ras
tr u
Ġinter rupciÃ³n
Ġcar rito
Ġencontrar Ã¡n
ĠAr mas
Ġdibu j
Ġremo ta
Ġa va
Ġpregun tÃ©
ĠGuan ajuato
Ġcomun itarios
ĠLe w
su per
Ġform almente
Ġsan eamiento
ter es
Ġcal ificaciones
ĠRes pecto
cam pe
Ġlad rillo
Ġinesta bilidad
z or
Ġdesplaz amientos
Ġenfa tizÃ³
pp ing
Ġ% ,
Ġsobre peso
Ġincorpor an
Ġdescar tar
ĠV arela
Ġsuces or
Ġimperme abil
Ġaf e
Cu enta
Ġemp aque
Ġinv itan
Ġdes al
ĠG im
Ġcoman dos
Ġanunci aron
ĠPV C
T ener
ific adas
ĠEl ÃŃas
Ġtrav esÃŃa
man as
Ġtable tas
p ing
Ġprohib ida
ust ro
Ġcomba tes
Ġconvoc Ã³
Ġdes embol
Ġol vide
Ġinstal ados
Ġcomp asiÃ³n
Ġsorpren dentes
Ġna cida
Ġro tura
ea t
Ã³ ticos
Ġtraduc ciones
Ġprede termin
ĠL ista
b ell
ĠCor re
Ġpropor cional
Ãĳ OS
Ġencab eza
ti Ã©ndose
ĠBar ack
Disfru ta
ĠPotos ÃŃ
Ġsab io
ĠhÃ¡bi tat
ĠGaran tÃŃa
Ġrespe ta
Ġorganiz ador
Ġmatem Ã¡tica
Ġor ques
Ġsolici tante
Ġviv as
Ġenrique cer
Ġaspir ante
Pos teriormente
Ġsec ado
ĠRev olucion
ĠNe uro
Ġapa gar
ĠO peraciÃ³n
ĠBel grano
Ġpar an
ten ido
Ġconfes Ã³
ĠCu p
Ġb onaer
Ġmarc ando
Ġcru j
ĠN orth
ĠÃ ĳ
Ġconfec ciÃ³n
Ġcara vana
Ġden tales
Ġlev adura
Ġautoma tizaciÃ³n
" ).
ĠPERS ON
in arÃ¡
ĠE PUB
ust on
Ġpien se
ĠAcos ta
ĠNo kia
Ġinter cep
Ġsolici tados
Ġper i
Se lec
ĠCol o
Ġl un
Ġcatal o
Ġvay amos
ĠÃŃntegra mente
Ġregul ador
h y
an ual
tas io
Ġgener alizada
ĠV uelta
ĠmÃ¡r genes
Ġve is
Ġaten cion
Ġ197 1
ĠS oc
ĠSan z
c Ã³p
Ġab rieron
ĠK ey
Ġta par
ĠCoordin ador
Ġpres cin
ĠF lu
Ġer gon
Ġsuspendi do
Ġaprovech ado
Ġmister iosa
im ir
ber ry
di f
car se
Ġtar ot
Ġvel ada
ac tiva
ĠFer rer
Ġescrib en
ĠSoci edades
Ġvulner able
Ġtra tamos
ĠAc tividad
Ġempez aba
Ġsub en
Ġgor do
Ġgobern adores
Ġe uf
ĠA man
Ġimp utado
Serv icio
ro co
Ġentregar on
i arios
c ena
E v
Ġrefer ida
Ġdescub rimientos
IS T
ĠRo dolfo
Ġsen deros
Ã³ j
Ġinten sas
Ġcortes ÃŃa
Ġbel ga
Ġdic ta
Ha z
duc tor
Ġfirm es
Ġco e
Ġutiliz o
Ġpermitir ÃŃa
ĠB un
Ġat leta
stitu cional
Ġlatino americano
M L
ĠA parte
ĠÃ© ramos
minist ra
Ġsubsi di
Ġco he
Ġacci dental
Ġbal anza
Ġsimb Ã³lico
Ġre j
Ġac trices
ĠCon ocimiento
ĠS P
Ġob tuvieron
oso tras
Ġconv ento
la o
ĠE res
Ġtra iciÃ³n
Ġimpre gn
Ġluch an
ĠAÃ© rea
Ġvit alidad
ipiÃ© lago
C AL
Cons ide
Ġconven cidos
p ÃŃa
Ġimpos ibles
Ġtum ores
Ġs ic
Ġrendi mientos
Ġline amientos
ri ty
Ġz ur
Ġempren de
ĠHora cio
Ġmotocicle ta
ĠBo w
Ġvolun tariamente
Ġregener aciÃ³n
E I
Ġcon torno
Ġenci er
Ġcon gresos
ba i
Ġre i
ĠSport s
Ġorden ada
Ġpasaj ero
Ġan ular
Ġgener ada
Ġdespre cio
Ġcomple tado
Ġquer iendo
Ġretro ceso
vol ta
Ġmar tillo
e lo
Ġnie bla
ĠL lor
Ġtoma tes
Al guien
ĠTRA BA
Ġdec ente
Ġagar re
Ġtras lada
ĠTay lor
d amiento
le gos
Ġart ÃŃsticos
is ion
Ġva is
ĠelectrÃ³n icas
Ġpen itenci
ĠSin aloa
Ġestudi an
Ġalterna tivos
Ġpareci era
Ã©ndo les
T B
Ġfor zar
â ĸ
Ġlin das
ĠCam bie
Ġtro feo
Ġenv ase
r ÃŃo
Ġcas era
ĠGabri ela
Ġlogra mos
ĠA rist
rim e
Ġus Ã³
r icos
ĠBo u
Ġatrac tivas
Ġconstru idos
ĠDu arte
Ġatraves ar
Ġdem ol
Ġcons ent
Ġencontr ando
Ġprodu jeron
Ġsuce da
Ġcor al
Ġan alizado
Ġma f
Ġinsul tos
Ġtransform ado
m iendo
Ġtec las
c n
Ġal udi
Ġto allas
ĠK ir
ĠclÃ¡us ulas
Ġburbu ja
ti tis
Ġrefle jado
Ġb ob
Ġfres cura
ĠSent encia
le ge
ĠAf gan
Ãļ BL
ĠFOR MA
min g
ĠP ur
Ġma quinas
Ġpol o
Ġarm arios
qu ÃŃn
Ġopos itor
ĠInst rum
ro ja
Ġle ido
s ur
Ġcar ecen
Ġtec la
Ġvolver ÃŃa
l lo
Ġpla gas
Ġrecor riendo
ĠRos s
ĠcontemporÃ¡n eos
Ġv iuda
ĠContemp orÃ¡n
Ġd ri
ĠIngenier os
ĠHerman os
Ġdese aba
Ġhol an
Ġalberg ue
gra mos
Ġinvoluc rado
Ġcorpor ales
Ã³ mi
Ġconec tarse
Ġbru to
Ġejer cen
ĠA con
Ġcol ombia
Ġplan tar
Ġimp licaciones
Ġcritic ado
ĠCa ixa
ĠAten as
Ġamino Ã¡
Ġh ito
des arrol
Ġin no
ENTA CIÃĵN
Ġneces it
ĠPa go
ren e
Ġproteg idas
Ġaus ente
Ġsug ieren
Ġen gor
Ġretir Ã³
Ġofrecer te
Ġorden aciÃ³n
ĠNo va
ĠQu ijote
des es
ĠL IB
Ġlib rerÃŃas
Ġinverna dero
Ġciruj ano
Ġescrib ÃŃ
Ġpareci dos
c amp
ĠRespons able
[...]
